{
  "version": "1.0",
  "truncation": null,
  "padding": null,
  "added_tokens": [
    {
      "id": 0,
      "content": "<BLANK>",
      "single_word": false,
      "lstrip": false,
      "rstrip": false,
      "normalized": false,
      "special": true
    },
    {
      "id": 1,
      "content": "<S>",
      "single_word": false,
      "lstrip": false,
      "rstrip": false,
      "normalized": false,
      "special": true
    },
    {
      "id": 2,
      "content": "<UNK>",
      "single_word": false,
      "lstrip": false,
      "rstrip": false,
      "normalized": false,
      "special": true
    }
  ],
  "normalizer": {
    "type": "Sequence",
    "normalizers": [
      {
        "type": "NFD"
      },
      {
        "type": "Lowercase"
      },
      {
        "type": "Strip",
        "strip_left": true,
        "strip_right": true
      }
    ]
  },
  "pre_tokenizer": {
    "type": "Sequence",
    "pretokenizers": [
      {
        "type": "Whitespace"
      },
      {
        "type": "Digits",
        "individual_digits": true
      }
    ]
  },
  "post_processor": null,
  "decoder": null,
  "model": {
    "type": "BPE",
    "dropout": null,
    "unk_token": "[UNK]",
    "continuing_subword_prefix": "_",
    "end_of_word_suffix": null,
    "fuse_unk": false,
    "byte_fallback": false,
    "vocab": {
      "<BLANK>": 0,
      "<S>": 1,
      "<UNK>": 2,
      "!": 3,
      "\"": 4,
      "$": 5,
      "%": 6,
      "&": 7,
      "'": 8,
      "(": 9,
      ")": 10,
      "+": 11,
      ",": 12,
      "-": 13,
      ".": 14,
      "/": 15,
      "0": 16,
      "1": 17,
      "2": 18,
      "3": 19,
      "4": 20,
      "5": 21,
      "6": 22,
      "7": 23,
      "8": 24,
      "9": 25,
      ":": 26,
      ";": 27,
      "<": 28,
      ">": 29,
      "?": 30,
      "[": 31,
      "]": 32,
      "a": 33,
      "b": 34,
      "c": 35,
      "d": 36,
      "e": 37,
      "f": 38,
      "g": 39,
      "h": 40,
      "i": 41,
      "j": 42,
      "k": 43,
      "l": 44,
      "m": 45,
      "n": 46,
      "o": 47,
      "p": 48,
      "q": 49,
      "r": 50,
      "s": 51,
      "t": 52,
      "u": 53,
      "v": 54,
      "w": 55,
      "x": 56,
      "y": 57,
      "z": 58,
      "~": 59,
      "¥": 60,
      "°": 61,
      "²": 62,
      "½": 63,
      "¾": 64,
      "đ": 65,
      "̀": 66,
      "́": 67,
      "̂": 68,
      "̃": 69,
      "̆": 70,
      "̈": 71,
      "̉": 72,
      "̛": 73,
      "̣": 74,
      "̧": 75,
      "–": 76,
      "—": 77,
      "‘": 78,
      "’": 79,
      "“": 80,
      "”": 81,
      "_u": 82,
      "_n": 83,
      "_j": 84,
      "_a": 85,
      "_b": 86,
      "_s": 87,
      "_f": 88,
      "_w": 89,
      "_r": 90,
      "_o": 91,
      "_̆": 92,
      "_́": 93,
      "_g": 94,
      "_e": 95,
      "_m": 96,
      "_i": 97,
      "_x": 98,
      "_̀": 99,
      "_t": 100,
      "_̣": 101,
      "_̂": 102,
      "_h": 103,
      "_̃": 104,
      "_d": 105,
      "_l": 106,
      "_̛": 107,
      "_c": 108,
      "_̉": 109,
      "_k": 110,
      "_y": 111,
      "_v": 112,
      "_p": 113,
      "_z": 114,
      "_\"": 115,
      "_.": 116,
      "_,": 117,
      "_q": 118,
      "_-": 119,
      "_̈": 120,
      "_̧": 121,
      "_”": 122,
      "_/": 123,
      "_(": 124,
      "_)": 125,
      "_:": 126,
      "_“": 127,
      "_;": 128,
      "_ng": 129,
      "_ư": 130,
      "_ê": 131,
      "_ơ": 132,
      "_à": 133,
      "_̣̂": 134,
      "_ô": 135,
      "th": 136,
      "_â": 137,
      "_á": 138,
      "_ươ": 139,
      "tr": 140,
      "_iê": 141,
      "ch": 142,
      "_ạ": 143,
      "nh": 144,
      "_nh": 145,
      "kh": 146,
      "_ộ": 147,
      "_ó": 148,
      "_́t": 149,
      "ng": 150,
      "_̣c": 151,
      "và": 152,
      "_ă": 153,
      "_́c": 154,
      "ph": 155,
      "cu": 156,
      "_ác": 157,
      "_ả": 158,
      "_ệ": 159,
      "_̀ng": 160,
      "gi": 161,
      "_́n": 162,
      "_́i": 163,
      "qu": 164,
      "_iệ": 165,
      "_ông": 166,
      "_̉a": 167,
      "là": 168,
      "_̀n": 169,
      "như": 170,
      "_̀i": 171,
      "có": 172,
      "_ể": 173,
      "_ậ": 174,
      "của": 175,
      "ho": 176,
      "_̀u": 177,
      "_́ng": 178,
      "các": 179,
      "đươ": 180,
      "_̃ng": 181,
      "_ột": 182,
      "một": 183,
      "_ã": 184,
      "_an": 185,
      "_ị": 186,
      "_ì": 187,
      "_ất": 188,
      "_ong": 189,
      "_uy": 190,
      "được": 191,
      "_ên": 192,
      "_ại": 193,
      "_ới": 194,
      "trong": 195,
      "_ặ": 196,
      "những": 197,
      "_ười": 198,
      "_í": 199,
      "_ày": 200,
      "tư": 201,
      "đã": 202,
      "đê": 203,
      "người": 204,
      "_́p": 205,
      "_iể": 206,
      "du": 207,
      "sư": 208,
      "_iên": 209,
      "độ": 210,
      "_ay": 211,
      "_ế": 212,
      "ơ": 213,
      "cho": 214,
      "ở": 215,
      "thể": 216,
      "_ân": 217,
      "không": 218,
      "_ình": 219,
      "_ố": 220,
      "_ầu": 221,
      "_ần": 222,
      "_ổ": 223,
      "_̣ng": 224,
      "thư": 225,
      "_iện": 226,
      "_ạn": 227,
      "_ành": 228,
      "với": 229,
      "này": 230,
      "_iều": 231,
      "chu": 232,
      "nă": 233,
      "thu": 234,
      "tiê": 235,
      "_ang": 236,
      "khi": 237,
      "_ước": 238,
      "vào": 239,
      "hơ": 240,
      "_ải": 241,
      "bă": 242,
      "_ặc": 243,
      "khác": 244,
      "để": 245,
      "_on": 246,
      "_ai": 247,
      "ngh": 248,
      "_ết": 249,
      "_ường": 250,
      "_ận": 251,
      "_ài": 252,
      "phá": 253,
      "_ây": 254,
      "đến": 255,
      "_ao": 256,
      "_ữ": 257,
      "_ương": 258,
      "từ": 259,
      "_ống": 260,
      "_ốc": 261,
      "_inh": 262,
      "_au": 263,
      "_ề": 264,
      "_ật": 265,
      "bị": 266,
      "_ính": 267,
      "_ở": 268,
      "vu": 269,
      "ra": 270,
      "đô": 271,
      "sự": 272,
      "_ẽ": 273,
      "chi": 274,
      "đị": 275,
      "_ời": 276,
      "đó": 277,
      "_ấ": 278,
      "bạn": 279,
      "cư": 280,
      "_eo": 281,
      "về": 282,
      "năm": 283,
      "_am": 284,
      "lo": 285,
      "động": 286,
      "cả": 287,
      "_in": 288,
      "_àng": 289,
      "sẽ": 290,
      "_̃n": 291,
      "_iến": 292,
      "_iệc": 293,
      "số": 294,
      "trên": 295,
      "_ản": 296,
      "việc": 297,
      "_ộc": 298,
      "_ập": 299,
      "ky": 300,
      "_áo": 301,
      "_ỏ": 302,
      "_àn": 303,
      "nhiều": 304,
      "hơn": 305,
      "_̀m": 306,
      "nó": 307,
      "_er": 308,
      "công": 309,
      "đầu": 310,
      "_ar": 311,
      "_̉ng": 312,
      "đi": 313,
      "_iết": 314,
      "tuy": 315,
      "nhất": 316,
      "thành": 317,
      "_iểm": 318,
      "tại": 319,
      "gia": 320,
      "theo": 321,
      "_áng": 322,
      "_anh": 323,
      "hoặc": 324,
      "khu": 325,
      "_ền": 326,
      "nước": 327,
      "_ơi": 328,
      "nhà": 329,
      "_ức": 330,
      "_̣ch": 331,
      "_̣i": 332,
      "_ực": 333,
      "hiện": 334,
      "mu": 335,
      "quốc": 336,
      "tô": 337,
      "xe": 338,
      "thường": 339,
      "cũng": 340,
      "â": 341,
      "sau": 342,
      "_ịch": 343,
      "_ái": 344,
      "quan": 345,
      "do": 346,
      "lu": 347,
      "_ăn": 348,
      "tru": 349,
      "chỉ": 350,
      "ô": 351,
      "_al": 352,
      "thế": 353,
      "tu": 354,
      "họ": 355,
      "phải": 356,
      "_̀a": 357,
      "phu": 358,
      "_en": 359,
      "chính": 360,
      "kho": 361,
      "chúng": 362,
      "dụng": 363,
      "_ấp": 364,
      "lại": 365,
      "cách": 366,
      "chuy": 367,
      "_ĩ": 368,
      "học": 369,
      "_ặt": 370,
      "_̣p": 371,
      "to": 372,
      "_âu": 373,
      "ră": 374,
      "_iểu": 375,
      "xu": 376,
      "thông": 377,
      "_́ch": 378,
      "_ổi": 379,
      "trước": 380,
      "quy": 381,
      "lơ": 382,
      "co": 383,
      "_ọi": 384,
      "_ối": 385,
      "qua": 386,
      "phát": 387,
      "thời": 388,
      "_ạt": 389,
      "_ảng": 390,
      "rằng": 391,
      "con": 392,
      "_ôn": 393,
      "địa": 394,
      "nên": 395,
      "_́m": 396,
      "_ảo": 397,
      "_iển": 398,
      "hai": 399,
      "_ạng": 400,
      "nhưng": 401,
      "sử": 402,
      "vâ": 403,
      "_ạo": 404,
      "_ào": 405,
      "_ỗ": 406,
      "thực": 407,
      "ngày": 408,
      "\"\"": 409,
      "_ch": 410,
      "rất": 411,
      "_iệt": 412,
      "điều": 413,
      "_ánh": 414,
      "hàng": 415,
      "lươ": 416,
      "_ẩ": 417,
      "_át": 418,
      "làm": 419,
      "vì": 420,
      "_ội": 421,
      "mà": 422,
      "điểm": 423,
      "cơ": 424,
      "vật": 425,
      "đường": 426,
      "phí": 427,
      "hình": 428,
      "đại": 429,
      "định": 430,
      "viên": 431,
      "_ờ": 432,
      "bản": 433,
      "bằng": 434,
      "cuộc": 435,
      "_ếu": 436,
      "_̉nh": 437,
      "_ia": 438,
      "_óa": 439,
      "_or": 440,
      "thứ": 441,
      "hành": 442,
      "nơi": 443,
      "dư": 444,
      "_ẻ": 445,
      "_̣t": 446,
      "ngo": 447,
      "_ấy": 448,
      "_ưởng": 449,
      "vụ": 450,
      "trình": 451,
      "hợp": 452,
      "bộ": 453,
      "pháp": 454,
      "trường": 455,
      "tiếng": 456,
      "nhận": 457,
      "trung": 458,
      "_óng": 459,
      "hay": 460,
      "giới": 461,
      "_ấu": 462,
      "_iệu": 463,
      "lớn": 464,
      "kết": 465,
      "ta": 466,
      "đang": 467,
      "hóa": 468,
      "kỳ": 469,
      "lịch": 470,
      "bắt": 471,
      "_ích": 472,
      "dân": 473,
      "đo": 474,
      "_ữa": 475,
      "nói": 476,
      "biết": 477,
      "liên": 478,
      "_ưa": 479,
      "tro": 480,
      "nhân": 481,
      "ông": 482,
      "_áy": 483,
      "thức": 484,
      "nào": 485,
      "tiếp": 486,
      "_́u": 487,
      "trở": 488,
      "tự": 489,
      "tổ": 490,
      "_is": 491,
      "hô": 492,
      "văn": 493,
      "_el": 494,
      "nguy": 495,
      "_ởi": 496,
      "ly": 497,
      "mặt": 498,
      "chiến": 499,
      "tạo": 500,
      "_ắc": 501,
      "dù": 502,
      "khách": 503,
      "ảnh": 504,
      "vực": 505,
      "tháng": 506,
      "_uyền": 507,
      "đu": 508,
      "_ôi": 509,
      "báo": 510,
      "giải": 511,
      "phía": 512,
      "anh": 513,
      "cấp": 514,
      "_ốn": 515,
      "khoảng": 516,
      "đây": 517,
      "phần": 518,
      "_es": 519,
      "_ộng": 520,
      "so": 521,
      "_âm": 522,
      "lý": 523,
      "cần": 524,
      "nam": 525,
      "nếu": 526,
      "vi": 527,
      "ý": 528,
      "chiê": 529,
      "nhiên": 530,
      "ba": 531,
      "_ến": 532,
      "_ển": 533,
      "năng": 534,
      "còn": 535,
      "_et": 536,
      "vùng": 537,
      "gọi": 538,
      "mới": 539,
      "_at": 540,
      "nhau": 541,
      "đồng": 542,
      "đối": 543,
      "lượng": 544,
      "_as": 545,
      "cùng": 546,
      "bay": 547,
      "đất": 548,
      "_àu": 549,
      "ro": 550,
      "tin": 551,
      "_̣a": 552,
      "gian": 553,
      "_and": 554,
      "thă": 555,
      "_ạm": 556,
      "_ệnh": 557,
      "đề": 558,
      "cầu": 559,
      "lên": 560,
      "sinh": 561,
      "tế": 562,
      "di": 563,
      "lư": 564,
      "_ứng": 565,
      "chức": 566,
      "xuất": 567,
      "mặc": 568,
      "_án": 569,
      "_iệm": 570,
      "_ượt": 571,
      "bu": 572,
      "ư": 573,
      "đông": 574,
      "phi": 575,
      "_ìm": 576,
      "hệ": 577,
      "_ách": 578,
      ".\"": 579,
      "phương": 580,
      "đều": 581,
      "ban": 582,
      "bởi": 583,
      "gần": 584,
      "máy": 585,
      "tình": 586,
      "_ễ": 587,
      "_iễn": 588,
      "quân": 589,
      "thủ": 590,
      "nghĩ": 591,
      "vẫn": 592,
      "hội": 593,
      "tiên": 594,
      "phố": 595,
      "loài": 596,
      "tìm": 597,
      "hầu": 598,
      "nay": 599,
      "thống": 600,
      "toàn": 601,
      "sát": 602,
      "tàu": 603,
      "giáo": 604,
      "ngoài": 605,
      "lập": 606,
      "chuyển": 607,
      "tới": 608,
      "_ầm": 609,
      "gô": 610,
      "hết": 611,
      "tính": 612,
      "loại": 613,
      "vị": 614,
      "thị": 615,
      "bao": 616,
      "biệt": 617,
      "su": 618,
      "thấy": 619,
      "nhỏ": 620,
      "cảnh": 621,
      "hu": 622,
      "_ic": 623,
      "_ăng": 624,
      "hoạt": 625,
      "_ẩn": 626,
      "bệnh": 627,
      "đặc": 628,
      "_é": 629,
      "tho": 630,
      "_ạc": 631,
      "trọng": 632,
      "gồm": 633,
      "cao": 634,
      "tây": 635,
      "truyền": 636,
      "chất": 637,
      "giá": 638,
      "_ỗi": 639,
      "biến": 640,
      "mình": 641,
      "vận": 642,
      "_ro": 643,
      "_iệp": 644,
      "mùa": 645,
      "đội": 646,
      "minh": 647,
      "_ướng": 648,
      "_ảm": 649,
      "_ảy": 650,
      "lực": 651,
      "châu": 652,
      "_ạnh": 653,
      "_ãy": 654,
      "lần": 655,
      "giu": 656,
      "giữa": 657,
      "bắc": 658,
      "biển": 659,
      "tất": 660,
      "thiết": 661,
      "ă": 662,
      "mọi": 663,
      "nu": 664,
      "sống": 665,
      "tập": 666,
      "thương": 667,
      "giúp": 668,
      "ăn": 669,
      "mang": 670,
      "sáng": 671,
      "tác": 672,
      "_it": 673,
      "kỷ": 674,
      "_us": 675,
      "_le": 676,
      "giống": 677,
      "thuộc": 678,
      "tham": 679,
      "quyền": 680,
      "ty": 681,
      "trượt": 682,
      "khỏ": 683,
      "dươ": 684,
      "_è": 685,
      "_ẫn": 686,
      "_óm": 687,
      "nghĩa": 688,
      "điện": 689,
      "_òng": 690,
      "ngữ": 691,
      "diễn": 692,
      "ít": 693,
      "đảo": 694,
      "hoa": 695,
      "chủ": 696,
      "tuyết": 697,
      "chiếc": 698,
      "dịch": 699,
      "hãy": 700,
      "_ing": 701,
      ").": 702,
      "dài": 703,
      "_ol": 704,
      "thì": 705,
      "_ắt": 706,
      "giờ": 707,
      "kiện": 708,
      "_ur": 709,
      "_ép": 710,
      "chương": 711,
      "cử": 712,
      "vấn": 713,
      "giao": 714,
      "nguyên": 715,
      "bất": 716,
      "bên": 717,
      "bảo": 718,
      "đổi": 719,
      "_im": 720,
      "_ấn": 721,
      "ngu": 722,
      "tốt": 723,
      "cố": 724,
      "tay": 725,
      "_ợ": 726,
      "bình": 727,
      "cáo": 728,
      "in": 729,
      "_̣n": 730,
      "_êu": 731,
      "trí": 732,
      "_iêng": 733,
      "nhóm": 734,
      "cung": 735,
      "xác": 736,
      "đưa": 737,
      "_ám": 738,
      "ngôn": 739,
      "_ậy": 740,
      "cứu": 741,
      "gây": 742,
      "_ừng": 743,
      "bầu": 744,
      "quá": 745,
      "hưởng": 746,
      "_̀y": 747,
      "khoa": 748,
      "kinh": 749,
      "tương": 750,
      "tiêu": 751,
      "cộng": 752,
      "_ap": 753,
      "_ạch": 754,
      "hiểu": 755,
      "yêu": 756,
      "đặt": 757,
      "đánh": 758,
      "_lo": 759,
      "_̉i": 760,
      "thay": 761,
      "khả": 762,
      "khỏi": 763,
      "biểu": 764,
      "_́y": 765,
      "tranh": 766,
      "chứng": 767,
      "băng": 768,
      "ấn": 769,
      "dưới": 770,
      "_ad": 771,
      "_ak": 772,
      "triển": 773,
      "_iền": 774,
      "quả": 775,
      "tử": 776,
      "chuyến": 777,
      "ai": 778,
      "bã": 779,
      "bỏ": 780,
      "kế": 781,
      "đơ": 782,
      "luật": 783,
      "kiến": 784,
      "ne": 785,
      "phép": 786,
      "nghi": 787,
      "an": 788,
      "em": 789,
      "kể": 790,
      "kiểm": 791,
      "đức": 792,
      "_re": 793,
      "trẻ": 794,
      "_ạy": 795,
      "khó": 796,
      "khí": 797,
      "dùng": 798,
      "ấy": 799,
      "cổ": 800,
      "tên": 801,
      "_ri": 802,
      "_ồi": 803,
      "_ượng": 804,
      "núi": 805,
      "dễ": 806,
      "_ồn": 807,
      "chuẩn": 808,
      "_ắm": 809,
      "_ặm": 810,
      "tôi": 811,
      "âu": 812,
      "duy": 813,
      "mười": 814,
      "mỗi": 815,
      "nữ": 816,
      "sao": 817,
      "vậy": 818,
      "_ỹ": 819,
      "_ứ": 820,
      "bóng": 821,
      "tích": 822,
      "_ra": 823,
      "_ter": 824,
      "_hi": 825,
      "thích": 826,
      "trái": 827,
      "nghiệm": 828,
      "dự": 829,
      "căn": 830,
      "hướng": 831,
      "mức": 832,
      "mỹ": 833,
      "tâm": 834,
      "đấu": 835,
      "thần": 836,
      "_ắng": 837,
      "_ện": 838,
      "độc": 839,
      "xem": 840,
      "phủ": 841,
      "dành": 842,
      "hạn": 843,
      "kính": 844,
      "tinh": 845,
      "thân": 846,
      "trang": 847,
      "gì": 848,
      "sĩ": 849,
      "quanh": 850,
      "_ấm": 851,
      "bố": 852,
      "dẫn": 853,
      "dặm": 854,
      "rộng": 855,
      "st": 856,
      "giữ": 857,
      "phụ": 858,
      "đua": 859,
      "lưu": 860,
      "á": 861,
      "tốc": 862,
      "viện": 863,
      "đài": 864,
      "_ne": 865,
      "triệu": 866,
      "cuối": 867,
      "giảm": 868,
      "hòa": 869,
      "tiết": 870,
      "tiền": 871,
      "xuống": 872,
      "bang": 873,
      "la": 874,
      "mạng": 875,
      "sách": 876,
      "xa": 877,
      "_ạp": 878,
      "ngôi": 879,
      "phong": 880,
      "hoang": 881,
      "nghiên": 882,
      "hiểm": 883,
      "ru": 884,
      "đe": 885,
      "_om": 886,
      "tra": 887,
      "trận": 888,
      "chơi": 889,
      "ngay": 890,
      "_ắp": 891,
      "phổ": 892,
      "cụ": 893,
      "từng": 894,
      "tuyên": 895,
      "tối": 896,
      "_ẩm": 897,
      "lâu": 898,
      "riêng": 899,
      "sở": 900,
      "sản": 901,
      "vô": 902,
      "_ầy": 903,
      "ngư": 904,
      "cái": 905,
      "nền": 906,
      "sơ": 907,
      "viết": 908,
      "_ìn": 909,
      "_th": 910,
      "_iếm": 911,
      "nhật": 912,
      "nhiệt": 913,
      "phòng": 914,
      "danh": 915,
      "hiệu": 916,
      "tài": 917,
      "vệ": 918,
      "đáng": 919,
      "trị": 920,
      "trạng": 921,
      "nhiê": 922,
      "phân": 923,
      "hoàn": 924,
      "_ặp": 925,
      "tuổi": 926,
      "ứng": 927,
      "al": 928,
      "cây": 929,
      "tiểu": 930,
      "xây": 931,
      "yếu": 932,
      "trời": 933,
      "_iếu": 934,
      "chạy": 935,
      "nhanh": 936,
      "nhìn": 937,
      "chọn": 938,
      "nằm": 939,
      "thuật": 940,
      "cửa": 941,
      "hạng": 942,
      "_il": 943,
      "_ta": 944,
      "_ck": 945,
      "chế": 946,
      "_ắn": 947,
      "tiến": 948,
      "quyết": 949,
      "_éo": 950,
      "thoại": 951,
      "diện": 952,
      "km": 953,
      "nhập": 954,
      "quần": 955,
      "cứ": 956,
      "mục": 957,
      "ống": 958,
      "phục": 959,
      "hôm": 960,
      "ươ": 961,
      "_èo": 962,
      "mở": 963,
      "nội": 964,
      "sông": 965,
      "ti": 966,
      "đa": 967,
      "_̉y": 968,
      "vài": 969,
      "sức": 970,
      "nghiệp": 971,
      "đồ": 972,
      "muốn": 973,
      "dựng": 974,
      "tổng": 975,
      "thắng": 976,
      "câu": 977,
      "nổi": 978,
      "tố": 979,
      "vo": 980,
      "đá": 981,
      "trợ": 982,
      "lúc": 983,
      "_ist": 984,
      "dã": 985,
      "gắng": 986,
      "lời": 987,
      "liệu": 988,
      "môn": 989,
      "_eb": 990,
      "thái": 991,
      "trưởng": 992,
      "đêm": 993,
      "đôi": 994,
      "cực": 995,
      "âm": 996,
      "nguồn": 997,
      "lái": 998,
      "mã": 999,
      "mạnh": 1000,
      "nạn": 1001,
      "sân": 1002,
      "_ag": 1003,
      "_ốt": 1004,
      "thanh": 1005,
      "chung": 1006,
      "khủng": 1007,
      "ngựa": 1008,
      "hạt": 1009,
      "jo": 1010,
      "_ton": 1011,
      "_̃m": 1012,
      "_̃i": 1013,
      "trải": 1014,
      "chân": 1015,
      "chưa": 1016,
      "_uyên": 1017,
      "đền": 1018,
      "tuần": 1019,
      "đơn": 1020,
      "ca": 1021,
      "hy": 1022,
      "lễ": 1023,
      "tai": 1024,
      "xảy": 1025,
      "_land": 1026,
      "vua": 1027,
      "dòng": 1028,
      "luận": 1029,
      "trò": 1030,
      "dương": 1031,
      "gặp": 1032,
      "hiệp": 1033,
      "kéo": 1034,
      "đạt": 1035,
      "đạo": 1036,
      "_ran": 1037,
      "_ly": 1038,
      "_êm": 1039,
      "thêm": 1040,
      "_áu": 1041,
      "chỗ": 1042,
      "quay": 1043,
      "kỹ": 1044,
      "rõ": 1045,
      "new": 1046,
      "án": 1047,
      "ha": 1048,
      "tăng": 1049,
      "”.": 1050,
      "_os": 1051,
      "_id": 1052,
      "chị": 1053,
      "_uyết": 1054,
      "_ặng": 1055,
      "thúc": 1056,
      "ký": 1057,
      "tòa": 1058,
      "ar": 1059,
      "dạng": 1060,
      "ke": 1061,
      "mất": 1062,
      "tưởng": 1063,
      "vé": 1064,
      "đứng": 1065,
      "_te": 1066,
      "khá": 1067,
      "_ậm": 1068,
      "tục": 1069,
      "lợi": 1070,
      "đoạn": 1071,
      "hộ": 1072,
      "môi": 1073,
      "ri": 1074,
      "_co": 1075,
      "thổ": 1076,
      "_ệt": 1077,
      "hơi": 1078,
      "thăm": 1079,
      ".\"\"": 1080,
      "bốn": 1081,
      "kim": 1082,
      "lệ": 1083,
      "lan": 1084,
      "re": 1085,
      "tượng": 1086,
      "xin": 1087,
      "đình": 1088,
      "_ion": 1089,
      "thi": 1090,
      "trực": 1091,
      "nha": 1092,
      "khiến": 1093,
      "phạm": 1094,
      "_ứa": 1095,
      "nhiễm": 1096,
      "),": 1097,
      "bàn": 1098,
      "càng": 1099,
      "dấu": 1100,
      "miền": 1101,
      "só": 1102,
      "_iêm": 1103,
      "phản": 1104,
      "dụ": 1105,
      "đích": 1106,
      "hồ": 1107,
      "phim": 1108,
      "bão": 1109,
      "bo": 1110,
      "cá": 1111,
      "hải": 1112,
      "lạc": 1113,
      "rừng": 1114,
      "sạn": 1115,
      "sóng": 1116,
      "web": 1117,
      "xuyên": 1118,
      "_un": 1119,
      "_net": 1120,
      "_mp": 1121,
      "giả": 1122,
      "dục": 1123,
      "cảm": 1124,
      "_ard": 1125,
      "buộc": 1126,
      "inter": 1127,
      "internet": 1128,
      "ghi": 1129,
      "san": 1130,
      "sang": 1131,
      "tộc": 1132,
      "xư": 1133,
      "_ff": 1134,
      "_tr": 1135,
      "thấp": 1136,
      "thuyết": 1137,
      "chống": 1138,
      "phẩm": 1139,
      "quản": 1140,
      "hoàng": 1141,
      "nóng": 1142,
      "tuyến": 1143,
      "đoàn": 1144,
      "đủ": 1145,
      "chịu": 1146,
      "bánh": 1147,
      "cươ": 1148,
      "cắm": 1149,
      "dàng": 1150,
      "gư": 1151,
      "lông": 1152,
      "ma": 1153,
      "rơi": 1154,
      "sa": 1155,
      "sh": 1156,
      "xê": 1157,
      "_la": 1158,
      "trại": 1159,
      "trăng": 1160,
      "dung": 1161,
      "chú": 1162,
      "vũ": 1163,
      "đóng": 1164,
      "tôn": 1165,
      "tồn": 1166,
      "ước": 1167,
      "vọng": 1168,
      "biên": 1169,
      "să": 1170,
      "vòng": 1171,
      "đảm": 1172,
      "_ir": 1173,
      "nhu": 1174,
      "_ón": 1175,
      "ngân": 1176,
      "_ẳng": 1177,
      "chim": 1178,
      "cơn": 1179,
      "hồi": 1180,
      "buổi": 1181,
      "hãng": 1182,
      "sẵn": 1183,
      "cô": 1184,
      "cận": 1185,
      "me": 1186,
      "nữa": 1187,
      "tắc": 1188,
      "_gh": 1189,
      "hỏi": 1190,
      "thú": 1191,
      "mua": 1192,
      "phút": 1193,
      "ngoại": 1194,
      "soát": 1195,
      "bãi": 1196,
      "gửi": 1197,
      "xếp": 1198,
      "bài": 1199,
      "can": 1200,
      "gó": 1201,
      "kiếm": 1202,
      "lã": 1203,
      "úc": 1204,
      "thật": 1205,
      "thuyền": 1206,
      "_iêu": 1207,
      "nhạc": 1208,
      "phóng": 1209,
      "_ậu": 1210,
      "_ặn": 1211,
      "thử": 1212,
      "chụp": 1213,
      "nghệ": 1214,
      "hút": 1215,
      "_istan": 1216,
      "xử": 1217,
      "bảng": 1218,
      "cánh": 1219,
      "hạ": 1220,
      "huy": 1221,
      "long": 1222,
      "leo": 1223,
      "mối": 1224,
      "nặng": 1225,
      "par": 1226,
      "tạm": 1227,
      "uống": 1228,
      "xo": 1229,
      "xâm": 1230,
      "đời": 1231,
      "_ha": 1232,
      "_̉n": 1233,
      "thiên": 1234,
      "thao": 1235,
      "thờ": 1236,
      "chí": 1237,
      "nhiệm": 1238,
      "giấy": 1239,
      "tức": 1240,
      "xét": 1241,
      "chuyên": 1242,
      "tỷ": 1243,
      "joh": 1244,
      "áp": 1245,
      "bức": 1246,
      "hữ": 1247,
      "lộ": 1248,
      "mươ": 1249,
      "sắc": 1250,
      "tướng": 1251,
      "vượt": 1252,
      "_ồng": 1253,
      "chữ": 1254,
      "giác": 1255,
      "thụ": 1256,
      "nghiêm": 1257,
      "lựa": 1258,
      "hữu": 1259,
      "ả": 1260,
      "bổ": 1261,
      "bán": 1262,
      "he": 1263,
      "hè": 1264,
      "kiểu": 1265,
      "mar": 1266,
      "mưa": 1267,
      "mèo": 1268,
      "nổ": 1269,
      "vốn": 1270,
      "_em": 1271,
      "_ian": 1272,
      "_to": 1273,
      "_za": 1274,
      "ngươ": 1275,
      "ngành": 1276,
      "_ăm": 1277,
      "phê": 1278,
      "giai": 1279,
      "thuế": 1280,
      "nghị": 1281,
      "tuyệt": 1282,
      "dọc": 1283,
      "sup": 1284,
      "john": 1285,
      "bảy": 1286,
      "cạnh": 1287,
      "pro": 1288,
      "suy": 1289,
      "tiện": 1290,
      "vai": 1291,
      "_̣u": 1292,
      "_ca": 1293,
      "_áp": 1294,
      "khởi": 1295,
      "khắp": 1296,
      "phiếu": 1297,
      "chuyện": 1298,
      "_mpic": 1299,
      "cập": 1300,
      "gre": 1301,
      "hà": 1302,
      "hang": 1303,
      "ki": 1304,
      "nối": 1305,
      "oly": 1306,
      "tấn": 1307,
      "ủy": 1308,
      "ví": 1309,
      "đám": 1310,
      "đầy": 1311,
      "_ma": 1312,
      "thất": 1313,
      "_ẫ": 1314,
      "nhĩ": 1315,
      "giành": 1316,
      "hoạch": 1317,
      "_ers": 1318,
      "_aland": 1319,
      "dựa": 1320,
      "lãnh": 1321,
      "olympic": 1322,
      "bi": 1323,
      "binh": 1324,
      "bữa": 1325,
      "kích": 1326,
      "mộ": 1327,
      "tầm": 1328,
      "xã": 1329,
      "_bo": 1330,
      "_do": 1331,
      "_ỡ": 1332,
      "thập": 1333,
      "tháp": 1334,
      "trì": 1335,
      "chấp": 1336,
      "ngầm": 1337,
      "gió": 1338,
      "thuận": 1339,
      "xung": 1340,
      "mươi": 1341,
      "de": 1342,
      "lối": 1343,
      "mắc": 1344,
      "mắt": 1345,
      "ze": 1346,
      "_ue": 1347,
      "_so": 1348,
      "_man": 1349,
      "_lan": 1350,
      "tránh": 1351,
      "giản": 1352,
      "quán": 1353,
      "_ern": 1354,
      "lục": 1355,
      "trú": 1356,
      "phù": 1357,
      "lược": 1358,
      "vid": 1359,
      "chiếm": 1360,
      "ngủ": 1361,
      "áo": 1362,
      "sớm": 1363,
      "zealand": 1364,
      "bại": 1365,
      "cà": 1366,
      "gấp": 1367,
      "linh": 1368,
      "lấy": 1369,
      "nông": 1370,
      "rời": 1371,
      "ràng": 1372,
      "đột": 1373,
      "đàn": 1374,
      "_st": 1375,
      "trả": 1376,
      "triều": 1377,
      "chẳng": 1378,
      "nhị": 1379,
      "khuy": 1380,
      "khai": 1381,
      "ngại": 1382,
      "chia": 1383,
      "đọc": 1384,
      "đoán": 1385,
      "green": 1386,
      "as": 1387,
      "da": 1388,
      "dầu": 1389,
      "gh": 1390,
      "hỗ": 1391,
      "hậu": 1392,
      "lẽ": 1393,
      "mô": 1394,
      "met": 1395,
      "món": 1396,
      "sáu": 1397,
      "vư": 1398,
      "vong": 1399,
      "yên": 1400,
      "_og": 1401,
      "_li": 1402,
      "_cel": 1403,
      "_ph": 1404,
      "thiếu": 1405,
      "trao": 1406,
      "chóng": 1407,
      "chảy": 1408,
      "chứa": 1409,
      "quen": 1410,
      "_ãi": 1411,
      "chín": 1412,
      "_ina": 1413,
      "trụ": 1414,
      "\"\".": 1415,
      "thẳng": 1416,
      "ngược": 1417,
      "cân": 1418,
      "car": 1419,
      "dốc": 1420,
      "sai": 1421,
      "săn": 1422,
      "tái": 1423,
      "tạp": 1424,
      "xô": 1425,
      "đổ": 1426,
      "đăng": 1427,
      "_ti": 1428,
      "_ớ": 1429,
      "thiện": 1430,
      "trư": 1431,
      "nhớ": 1432,
      "ngàn": 1433,
      "_ãn": 1434,
      "thừa": 1435,
      "nghe": 1436,
      "khuôn": 1437,
      "hủy": 1438,
      "giám": 1439,
      "ánh": 1440,
      "sót": 1441,
      "bày": 1442,
      "bơi": 1443,
      "cam": 1444,
      "cầm": 1445,
      "hiếm": 1446,
      "mại": 1447,
      "mái": 1448,
      "rẻ": 1449,
      "se": 1450,
      "vẻ": 1451,
      "_ul": 1452,
      "_son": 1453,
      "_ẹ": 1454,
      "_if": 1455,
      "_va": 1456,
      "_ve": 1457,
      "_pp": 1458,
      "the": 1459,
      "trông": 1460,
      "chết": 1461,
      "nhă": 1462,
      "nhờ": 1463,
      "hỏa": 1464,
      "đế": 1465,
      "chủng": 1466,
      "địch": 1467,
      "tù": 1468,
      "coi": 1469,
      "_ẩy": 1470,
      "chiếu": 1471,
      "lửa": 1472,
      "thủy": 1473,
      "_ada": 1474,
      "nghỉ": 1475,
      "tỉnh": 1476,
      "_ẫu": 1477,
      "greenland": 1478,
      "nhằm": 1479,
      ".”": 1480,
      "af": 1481,
      "bào": 1482,
      "ích": 1483,
      "lạnh": 1484,
      "ni": 1485,
      "niệm": 1486,
      "sâu": 1487,
      "sợ": 1488,
      "tội": 1489,
      "_na": 1490,
      "_nes": 1491,
      "_ber": 1492,
      "_lin": 1493,
      "_kh": 1494,
      "_ya": 1495,
      "thiệt": 1496,
      "thẩm": 1497,
      "_ườn": 1498,
      "trạm": 1499,
      "trách": 1500,
      "trấn": 1501,
      "chiều": 1502,
      "khảo": 1503,
      "ngồi": 1504,
      "ngắn": 1505,
      "quê": 1506,
      "hòn": 1507,
      "bắn": 1508,
      "lòng": 1509,
      "_ine": 1510,
      "tùy": 1511,
      "_ore": 1512,
      "rút": 1513,
      ".\"\"\"": 1514,
      "thụy": 1515,
      "bác": 1516,
      "bar": 1517,
      "bờ": 1518,
      "cải": 1519,
      "cấu": 1520,
      "gu": 1521,
      "gốc": 1522,
      "hại": 1523,
      "har": 1524,
      "lây": 1525,
      "lệnh": 1526,
      "lạp": 1527,
      "mo": 1528,
      "mồi": 1529,
      "niên": 1530,
      "nor": 1531,
      "rập": 1532,
      "điển": 1533,
      "đẩy": 1534,
      "_ba": 1535,
      "_bur": 1536,
      "_sa": 1537,
      "_ry": 1538,
      "_ie": 1539,
      "_ld": 1540,
      "_ka": 1541,
      "thảo": 1542,
      "thậm": 1543,
      "trăm": 1544,
      "chặn": 1545,
      "nhẹ": 1546,
      "_ỏi": 1547,
      "đỉnh": 1548,
      "luôn": 1549,
      "lớp": 1550,
      "\"\",": 1551,
      "_ẩu": 1552,
      "hồng": 1553,
      "sung": 1554,
      "suốt": 1555,
      "thoải": 1556,
      "khỏe": 1557,
      "dưỡng": 1558,
      "_app": 1559,
      "_ney": 1560,
      "ảo": 1561,
      "video": 1562,
      "bề": 1563,
      "cai": 1564,
      "hương": 1565,
      "nã": 1566,
      "sing": 1567,
      "tám": 1568,
      "đới": 1569,
      "đốc": 1570,
      "đen": 1571,
      "đừng": 1572,
      "_ru": 1573,
      "_oo": 1574,
      "_ce": 1575,
      "_vid": 1576,
      "_..": 1577,
      "thạch": 1578,
      "truy": 1579,
      "chắc": 1580,
      "chạm": 1581,
      "chắn": 1582,
      "khiển": 1583,
      "thuốc": 1584,
      "_all": 1585,
      "đúng": 1586,
      "tín": 1587,
      "não": 1588,
      "bạc": 1589,
      "cắt": 1590,
      "hôn": 1591,
      "hát": 1592,
      "lá": 1593,
      "luy": 1594,
      "lâm": 1595,
      "mm": 1596,
      "mẫu": 1597,
      "pak": 1598,
      "sàng": 1599,
      "vời": 1600,
      "vĩ": 1601,
      "vỡ": 1602,
      "đắt": 1603,
      "”,": 1604,
      "_nn": 1605,
      "_ban": 1606,
      "_op": 1607,
      "_iv": 1608,
      "_ts": 1609,
      "_ver": 1610,
      "thẻ": 1611,
      "thượng": 1612,
      "_âng": 1613,
      "_ấc": 1614,
      "tri": 1615,
      "chối": 1616,
      "chấm": 1617,
      "nga": 1618,
      "phạt": 1619,
      "giày": 1620,
      "thùng": 1621,
      "_ail": 1622,
      "vuông": 1623,
      "loan": 1624,
      "trúc": 1625,
      "ổn": 1626,
      "màu": 1627,
      "_ori": 1628,
      "đòi": 1629,
      "nuôi": 1630,
      "cướp": 1631,
      "canada": 1632,
      "xoay": 1633,
      "khuyến": 1634,
      "north": 1635,
      "luyện": 1636,
      "pakistan": 1637,
      "blo": 1638,
      "bom": 1639,
      "iran": 1640,
      "kia": 1641,
      "kẻ": 1642,
      "lao": 1643,
      "lẫn": 1644,
      "miễn": 1645,
      "nỗ": 1646,
      "sch": 1647,
      "sánh": 1648,
      "tách": 1649,
      "vương": 1650,
      "_rg": 1651,
      "_ke": 1652,
      "_ợi": 1653,
      "thí": 1654,
      "char": 1655,
      "chờ": 1656,
      "nhắc": 1657,
      "phức": 1658,
      "giàu": 1659,
      "quận": 1660,
      "quảng": 1661,
      "_anistan": 1662,
      "_ona": 1663,
      "_ĩnh": 1664,
      "_orn": 1665,
      "đẹp": 1666,
      "_tron": 1667,
      "_ghanistan": 1668,
      "afghanistan": 1669,
      "buy": 1670,
      "bal": 1671,
      "bạo": 1672,
      "côn": 1673,
      "cas": 1674,
      "cap": 1675,
      "dan": 1676,
      "fl": 1677,
      "fran": 1678,
      "hạm": 1679,
      "is": 1680,
      "kịch": 1681,
      "lô": 1682,
      "lai": 1683,
      "lỗ": 1684,
      "man": 1685,
      "mol": 1686,
      "máu": 1687,
      "nư": 1688,
      "nai": 1689,
      "po": 1690,
      "rươ": 1691,
      "viễn": 1692,
      "đảng": 1693,
      "_bi": 1694,
      "_wa": 1695,
      "_rand": 1696,
      "_tor": 1697,
      "_zan": 1698,
      "_que": 1699,
      "thải": 1700,
      "thách": 1701,
      "khối": 1702,
      "khẩu": 1703,
      "giấc": 1704,
      "hoảng": 1705,
      "sừng": 1706,
      "đồi": 1707,
      "lò": 1708,
      "_ỏng": 1709,
      "ẩ": 1710,
      "dò": 1711,
      "dọa": 1712,
      "trùng": 1713,
      "_enia": 1714,
      "cỡ": 1715,
      "_ort": 1716,
      "_ord": 1717,
      "_orld": 1718,
      "dứt": 1719,
      "nguyện": 1720,
      "_ash": 1721,
      "ste": 1722,
      "star": 1723,
      "đèn": 1724,
      "_tral": 1725,
      "mét": 1726,
      "xoáy": 1727,
      "super": 1728,
      "bỉ": 1729,
      "metro": 1730,
      "vừa": 1731,
      "buýt": 1732,
      "rượu": 1733,
      "...": 1734,
      "au": 1735,
      "bà": 1736,
      "bước": 1737,
      "bầy": 1738,
      "cấm": 1739,
      "ga": 1740,
      "hư": 1741,
      "lạ": 1742,
      "liền": 1743,
      "mơ": 1744,
      "mong": 1745,
      "mạch": 1746,
      "rồi": 1747,
      "tệ": 1748,
      "tịch": 1749,
      "xi": 1750,
      "đào": 1751,
      "_nd": 1752,
      "_xi": 1753,
      "_̃a": 1754,
      "_les": 1755,
      "_ks": 1756,
      "thô": 1757,
      "thả": 1758,
      "trộ": 1759,
      "khăn": 1760,
      "khám": 1761,
      "ngăn": 1762,
      "ngắm": 1763,
      "pha": 1764,
      "pho": 1765,
      "sửa": 1766,
      "phán": 1767,
      "loạn": 1768,
      "tuyển": 1769,
      "khuẩn": 1770,
      "lưới": 1771,
      "dừng": 1772,
      "air": 1773,
      "kèm": 1774,
      "trưng": 1775,
      "blog": 1776,
      "am": 1777,
      "ber": 1778,
      "bối": 1779,
      "bra": 1780,
      "bla": 1781,
      "cal": 1782,
      "cát": 1783,
      "ele": 1784,
      "fe": 1785,
      "grand": 1786,
      "hiến": 1787,
      "hiển": 1788,
      "jam": 1789,
      "kông": 1790,
      "ken": 1791,
      "lí": 1792,
      "lốc": 1793,
      "lat": 1794,
      "lỗi": 1795,
      "lak": 1796,
      "lĩnh": 1797,
      "màn": 1798,
      "nấu": 1799,
      "pal": 1800,
      "rãi": 1801,
      "sổ": 1802,
      "sẻ": 1803,
      "siêu": 1804,
      "te": 1805,
      "tim": 1806,
      "tấm": 1807,
      "ủng": 1808,
      "va": 1809,
      "ven": 1810,
      "vườn": 1811,
      "world": 1812,
      "xạ": 1813,
      "đứa": 1814,
      "_uch": 1815,
      "_jan": 1816,
      "_bu": 1817,
      "_by": 1818,
      "_ss": 1819,
      "_sh": 1820,
      "_sy": 1821,
      "_ow": 1822,
      "_ey": 1823,
      "_ez": 1824,
      "_da": 1825,
      "_pe": 1826,
      "_zil": 1827,
      "thác": 1828,
      "thiểu": 1829,
      "thánh": 1830,
      "thám": 1831,
      "trữ": 1832,
      "trầm": 1833,
      "_iềm": 1834,
      "chó": 1835,
      "cháy": 1836,
      "chậm": 1837,
      "chồng": 1838,
      "khổ": 1839,
      "khóa": 1840,
      "cuốn": 1841,
      "giây": 1842,
      "thua": 1843,
      "thung": 1844,
      "khích": 1845,
      "vui": 1846,
      "cứng": 1847,
      "_ary": 1848,
      "khúc": 1849,
      "dõi": 1850,
      "lũng": 1851,
      "_alo": 1852,
      "túi": 1853,
      "họp": 1854,
      "khoản": 1855,
      "tour": 1856,
      "haiti": 1857,
      "lượt": 1858,
      "_ish": 1859,
      "đuổi": 1860,
      "_est": 1861,
      "_atal": 1862,
      "_ation": 1863,
      "rò": 1864,
      "ưu": 1865,
      "súng": 1866,
      "hùng": 1867,
      "thỏa": 1868,
      "thoát": 1869,
      "_ite": 1870,
      "_ley": 1871,
      "nghìn": 1872,
      "runn": 1873,
      "nhiếp": 1874,
      "all": 1875,
      "arm": 1876,
      "_und": 1877,
      "cưỡi": 1878,
      "kín": 1879,
      "northern": 1880,
      "dani": 1881,
      "ẩm": 1882,
      "brazil": 1883,
      "black": 1884,
      "elec": 1885,
      "bư": 1886,
      "ed": 1887,
      "go": 1888,
      "giê": 1889,
      "geo": 1890,
      "giết": 1891,
      "gal": 1892,
      "kê": 1893,
      "may": 1894,
      "mật": 1895,
      "no": 1896,
      "pet": 1897,
      "rối": 1898,
      "sim": 1899,
      "tạng": 1900,
      "tờ": 1901,
      "đau": 1902,
      "đỏ": 1903,
      "_ou": 1904,
      "_eg": 1905,
      "_eng": 1906,
      "_hu": 1907,
      "_di": 1908,
      "_dro": 1909,
      "_ps": 1910,
      "thận": 1911,
      "thưởng": 1912,
      "chứ": 1913,
      "vàng": 1914,
      "hoá": 1915,
      "thuê": 1916,
      "chile": 1917,
      "cựu": 1918,
      "khung": 1919,
      "mùi": 1920,
      "doanh": 1921,
      "trùm": 1922,
      "chỉnh": 1923,
      "họa": 1924,
      "tọa": 1925,
      "quý": 1926,
      "_eth": 1927,
      "rom": 1928,
      "thịt": 1929,
      "suất": 1930,
      "huống": 1931,
      "huấn": 1932,
      "_apore": 1933,
      "đỡ": 1934,
      "nhịp": 1935,
      "_oga": 1936,
      "singapore": 1937,
      "franc": 1938,
      "bưu": 1939,
      "at": 1940,
      "ad": 1941,
      "ang": 1942,
      "aus": 1943,
      "bì": 1944,
      "biện": 1945,
      "catal": 1946,
      "dày": 1947,
      "dữ": 1948,
      "dáng": 1949,
      "dis": 1950,
      "del": 1951,
      "dạy": 1952,
      "es": 1953,
      "ec": 1954,
      "gom": 1955,
      "gợi": 1956,
      "ira": 1957,
      "icel": 1958,
      "li": 1959,
      "lắp": 1960,
      "mi": 1961,
      "mao": 1962,
      "móng": 1963,
      "mạc": 1964,
      "nỗi": 1965,
      "niềm": 1966,
      "of": 1967,
      "pl": 1968,
      "si": 1969,
      "sk": 1970,
      "sco": 1971,
      "tơ": 1972,
      "tả": 1973,
      "tan": 1974,
      "tải": 1975,
      "tam": 1976,
      "tiệc": 1977,
      "tàn": 1978,
      "tắt": 1979,
      "van": 1980,
      "vết": 1981,
      "xấu": 1982,
      "yoga": 1983,
      "đệ": 1984,
      "đai": 1985,
      "đáo": 1986,
      "_uad": 1987,
      "_ab": 1988,
      "_ria": 1989,
      "_xas": 1990,
      "_tion": 1991,
      "_̃y": 1992,
      "_yal": 1993,
      "_port": 1994,
      "_qu": 1995,
      "tràn": 1996,
      "trốn": 1997,
      "_iếp": 1998,
      "che": 1999,
      "chinh": 2000,
      "nhẫn": 2001,
      "khẩn": 2002,
      "khứ": 2003,
      "phiên": 2004,
      "phật": 2005,
      "_ảnh": 2006,
      "gio": 2007,
      "giãn": 2008,
      "giỏi": 2009,
      "làng": 2010,
      "hỏng": 2011,
      "chút": 2012,
      "thù": 2013,
      "nghiêng": 2014,
      "_ềm": 2015,
      "cự": 2016,
      "cảng": 2017,
      "_ino": 2018,
      "_ini": 2019,
      "_ari": 2020,
      "_arban": 2021,
      "muỗi": 2022,
      "ấm": 2023,
      "lũ": 2024,
      "toán": 2025,
      "rắn": 2026,
      "xúc": 2027,
      "vẫy": 2028,
      "lưỡi": 2029,
      "ngọt": 2030,
      "tổn": 2031,
      "_ata": 2032,
      "_ati": 2033,
      "rock": 2034,
      "vịnh": 2035,
      "sund": 2036,
      "hung": 2037,
      "_ican": 2038,
      "_ity": 2039,
      "_ust": 2040,
      "_ington": 2041,
      "_ola": 2042,
      "_rich": 2043,
      "_rag": 2044,
      "hydro": 2045,
      "kém": 2046,
      "rỉ": 2047,
      "góc": 2048,
      "paris": 2049,
      "_bour": 2050,
      "_dova": 2051,
      "_mania": 2052,
      "\"\".\"": 2053,
      "_iforn": 2054,
      "moldova": 2055,
      "nửa": 2056,
      "californ": 2057,
      "texas": 2058,
      "running": 2059,
      "armenia": 2060,
      "atlan": 2061,
      "austral": 2062,
      "disney": 2063,
      "ecuad": 2064,
      "iraq": 2065,
      "iceland": 2066,
      "sikh": 2067,
      "_arbans": 2068,
      "sundarbans": 2069,
      "california": 2070,
      "bật": 2071,
      "bé": 2072,
      "cẩn": 2073,
      "dao": 2074,
      "dãy": 2075,
      "hàn": 2076,
      "kiệm": 2077,
      "liệt": 2078,
      "mon": 2079,
      "mực": 2080,
      "mas": 2081,
      "nộ": 2082,
      "nề": 2083,
      "song": 2084,
      "tân": 2085,
      "tán": 2086,
      "đâm": 2087,
      "đạp": 2088,
      "_wn": 2089,
      "_ét": 2090,
      "_tt": 2091,
      "_tan": 2092,
      "_tte": 2093,
      "_van": 2094,
      "_\"\"": 2095,
      "thang": 2096,
      "chặt": 2097,
      "chèo": 2098,
      "ngang": 2099,
      "giam": 2100,
      "quang": 2101,
      "hoãn": 2102,
      "nắm": 2103,
      "loạt": 2104,
      "_ines": 2105,
      "phun": 2106,
      "lưng": 2107,
      "ind": 2108,
      "khía": 2109,
      "góp": 2110,
      "proton": 2111,
      "mòn": 2112,
      "_burg": 2113,
      "charles": 2114,
      "francis": 2115,
      "ac": 2116,
      "ale": 2117,
      "ama": 2118,
      "app": 2119,
      "bí": 2120,
      "bè": 2121,
      "bre": 2122,
      "bha": 2123,
      "cỏ": 2124,
      "cro": 2125,
      "cồn": 2126,
      "cắp": 2127,
      "dải": 2128,
      "dàn": 2129,
      "dâng": 2130,
      "et": 2131,
      "eli": 2132,
      "fal": 2133,
      "gái": 2134,
      "gôn": 2135,
      "gỗ": 2136,
      "gấu": 2137,
      "gầm": 2138,
      "gur": 2139,
      "giêng": 2140,
      "gắn": 2141,
      "ham": 2142,
      "hấp": 2143,
      "hẻ": 2144,
      "il": 2145,
      "ja": 2146,
      "jer": 2147,
      "kr": 2148,
      "kiên": 2149,
      "kêu": 2150,
      "lữ": 2151,
      "lương": 2152,
      "lam": 2153,
      "láng": 2154,
      "las": 2155,
      "lấn": 2156,
      "mê": 2157,
      "mây": 2158,
      "mẽ": 2159,
      "mừng": 2160,
      "mori": 2161,
      "mềm": 2162,
      "na": 2163,
      "ninh": 2164,
      "nồng": 2165,
      "nâng": 2166,
      "per": 2167,
      "pat": 2168,
      "pit": 2169,
      "ray": 2170,
      "rào": 2171,
      "sốc": 2172,
      "sar": 2173,
      "sắt": 2174,
      "sạch": 2175,
      "sắm": 2176,
      "sắp": 2177,
      "tần": 2178,
      "ton": 2179,
      "tường": 2180,
      "uy": 2181,
      "vỏ": 2182,
      "vắc": 2183,
      "ván": 2184,
      "vợ": 2185,
      "wh": 2186,
      "wash": 2187,
      "xanh": 2188,
      "xóa": 2189,
      "đư": 2190,
      "_uis": 2191,
      "_ni": 2192,
      "_beth": 2193,
      "_wai": 2194,
      "_ward": 2195,
      "_oc": 2196,
      "_ok": 2197,
      "_gar": 2198,
      "_ek": 2199,
      "_ean": 2200,
      "_my": 2201,
      "_min": 2202,
      "_xit": 2203,
      "_xem": 2204,
      "_tu": 2205,
      "_tic": 2206,
      "_ham": 2207,
      "_hne": 2208,
      "_lus": 2209,
      "_yi": 2210,
      "_yan": 2211,
      "_ven": 2212,
      "_plus": 2213,
      "_zon": 2214,
      "_ngrich": 2215,
      "_ơn": 2216,
      "thảm": 2217,
      "_ầng": 2218,
      "trào": 2219,
      "trơn": 2220,
      "chh": 2221,
      "chăn": 2222,
      "chấn": 2223,
      "nhấn": 2224,
      "nhượng": 2225,
      "khô": 2226,
      "khơi": 2227,
      "khấu": 2228,
      "khắc": 2229,
      "khán": 2230,
      "khuyên": 2231,
      "_ói": 2232,
      "_óc": 2233,
      "ngừng": 2234,
      "phe": 2235,
      "phạn": 2236,
      "phỏng": 2237,
      "cúm": 2238,
      "gìn": 2239,
      "giường": 2240,
      "gingrich": 2241,
      "đương": 2242,
      "dun": 2243,
      "_one": 2244,
      "_onso": 2245,
      "_ain": 2246,
      "pháo": 2247,
      "vuốt": 2248,
      "_ami": 2249,
      "lọc": 2250,
      "lỏng": 2251,
      "louis": 2252,
      "cản": 2253,
      "_int": 2254,
      "kỵ": 2255,
      "đĩa": 2256,
      "khuất": 2257,
      "mù": 2258,
      "luân": 2259,
      "luna": 2260,
      "luxem": 2261,
      "_ala": 2262,
      "_ald": 2263,
      "tuệ": 2264,
      "_endo": 2265,
      "quyển": 2266,
      "_ias": 2267,
      "ngoái": 2268,
      "_iss": 2269,
      "_ela": 2270,
      "_elly": 2271,
      "sòng": 2272,
      "virg": 2273,
      "ross": 2274,
      "bùng": 2275,
      "buff": 2276,
      "bush": 2277,
      "_ick": 2278,
      "inch": 2279,
      "_aki": 2280,
      "đợi": 2281,
      "email": 2282,
      "_rig": 2283,
      "_rael": 2284,
      "stan": 2285,
      "_ned": 2286,
      "đem": 2287,
      "alonso": 2288,
      "ương": 2289,
      "hawai": 2290,
      "_tein": 2291,
      "reid": 2292,
      "sói": 2293,
      "sóc": 2294,
      "saf": 2295,
      "mẹ": 2296,
      "gót": 2297,
      "protein": 2298,
      "_soc": 2299,
      "trừ": 2300,
      "_bert": 2301,
      "_appan": 2302,
      "cape": 2303,
      "israel": 2304,
      "lồ": 2305,
      "metroplus": 2306,
      "trộm": 2307,
      "photon": 2308,
      "berlin": 2309,
      "feet": 2310,
      "james": 2311,
      "kenya": 2312,
      "latinh": 2313,
      "khổng": 2314,
      "tours": 2315,
      "electron": 2316,
      "giềng": 2317,
      "catalan": 2318,
      "goma": 2319,
      "maori": 2320,
      "giọng": 2321,
      "_bourg": 2322,
      "atlanta": 2323,
      "ecuador": 2324,
      "francisco": 2325,
      "amazon": 2326,
      "apple": 2327,
      "bhajan": 2328,
      "eliza": 2329,
      "moriori": 2330,
      "washington": 2331,
      "luxembourg": 2332,
      "virgin": 2333,
      "buffalo": 2334,
      "hawaii": 2335,
      ",\"\"": 2336,
      "bơ": 2337,
      "bể": 2338,
      "cối": 2339,
      "dị": 2340,
      "dar": 2341,
      "dối": 2342,
      "dậy": 2343,
      "eb": 2344,
      "gran": 2345,
      "hãi": 2346,
      "kan": 2347,
      "kar": 2348,
      "lang": 2349,
      "lính": 2350,
      "lở": 2351,
      "lạm": 2352,
      "sườn": 2353,
      "tỏ": 2354,
      "us": 2355,
      "ung": 2356,
      "đâu": 2357,
      "_bon": 2358,
      "_sp": 2359,
      "_rk": 2360,
      "_ger": 2361,
      "_ed": 2362,
      "_ci": 2363,
      "_ợt": 2364,
      "thơ": 2365,
      "thở": 2366,
      "trắng": 2367,
      "chở": 2368,
      "chôn": 2369,
      "chẩn": 2370,
      "khái": 2371,
      "_ộn": 2372,
      "giza": 2373,
      "chục": 2374,
      "chuỗi": 2375,
      "tồi": 2376,
      "tụ": 2377,
      "cor": 2378,
      "taxi": 2379,
      "soạn": 2380,
      "thịnh": 2381,
      "_ings": 2382,
      "_old": 2383,
      "kẹt": 2384,
      "hộp": 2385,
      "hẹp": 2386,
      "khuynh": 2387,
      "david": 2388,
      "_burgh": 2389,
      "_ood": 2390,
      "_rge": 2391,
      "george": 2392,
      "nộp": 2393,
      ",”": 2394,
      "</": 2395,
      "az": 2396,
      "aol": 2397,
      "ari": 2398,
      "axit": 2399,
      "be": 2400,
      "bh": 2401,
      "bl": 2402,
      "bê": 2403,
      "bậ": 2404,
      "bền": 2405,
      "bia": 2406,
      "bish": 2407,
      "cr": 2408,
      "cl": 2409,
      "cong": 2410,
      "cỗ": 2411,
      "cặp": 2412,
      "cốt": 2413,
      "cậu": 2414,
      "civ": 2415,
      "dại": 2416,
      "dần": 2417,
      "dâm": 2418,
      "dồi": 2419,
      "ép": 2420,
      "fai": 2421,
      "fel": 2422,
      "fern": 2423,
      "fbi": 2424,
      "gà": 2425,
      "gập": 2426,
      "gậy": 2427,
      "gặm": 2428,
      "gra": 2429,
      "gỡ": 2430,
      "gps": 2431,
      "hi": 2432,
      "hươ": 2433,
      "han": 2434,
      "hố": 2435,
      "hài": 2436,
      "hề": 2437,
      "hối": 2438,
      "huyền": 2439,
      "ii": 2440,
      "jr": 2441,
      "kì": 2442,
      "kiệt": 2443,
      "kat": 2444,
      "kép": 2445,
      "kir": 2446,
      "kund": 2447,
      "liều": 2448,
      "len": 2449,
      "lấp": 2450,
      "lội": 2451,
      "lầy": 2452,
      "mời": 2453,
      "mỏ": 2454,
      "mào": 2455,
      "mát": 2456,
      "mầm": 2457,
      "mri": 2458,
      "mil": 2459,
      "miêu": 2460,
      "mỏng": 2461,
      "non": 2462,
      "nàng": 2463,
      "nàn": 2464,
      "one": 2465,
      "pu": 2466,
      "pao": 2467,
      "pic": 2468,
      "pri": 2469,
      "pun": 2470,
      "rác": 2471,
      "rổ": 2472,
      "rốc": 2473,
      "rẽ": 2474,
      "sl": 2475,
      "say": 2476,
      "sập": 2477,
      "ser": 2478,
      "sốt": 2479,
      "sỏi": 2480,
      "tv": 2481,
      "tá": 2482,
      "tang": 2483,
      "tống": 2484,
      "tàng": 2485,
      "táo": 2486,
      "tảng": 2487,
      "tảo": 2488,
      "tầng": 2489,
      "ut": 2490,
      "uta": 2491,
      "unes": 2492,
      "vinh": 2493,
      "vở": 2494,
      "việt": 2495,
      "vat": 2496,
      "vách": 2497,
      "vers": 2498,
      "wal": 2499,
      "wif": 2500,
      "west": 2501,
      "xơ": 2502,
      "xưa": 2503,
      "xôi": 2504,
      "xám": 2505,
      "đà": 2506,
      "đam": 2507,
      "đáy": 2508,
      "đầm": 2509,
      "điền": 2510,
      "đậm": 2511,
      "”)": 2512,
      "_ua": 2513,
      "_uma": 2514,
      "_uver": 2515,
      "_uela": 2516,
      "_ns": 2517,
      "_ju": 2518,
      "_ja": 2519,
      "_bs": 2520,
      "_bai": 2521,
      "_sl": 2522,
      "_sk": 2523,
      "_ft": 2524,
      "_ws": 2525,
      "_we": 2526,
      "_ray": 2527,
      "_ov": 2528,
      "_gen": 2529,
      "_gyal": 2530,
      "_mo": 2531,
      "_mon": 2532,
      "_mer": 2533,
      "_ib": 2534,
      "_ig": 2535,
      "_igh": 2536,
      "_xy": 2537,
      "_ty": 2538,
      "_telly": 2539,
      "_he": 2540,
      "_dd": 2541,
      "_dp": 2542,
      "_ll": 2543,
      "_ler": 2544,
      "_ling": 2545,
      "_lap": 2546,
      "_kland": 2547,
      "_kha": 2548,
      "_yd": 2549,
      "_ych": 2550,
      "_vard": 2551,
      "_pr": 2552,
      "_per": 2553,
      "_pol": 2554,
      "_zona": 2555,
      "thai": 2556,
      "thấu": 2557,
      "thiệp": 2558,
      "thói": 2559,
      "_ẫm": 2560,
      "trà": 2561,
      "trích": 2562,
      "chẽ": 2563,
      "chép": 2564,
      "chợ": 2565,
      "chặng": 2566,
      "chăm": 2567,
      "nho": 2568,
      "nhánh": 2569,
      "nhạy": 2570,
      "nhấm": 2571,
      "_nhag": 2572,
      "khâu": 2573,
      "khiêu": 2574,
      "ngộ": 2575,
      "ngã": 2576,
      "ngon": 2577,
      "ngờ": 2578,
      "vành": 2579,
      "phận": 2580,
      "phàn": 2581,
      "phar": 2582,
      "phối": 2583,
      "phẳng": 2584,
      "cục": 2585,
      "quét": 2586,
      "hoại": 2587,
      "howard": 2588,
      "_ans": 2589,
      "_anian": 2590,
      "_ìa": 2591,
      "đãi": 2592,
      "sứ": 2593,
      "_ốm": 2594,
      "bắp": 2595,
      "phái": 2596,
      "_aoh": 2597,
      "đôn": 2598,
      "đốt": 2599,
      "đón": 2600,
      "cưng": 2601,
      "_ama": 2602,
      "_amun": 2603,
      "los": 2604,
      "_inc": 2605,
      "_inet": 2606,
      "ổ": 2607,
      "_alom": 2608,
      "_alem": 2609,
      "_alini": 2610,
      "tutan": 2611,
      "khoang": 2612,
      "toa": 2613,
      "tom": 2614,
      "tỏa": 2615,
      "lợn": 2616,
      "col": 2617,
      "cọp": 2618,
      "cost": 2619,
      "cope": 2620,
      "\"\"\"": 2621,
      "_che": 2622,
      "_chel": 2623,
      "lưỡng": 2624,
      "_orid": 2625,
      "đoan": 2626,
      "hỗn": 2627,
      "_elle": 2628,
      "_ello": 2629,
      "đụng": 2630,
      "_ate": 2631,
      "_ashi": 2632,
      "_aska": 2633,
      "romania": 2634,
      "_anda": 2635,
      "ưa": 2636,
      "phili": 2637,
      "huhne": 2638,
      "_ice": 2639,
      "giáp": 2640,
      "_iti": 2641,
      "_usalem": 2642,
      "_lotte": 2643,
      "_ade": 2644,
      "_red": 2645,
      "_hiop": 2646,
      "_neid": 2647,
      "alaska": 2648,
      "_illa": 2649,
      "_ckland": 2650,
      "ướt": 2651,
      "đáp": 2652,
      "_isto": 2653,
      "jour": 2654,
      "arias": 2655,
      "_couver": 2656,
      "red": 2657,
      "bob": 2658,
      "cáp": 2659,
      "santa": 2660,
      "chúa": 2661,
      "nhũng": 2662,
      "huỷ": 2663,
      "hét": 2664,
      "mara": 2665,
      "martelly": 2666,
      "ngưỡng": 2667,
      "johnson": 2668,
      "proven": 2669,
      "_ẫy": 2670,
      "_lanca": 2671,
      "assy": 2672,
      "vững": 2673,
      "_celona": 2674,
      "carib": 2675,
      "_ppines": 2676,
      "_khamun": 2677,
      "barcelona": 2678,
      "_appa": 2679,
      "singh": 2680,
      "_ruk": 2681,
      "schneid": 2682,
      "_kek": 2683,
      "charlotte": 2684,
      "casab": 2685,
      "florid": 2686,
      "_zano": 2687,
      "stark": 2688,
      "auckland": 2689,
      "xỉn": 2690,
      "lakkha": 2691,
      "venez": 2692,
      "danielle": 2693,
      "blacks": 2694,
      "kênh": 2695,
      "peter": 2696,
      "simino": 2697,
      "romney": 2698,
      "angel": 2699,
      "sky": 2700,
      "vancouver": 2701,
      "australia": 2702,
      "monte": 2703,
      "massa": 2704,
      "alex": 2705,
      "ethiop": 2706,
      "falkland": 2707,
      "guru": 2708,
      "hẻm": 2709,
      "jerusalem": 2710,
      "perry": 2711,
      "đứt": 2712,
      "chhappan": 2713,
      "dunlap": 2714,
      "safari": 2715,
      "elizabeth": 2716,
      "azer": 2717,
      "arizona": 2718,
      "bhog": 2719,
      "bậc": 2720,
      "bishkek": 2721,
      "fair": 2722,
      "fernand": 2723,
      "hươu": 2724,
      "kundalini": 2725,
      "prix": 2726,
      "slalom": 2727,
      "utc": 2728,
      "utah": 2729,
      "unesco": 2730,
      "vatican": 2731,
      "wifi": 2732,
      "_nhagen": 2733,
      "pharaoh": 2734,
      "tutankhamun": 2735,
      "costello": 2736,
      "copenhagen": 2737,
      "philippines": 2738,
      "provenzano": 2739,
      "assyria": 2740,
      "schneider": 2741,
      "casablanca": 2742,
      "florida": 2743,
      "venezuela": 2744,
      "siminoff": 2745,
      "ethiopia": 2746,
      "bốc": 2747,
      "bến": 2748,
      "bro": 2749,
      "bạch": 2750,
      "báu": 2751,
      "cất": 2752,
      "dạo": 2753,
      "gl": 2754,
      "gen": 2755,
      "hă": 2756,
      "her": 2757,
      "kĩ": 2758,
      "kit": 2759,
      "le": 2760,
      "mad": 2761,
      "nan": 2762,
      "pr": 2763,
      "pag": 2764,
      "rau": 2765,
      "wil": 2766,
      "xế": 2767,
      "xấp": 2768,
      "xách": 2769,
      "xóm": 2770,
      "đan": 2771,
      "đập": 2772,
      "_ub": 2773,
      "_utron": 2774,
      "_nt": 2775,
      "_jar": 2776,
      "_site": 2777,
      "_win": 2778,
      "_war": 2779,
      "_oke": 2780,
      "_ga": 2781,
      "_ge": 2782,
      "_̃u": 2783,
      "_de": 2784,
      "_den": 2785,
      "_yo": 2786,
      "thước": 2787,
      "thổi": 2788,
      "thắc": 2789,
      "thầy": 2790,
      "trần": 2791,
      "cha": 2792,
      "chai": 2793,
      "chữa": 2794,
      "kháng": 2795,
      "khiếp": 2796,
      "ngạc": 2797,
      "ngợi": 2798,
      "phó": 2799,
      "cũ": 2800,
      "cuba": 2801,
      "sữa": 2802,
      "chua": 2803,
      "nghèo": 2804,
      "_innes": 2805,
      "ẩn": 2806,
      "tuân": 2807,
      "phú": 2808,
      "_ens": 2809,
      "xuân": 2810,
      "quỹ": 2811,
      "cọc": 2812,
      "ngoạn": 2813,
      "tựu": 2814,
      "_ates": 2815,
      "_ast": 2816,
      "_oly": 2817,
      "đợt": 2818,
      "ném": 2819,
      "neutron": 2820,
      "_rid": 2821,
      "duyệt": 2822,
      "lãng": 2823,
      "_ther": 2824,
      "_agos": 2825,
      "rich": 2826,
      "website": 2827,
      "show": 2828,
      "nhuận": 2829,
      "hẹn": 2830,
      "olympics": 2831,
      "ghế": 2832,
      "carter": 2833,
      "saint": 2834,
      "guinnes": 2835,
      "xỉ": 2836,
      "trộn": 2837,
      "rome": 2838,
      "scot": 2839,
      "kanjar": 2840,
      "guinness": 2841,
      ".,": 2842,
      ">(": 2843,
      "ác": 2844,
      "ách": 2845,
      "apol": 2846,
      "br": 2847,
      "bô": 2848,
      "bá": 2849,
      "ben": 2850,
      "bel": 2851,
      "bol": 2852,
      "bám": 2853,
      "bồi": 2854,
      "bran": 2855,
      "bón": 2856,
      "bẫy": 2857,
      "ce": 2858,
      "cm": 2859,
      "cước": 2860,
      "cường": 2861,
      "cen": 2862,
      "cel": 2863,
      "cẩu": 2864,
      "city": 2865,
      "cyan": 2866,
      "dv": 2867,
      "dz": 2868,
      "diê": 2869,
      "dường": 2870,
      "dây": 2871,
      "dinh": 2872,
      "dính": 2873,
      "dam": 2874,
      "dắt": 2875,
      "dre": 2876,
      "dồn": 2877,
      "druk": 2878,
      "ex": 2879,
      "eph": 2880,
      "fo": 2881,
      "for": 2882,
      "foo": 2883,
      "fred": 2884,
      "gm": 2885,
      "gp": 2886,
      "gar": 2887,
      "gối": 2888,
      "gánh": 2889,
      "gas": 2890,
      "gấm": 2891,
      "gos": 2892,
      "gore": 2893,
      "gdp": 2894,
      "hs": 2895,
      "hin": 2896,
      "hen": 2897,
      "hes": 2898,
      "hâm": 2899,
      "hứng": 2900,
      "hạnh": 2901,
      "hứa": 2902,
      "hall": 2903,
      "iw": 2904,
      "ir": 2905,
      "ip": 2906,
      "ion": 2907,
      "ist": 2908,
      "je": 2909,
      "jon": 2910,
      "jar": 2911,
      "jak": 2912,
      "kìm": 2913,
      "kom": 2914,
      "kiêm": 2915,
      "kala": 2916,
      "lê": 2917,
      "lay": 2918,
      "lar": 2919,
      "lăn": 2920,
      "lánh": 2921,
      "lẻ": 2922,
      "lóng": 2923,
      "lăng": 2924,
      "liêng": 2925,
      "lắng": 2926,
      "lặp": 2927,
      "léo": 2928,
      "lặn": 2929,
      "lem": 2930,
      "lăm": 2931,
      "mc": 2932,
      "mp": 2933,
      "mác": 2934,
      "mổ": 2935,
      "mận": 2936,
      "min": 2937,
      "mal": 2938,
      "mẻ": 2939,
      "mấy": 2940,
      "mic": 2941,
      "mit": 2942,
      "map": 2943,
      "mắn": 2944,
      "mệt": 2945,
      "mặn": 2946,
      "mảnh": 2947,
      "mendo": 2948,
      "miss": 2949,
      "np": 2950,
      "nở": 2951,
      "nâu": 2952,
      "nướng": 2953,
      "nad": 2954,
      "nấm": 2955,
      "nạp": 2956,
      "nag": 2957,
      "nba": 2958,
      "nsa": 2959,
      "nyi": 2960,
      "nint": 2961,
      "on": 2962,
      "or": 2963,
      "õ": 2964,
      "ore": 2965,
      "ocel": 2966,
      "ove": 2967,
      "old": 2968,
      "orig": 2969,
      "oxy": 2970,
      "pi": 2971,
      "pan": 2972,
      "pin": 2973,
      "pen": 2974,
      "plan": 2975,
      "pry": 2976,
      "prag": 2977,
      "pbs": 2978,
      "poly": 2979,
      "rô": 2980,
      "rã": 2981,
      "rước": 2982,
      "rải": 2983,
      "rống": 2984,
      "ring": 2985,
      "rậm": 2986,
      "rain": 2987,
      "rìa": 2988,
      "sam": 2989,
      "sôi": 2990,
      "sap": 2991,
      "slo": 2992,
      "shi": 2993,
      "sir": 2994,
      "sca": 2995,
      "sport": 2996,
      "sảnh": 2997,
      "spr": 2998,
      "tb": 2999,
      "tông": 3000,
      "tong": 3001,
      "tận": 3002,
      "tật": 3003,
      "ter": 3004,
      "tấp": 3005,
      "tit": 3006,
      "tóm": 3007,
      "ur": 3008,
      "usoc": 3009,
      "ve": 3010,
      "vươ": 3011,
      "vang": 3012,
      "vẽ": 3013,
      "val": 3014,
      "váy": 3015,
      "vel": 3016,
      "vắng": 3017,
      "vợt": 3018,
      "xd": 3019,
      "xả": 3020,
      "xinh": 3021,
      "xứng": 3022,
      "xứ": 3023,
      "yor": 3024,
      "yến": 3025,
      "yard": 3026,
      "zm": 3027,
      "zay": 3028,
      "zam": 3029,
      "zim": 3030,
      "zha": 3031,
      "đeo": 3032,
      "điệu": 3033,
      "đốm": 3034,
      "’,": 3035,
      "_ud": 3036,
      "_uz": 3037,
      "_uth": 3038,
      "_uts": 3039,
      "_ution": 3040,
      "_ner": 3041,
      "_nom": 3042,
      "_nsy": 3043,
      "_jong": 3044,
      "_aw": 3045,
      "_aan": 3046,
      "_ack": 3047,
      "_bd": 3048,
      "_bia": 3049,
      "_bel": 3050,
      "_bul": 3051,
      "_bya": 3052,
      "_bwe": 3053,
      "_se": 3054,
      "_smania": 3055,
      "_sashi": 3056,
      "_fu": 3057,
      "_fan": 3058,
      "_fen": 3059,
      "_fia": 3060,
      "_ford": 3061,
      "_way": 3062,
      "_wang": 3063,
      "_wer": 3064,
      "_wal": 3065,
      "_ron": 3066,
      "_rai": 3067,
      "_ram": 3068,
      "_rit": 3069,
      "_rina": 3070,
      "_oto": 3071,
      "_gon": 3072,
      "_gur": 3073,
      "_gne": 3074,
      "_gby": 3075,
      "_ginet": 3076,
      "_eul": 3077,
      "_met": 3078,
      "_ming": 3079,
      "_ik": 3080,
      "_iza": 3081,
      "_xic": 3082,
      "_tro": 3083,
      "_tman": 3084,
      "_tina": 3085,
      "_ho": 3086,
      "_han": 3087,
      "_hche": 3088,
      "_dia": 3089,
      "_dain": 3090,
      "_lic": 3091,
      "_lvan": 3092,
      "_ct": 3093,
      "_car": 3094,
      "_cus": 3095,
      "_col": 3096,
      "_ctor": 3097,
      "_cbon": 3098,
      "_kin": 3099,
      "_kar": 3100,
      "_kim": 3101,
      "_ktu": 3102,
      "_yam": 3103,
      "_vi": 3104,
      "_von": 3105,
      "_vis": 3106,
      "_vada": 3107,
      "_vati": 3108,
      "_vice": 3109,
      "_pan": 3110,
      "_par": 3111,
      "_pal": 3112,
      "_pson": 3113,
      "_̈m": 3114,
      "_ớp": 3115,
      "_ồm": 3116,
      "than": 3117,
      "thôn": 3118,
      "thiệu": 3119,
      "thiêng": 3120,
      "thiền": 3121,
      "thiếp": 3122,
      "trau": 3123,
      "triết": 3124,
      "trội": 3125,
      "trứng": 3126,
      "tric": 3127,
      "trừng": 3128,
      "trans": 3129,
      "_iếng": 3130,
      "chr": 3131,
      "chư": 3132,
      "châm": 3133,
      "chat": 3134,
      "chừng": 3135,
      "nhầm": 3136,
      "nhảy": 3137,
      "nhắm": 3138,
      "khan": 3139,
      "khố": 3140,
      "khand": 3141,
      "khéo": 3142,
      "khuyết": 3143,
      "_ót": 3144,
      "ngai": 3145,
      "ngập": 3146,
      "ngặt": 3147,
      "ngón": 3148,
      "phế": 3149,
      "phiền": 3150,
      "phiêu": 3151,
      "phẫu": 3152,
      "phnom": 3153,
      "củng": 3154,
      "cudd": 3155,
      "già": 3156,
      "giấu": 3157,
      "gián": 3158,
      "giầy": 3159,
      "_́no": 3160,
      "lành": 3161,
      "họng": 3162,
      "hoạn": 3163,
      "_ant": 3164,
      "_annes": 3165,
      "_anbul": 3166,
      "_ongo": 3167,
      "đếm": 3168,
      "choàng": 3169,
      "chuông": 3170,
      "chuột": 3171,
      "chùa": 3172,
      "chuồn": 3173,
      "thuẫn": 3174,
      "tiếc": 3175,
      "tiềm": 3176,
      "hở": 3177,
      "_ond": 3178,
      "_onia": 3179,
      "_onald": 3180,
      "_onych": 3181,
      "nghề": 3182,
      "_auty": 3183,
      "vú": 3184,
      "radi": 3185,
      "raju": 3186,
      "đồn": 3187,
      "_ame": 3188,
      "_amine": 3189,
      "lòa": 3190,
      "_inn": 3191,
      "kyoto": 3192,
      "_erang": 3193,
      "_erat": 3194,
      "_erto": 3195,
      "_erque": 3196,
      "_aria": 3197,
      "_arns": 3198,
      "khufu": 3199,
      "mũi": 3200,
      "musashi": 3201,
      "domin": 3202,
      "lui": 3203,
      "luồng": 3204,
      "trục": 3205,
      "trump": 3206,
      "ốc": 3207,
      "ồn": 3208,
      "_als": 3209,
      "tung": 3210,
      "túc": 3211,
      "tụng": 3212,
      "túy": 3213,
      "_ena": 3214,
      "_enth": 3215,
      "_enton": 3216,
      "_enos": 3217,
      "chuyền": 3218,
      "town": 3219,
      "toginet": 3220,
      "rắc": 3221,
      "com": 3222,
      "cọ": 3223,
      "covid": 3224,
      "cook": 3225,
      "quãng": 3226,
      "_chu": 3227,
      "_cher": 3228,
      "_ches": 3229,
      "_chman": 3230,
      "_chner": 3231,
      "_chkin": 3232,
      "cờ": 3233,
      "_iation": 3234,
      "tasmania": 3235,
      "đoạt": 3236,
      "trọ": 3237,
      "_eland": 3238,
      "_elwal": 3239,
      "đúc": 3240,
      "đuôi": 3241,
      "_ese": 3242,
      "_esus": 3243,
      "south": 3244,
      "vỉa": 3245,
      "victor": 3246,
      "bachman": 3247,
      "_eti": 3248,
      "_atia": 3249,
      "_atus": 3250,
      "_atol": 3251,
      "_asma": 3252,
      "_asaki": 3253,
      "_asub": 3254,
      "_asvati": 3255,
      "rog": 3256,
      "roe": 3257,
      "rober": 3258,
      "royal": 3259,
      "giant": 3260,
      "_ander": 3261,
      "thăng": 3262,
      "thắt": 3263,
      "thắn": 3264,
      "lừa": 3265,
      "bum": 3266,
      "buenos": 3267,
      "_icia": 3268,
      "thoáng": 3269,
      "_rom": 3270,
      "_roso": 3271,
      "nụ": 3272,
      "_ition": 3273,
      "_ithe": 3274,
      "_ushche": 3275,
      "_ingbo": 3276,
      "_olis": 3277,
      "_olina": 3278,
      "_uric": 3279,
      "ngụ": 3280,
      "inc": 3281,
      "_apolis": 3282,
      "_los": 3283,
      "_lomet": 3284,
      "_ado": 3285,
      "_ading": 3286,
      "_adian": 3287,
      "_ake": 3288,
      "_akis": 3289,
      "nét": 3290,
      "nevada": 3291,
      "nepal": 3292,
      "anim": 3293,
      "anna": 3294,
      "duyên": 3295,
      "_ters": 3296,
      "stard": 3297,
      "stone": 3298,
      "rủi": 3299,
      "rugby": 3300,
      "_omerang": 3301,
      "sơn": 3302,
      "_thur": 3303,
      "alp": 3304,
      "albu": 3305,
      "_ille": 3306,
      "_cks": 3307,
      "voi": 3308,
      "vòi": 3309,
      "_eback": 3310,
      "mãi": 3311,
      "_agu": 3312,
      "_tonia": 3313,
      "cacbon": 3314,
      "taíno": 3315,
      "_lando": 3316,
      "_lynn": 3317,
      "newt": 3318,
      "_ostr": 3319,
      "argen": 3320,
      "arthur": 3321,
      "kẹp": 3322,
      "_tem": 3323,
      "rem": 3324,
      "reading": 3325,
      "bow": 3326,
      "bò": 3327,
      "boat": 3328,
      "boda": 3329,
      "boomerang": 3330,
      "santor": 3331,
      "xưng": 3332,
      "_ffold": 3333,
      "cưới": 3334,
      "mac": 3335,
      "shar": 3336,
      "shoo": 3337,
      "shyam": 3338,
      "mexic": 3339,
      "_ght": 3340,
      "gói": 3341,
      "lãm": 3342,
      "paro": 3343,
      "park": 3344,
      "parti": 3345,
      "parenth": 3346,
      "lộn": 3347,
      "mượn": 3348,
      "bổn": 3349,
      "marie": 3350,
      "_iano": 3351,
      "hàm": 3352,
      "hangi": 3353,
      "hangeul": 3354,
      "kỉ": 3355,
      "kilomet": 3356,
      "big": 3357,
      "_bow": 3358,
      "devon": 3359,
      "vidal": 3360,
      "asus": 3361,
      "assoc": 3362,
      "dave": 3363,
      "ghz": 3364,
      "meti": 3365,
      "_phen": 3366,
      "carolina": 3367,
      "sejong": 3368,
      "_ifa": 3369,
      "_pper": 3370,
      "_nesia": 3371,
      "gũi": 3372,
      "harvard": 3373,
      "harappa": 3374,
      "_babwe": 3375,
      "_ieh": 3376,
      "_kawa": 3377,
      "_rung": 3378,
      "_video": 3379,
      "_opithe": 3380,
      "_tsburgh": 3381,
      "ngawang": 3382,
      "schuma": 3383,
      "baltic": 3384,
      "balasub": 3385,
      "manches": 3386,
      "moll": 3387,
      "nứt": 3388,
      "potro": 3389,
      "_waz": 3390,
      "stewar": 3391,
      "stearns": 3392,
      "stephen": 3393,
      "aud": 3394,
      "aires": 3395,
      "amin": 3396,
      "líp": 3397,
      "lake": 3398,
      "palm": 3399,
      "palest": 3400,
      "timbu": 3401,
      "_uche": 3402,
      "allen": 3403,
      "danius": 3404,
      "geosp": 3405,
      "nobel": 3406,
      "simpson": 3407,
      "_oulos": 3408,
      "_engeti": 3409,
      "adam": 3410,
      "eskim": 3411,
      "estonia": 3412,
      "libya": 3413,
      "plasma": 3414,
      "_quet": 3415,
      "_querque": 3416,
      "hungary": 3417,
      "_ragongo": 3418,
      "australopithe": 3419,
      "indus": 3420,
      "acta": 3421,
      "croatia": 3422,
      "java": 3423,
      "krushche": 3424,
      "patin": 3425,
      "pittman": 3426,
      "pittsburgh": 3427,
      "sarasvati": 3428,
      "tonle": 3429,
      "white": 3430,
      "rossby": 3431,
      "stanley": 3432,
      "stanford": 3433,
      "virginia": 3434,
      "bơm": 3435,
      "ebay": 3436,
      "grant": 3437,
      "usd": 3438,
      "_geria": 3439,
      "beauty": 3440,
      "blake": 3441,
      "feli": 3442,
      "hít": 3443,
      "katrina": 3444,
      "kirchner": 3445,
      "lenz": 3446,
      "miller": 3447,
      "puerto": 3448,
      "paolo": 3449,
      "piccol": 3450,
      "serengeti": 3451,
      "versail": 3452,
      "wales": 3453,
      "_baijan": 3454,
      "_ski": 3455,
      "_peronych": 3456,
      "tommy": 3457,
      "colbert": 3458,
      "_istoph": 3459,
      "jourdain": 3460,
      "bobek": 3461,
      "angeles": 3462,
      "montevideo": 3463,
      "alexander": 3464,
      "azerbaijan": 3465,
      "fernando": 3466,
      "brother": 3467,
      "herostr": 3468,
      "princ": 3469,
      "pago": 3470,
      "wild": 3471,
      "apollo": 3472,
      "bồ": 3473,
      "bolonia": 3474,
      "cep": 3475,
      "central": 3476,
      "cyanuric": 3477,
      "dvd": 3478,
      "dzong": 3479,
      "diễu": 3480,
      "damadian": 3481,
      "dream": 3482,
      "drukgyal": 3483,
      "exp": 3484,
      "foot": 3485,
      "gmt": 3486,
      "gosling": 3487,
      "hsieh": 3488,
      "hindi": 3489,
      "henry": 3490,
      "hesperonych": 3491,
      "ireland": 3492,
      "istanbul": 3493,
      "jeff": 3494,
      "jakar": 3495,
      "komen": 3496,
      "layton": 3497,
      "microso": 3498,
      "mapuche": 3499,
      "mendoza": 3500,
      "npws": 3501,
      "nadal": 3502,
      "nyiragongo": 3503,
      "nintendo": 3504,
      "onion": 3505,
      "oregon": 3506,
      "ocelo": 3507,
      "ovechkin": 3508,
      "origami": 3509,
      "piquet": 3510,
      "panama": 3511,
      "pennsy": 3512,
      "planned": 3513,
      "pryce": 3514,
      "prague": 3515,
      "polynesia": 3516,
      "rãnh": 3517,
      "rainbow": 3518,
      "slov": 3519,
      "sirena": 3520,
      "scaffold": 3521,
      "sporting": 3522,
      "springbo": 3523,
      "titan": 3524,
      "vượn": 3525,
      "xdr": 3526,
      "york": 3527,
      "zmapp": 3528,
      "zayat": 3529,
      "zambia": 3530,
      "zimbabwe": 3531,
      "zhabd": 3532,
      "_ramanian": 3533,
      "_lvania": 3534,
      "tricerat": 3535,
      "chatham": 3536,
      "khandelwal": 3537,
      "cuddeback": 3538,
      "radio": 3539,
      "victoria": 3540,
      "bachmann": 3541,
      "stardust": 3542,
      "albuquerque": 3543,
      "argentina": 3544,
      "shooters": 3545,
      "mexico": 3546,
      "partizan": 3547,
      "parenthood": 3548,
      "devonport": 3549,
      "association": 3550,
      "davey": 3551,
      "schumacher": 3552,
      "balasubramanian": 3553,
      "manchester": 3554,
      "stewart": 3555,
      "palestine": 3556,
      "timbuktu": 3557,
      "geospiza": 3558,
      "eskimo": 3559,
      "australopithecus": 3560,
      "krushchev": 3561,
      "piccolo": 3562,
      "herostratus": 3563,
      "hesperonychus": 3564,
      "microsoft": 3565,
      "pennsylvania": 3566,
      "springboks": 3567,
      "zhabdrung": 3568,
      "triceratop": 3569,
      "by": 3570,
      "bhu": 3571,
      "bóc": 3572,
      "cãi": 3573,
      "dê": 3574,
      "dời": 3575,
      "dna": 3576,
      "eri": 3577,
      "fi": 3578,
      "gan": 3579,
      "gắt": 3580,
      "gord": 3581,
      "hổ": 3582,
      "hạch": 3583,
      "kow": 3584,
      "lột": 3585,
      "lường": 3586,
      "lôi": 3587,
      "lắm": 3588,
      "mạn": 3589,
      "mai": 3590,
      "mor": 3591,
      "pa": 3592,
      "tem": 3593,
      "tĩnh": 3594,
      "tóc": 3595,
      "xá": 3596,
      "xị": 3597,
      "xích": 3598,
      "zag": 3599,
      "đèo": 3600,
      "đậu": 3601,
      "_ú": 3602,
      "_uro": 3603,
      "_no": 3604,
      "_ace": 3605,
      "_brid": 3606,
      "_ster": 3607,
      "_́a": 3608,
      "_gs": 3609,
      "_ee": 3610,
      "_hr": 3611,
      "_had": 3612,
      "_cca": 3613,
      "_kyo": 3614,
      "_zen": 3615,
      "thạo": 3616,
      "thôi": 3617,
      "trai": 3618,
      "trật": 3619,
      "trôi": 3620,
      "chand": 3621,
      "chợt": 3622,
      "củ": 3623,
      "quên": 3624,
      "sưu": 3625,
      "thưa": 3626,
      "nắng": 3627,
      "thuần": 3628,
      "_inburgh": 3629,
      "phúc": 3630,
      "_enst": 3631,
      "tokyo": 3632,
      "_chte": 3633,
      "phím": 3634,
      "dừa": 3635,
      "_esh": 3636,
      "baba": 3637,
      "sul": 3638,
      "_ros": 3639,
      "ngũ": 3640,
      "_apagos": 3641,
      "ngừa": 3642,
      "tỉ": 3643,
      "mãn": 3644,
      "_ffiti": 3645,
      "mecca": 3646,
      "paragu": 3647,
      "_ersburg": 3648,
      "ghét": 3649,
      "cambrid": 3650,
      "nigeria": 3651,
      "_lines": 3652,
      "_khar": 3653,
      "scheng": 3654,
      "airlines": 3655,
      "edinburgh": 3656,
      "galapagos": 3657,
      "petersburg": 3658,
      "scott": 3659,
      "bớt": 3660,
      "darwin": 3661,
      "ebola": 3662,
      "usgs": 3663,
      "thớt": 3664,
      "graffiti": 3665,
      "hẳn": 3666,
      "kitô": 3667,
      "richard": 3668,
      "scotland": 3669,
      "gordon": 3670,
      "xịt": 3671,
      "paraguay": 3672,
      "cambridge": 3673,
      "schengen": 3674,
      "!)": 3675,
      "!\"\"": 3676,
      "(“": 3677,
      ");": 3678,
      ",:": 3679,
      ",..": 3680,
      "--": 3681,
      "ab": 3682,
      "ag": 3683,
      "ay": 3684,
      "ám": 3685,
      "ait": 3686,
      "ara": 3687,
      "ath": 3688,
      "aun": 3689,
      "amp": 3690,
      "ave": 3691,
      "axi": 3692,
      "aks": 3693,
      "abu": 3694,
      "aeg": 3695,
      "bs": 3696,
      "bệ": 3697,
      "bế": 3698,
      "bần": 3699,
      "bon": 3700,
      "bây": 3701,
      "bống": 3702,
      "bàng": 3703,
      "bor": 3704,
      "bes": 3705,
      "bẩn": 3706,
      "bit": 3707,
      "bri": 3708,
      "bốt": 3709,
      "bos": 3710,
      "bard": 3711,
      "bir": 3712,
      "beng": 3713,
      "belly": 3714,
      "binn": 3715,
      "cn": 3716,
      "cg": 3717,
      "cột": 3718,
      "cười": 3719,
      "cay": 3720,
      "cạn": 3721,
      "cài": 3722,
      "cống": 3723,
      "cốc": 3724,
      "cin": 3725,
      "canh": 3726,
      "cởi": 3727,
      "câm": 3728,
      "căng": 3729,
      "cậy": 3730,
      "cạp": 3731,
      "cir": 3732,
      "cli": 3733,
      "cru": 3734,
      "cinc": 3735,
      "cct": 3736,
      "dy": 3737,
      "dai": 3738,
      "dập": 3739,
      "der": 3740,
      "dal": 3741,
      "dĩ": 3742,
      "dặt": 3743,
      "dào": 3744,
      "dội": 3745,
      "dẻ": 3746,
      "dấy": 3747,
      "dán": 3748,
      "dro": 3749,
      "dè": 3750,
      "dri": 3751,
      "dra": 3752,
      "dặn": 3753,
      "drag": 3754,
      "dsl": 3755,
      "dẫm": 3756,
      "donald": 3757,
      "er": 3758,
      "eo": 3759,
      "é": 3760,
      "ei": 3761,
      "ev": 3762,
      "ere": 3763,
      "eva": 3764,
      "ehu": 3765,
      "erk": 3766,
      "eigh": 3767,
      "ell": 3768,
      "euro": 3769,
      "eee": 3770,
      "fa": 3771,
      "ft": 3772,
      "fk": 3773,
      "fon": 3774,
      "fin": 3775,
      "fis": 3776,
      "fic": 3777,
      "flo": 3778,
      "fil": 3779,
      "fall": 3780,
      "fort": 3781,
      "fata": 3782,
      "fati": 3783,
      "fray": 3784,
      "fenton": 3785,
      "flynn": 3786,
      "fifa": 3787,
      "gb": 3788,
      "gã": 3789,
      "gang": 3790,
      "gon": 3791,
      "gạt": 3792,
      "gor": 3793,
      "gán": 3794,
      "gãy": 3795,
      "gol": 3796,
      "glo": 3797,
      "gri": 3798,
      "gall": 3799,
      "gold": 3800,
      "gốm": 3801,
      "gama": 3802,
      "gate": 3803,
      "gẫy": 3804,
      "gyo": 3805,
      "gates": 3806,
      "grid": 3807,
      "game": 3808,
      "glynn": 3809,
      "hj": 3810,
      "hk": 3811,
      "hã": 3812,
      "hiên": 3813,
      "hước": 3814,
      "hal": 3815,
      "his": 3816,
      "hel": 3817,
      "hầm": 3818,
      "hăng": 3819,
      "hiền": 3820,
      "hil": 3821,
      "hắn": 3822,
      "heb": 3823,
      "hers": 3824,
      "hiv": 3825,
      "htt": 3826,
      "hast": 3827,
      "im": 3828,
      "it": 3829,
      "iz": 3830,
      "iph": 3831,
      "ida": 3832,
      "ioc": 3833,
      "irk": 3834,
      "jan": 3835,
      "jong": 3836,
      "jai": 3837,
      "jel": 3838,
      "jas": 3839,
      "jim": 3840,
      "jag": 3841,
      "jard": 3842,
      "jul": 3843,
      "jord": 3844,
      "jean": 3845,
      "jud": 3846,
      "jesus": 3847,
      "kn": 3848,
      "ka": 3849,
      "ko": 3850,
      "kg": 3851,
      "kv": 3852,
      "kong": 3853,
      "kay": 3854,
      "kẽ": 3855,
      "ker": 3856,
      "kor": 3857,
      "kes": 3858,
      "kre": 3859,
      "kri": 3860,
      "kiêu": 3861,
      "kph": 3862,
      "kru": 3863,
      "kiềm": 3864,
      "kalo": 3865,
      "kari": 3866,
      "kok": 3867,
      "kiss": 3868,
      "kings": 3869,
      "kashi": 3870,
      "kanda": 3871,
      "krom": 3872,
      "kwaz": 3873,
      "lă": 3874,
      "lười": 3875,
      "lặt": 3876,
      "lát": 3877,
      "les": 3878,
      "lách": 3879,
      "lầm": 3880,
      "lit": 3881,
      "lèo": 3882,
      "lặng": 3883,
      "lion": 3884,
      "lồng": 3885,
      "liv": 3886,
      "lines": 3887,
      "lót": 3888,
      "mb": 3889,
      "md": 3890,
      "mông": 3891,
      "mì": 3892,
      "mí": 3893,
      "mau": 3894,
      "mộc": 3895,
      "mer": 3896,
      "manh": 3897,
      "mền": 3898,
      "men": 3899,
      "mâu": 3900,
      "mạo": 3901,
      "miệt": 3902,
      "mờ": 3903,
      "mis": 3904,
      "mel": 3905,
      "mệnh": 3906,
      "mè": 3907,
      "mép": 3908,
      "mìn": 3909,
      "mos": 3910,
      "mers": 3911,
      "mph": 3912,
      "mỏi": 3913,
      "mail": 3914,
      "mash": 3915,
      "mino": 3916,
      "móc": 3917,
      "mald": 3918,
      "mick": 3919,
      "miếng": 3920,
      "makis": 3921,
      "ns": 3922,
      "nm": 3923,
      "nê": 3924,
      "nâ": 3925,
      "nại": 3926,
      "nới": 3927,
      "nế": 3928,
      "nặc": 3929,
      "nin": 3930,
      "nản": 3931,
      "nập": 3932,
      "nỏ": 3933,
      "nát": 3934,
      "nẻ": 3935,
      "nấy": 3936,
      "nas": 3937,
      "nòng": 3938,
      "nap": 3939,
      "nak": 3940,
      "nồi": 3941,
      "nện": 3942,
      "nốt": 3943,
      "nẩy": 3944,
      "natal": 3945,
      "nation": 3946,
      "nick": 3947,
      "ndp": 3948,
      "oa": 3949,
      "ot": 3950,
      "od": 3951,
      "óc": 3952,
      "our": 3953,
      "oak": 3954,
      "ora": 3955,
      "ohi": 3956,
      "oun": 3957,
      "off": 3958,
      "ola": 3959,
      "oha": 3960,
      "oli": 3961,
      "oban": 3962,
      "ope": 3963,
      "ogar": 3964,
      "pt": 3965,
      "pc": 3966,
      "py": 3967,
      "png": 3968,
      "pur": 3969,
      "pre": 3970,
      "pst": 3971,
      "ped": 3972,
      "pfan": 3973,
      "piano": 3974,
      "qc": 3975,
      "qv": 3976,
      "rw": 3977,
      "rà": 3978,
      "rệ": 3979,
      "ran": 3980,
      "rực": 3981,
      "rạng": 3982,
      "râm": 3983,
      "rễ": 3984,
      "riệp": 3985,
      "rạp": 3986,
      "rệt": 3987,
      "rỡ": 3988,
      "rust": 3989,
      "ryan": 3990,
      "rick": 3991,
      "rsp": 3992,
      "ronald": 3993,
      "rese": 3994,
      "sm": 3995,
      "sc": 3996,
      "sy": 3997,
      "sô": 3998,
      "sên": 3999,
      "sành": 4000,
      "seo": 4001,
      "sàn": 4002,
      "sảng": 4003,
      "ses": 4004,
      "set": 4005,
      "sat": 4006,
      "sas": 4007,
      "sồi": 4008,
      "sỹ": 4009,
      "sấm": 4010,
      "sie": 4011,
      "sver": 4012,
      "smy": 4013,
      "sint": 4014,
      "sci": 4015,
      "syd": 4016,
      "sakis": 4017,
      "tm": 4018,
      "td": 4019,
      "tc": 4020,
      "tươ": 4021,
      "tản": 4022,
      "tal": 4023,
      "ten": 4024,
      "tel": 4025,
      "tiệm": 4026,
      "tắm": 4027,
      "twin": 4028,
      "un": 4029,
      "uw": 4030,
      "uc": 4031,
      "uk": 4032,
      "ü": 4033,
      "út": 4034,
      "uth": 4035,
      "uran": 4036,
      "upp": 4037,
      "usa": 4038,
      "uka": 4039,
      "uni": 4040,
      "uigh": 4041,
      "vp": 4042,
      "vay": 4043,
      "vân": 4044,
      "vải": 4045,
      "ver": 4046,
      "vặt": 4047,
      "vấy": 4048,
      "vis": 4049,
      "vas": 4050,
      "vảy": 4051,
      "viền": 4052,
      "vượng": 4053,
      "viêm": 4054,
      "vern": 4055,
      "veg": 4056,
      "vanda": 4057,
      "viếng": 4058,
      "vót": 4059,
      "we": 4060,
      "wl": 4061,
      "wong": 4062,
      "wai": 4063,
      "wel": 4064,
      "whi": 4065,
      "wag": 4066,
      "ward": 4067,
      "wned": 4068,
      "wade": 4069,
      "wik": 4070,
      "wond": 4071,
      "xx": 4072,
      "xt": 4073,
      "xiê": 4074,
      "xong": 4075,
      "xổ": 4076,
      "xương": 4077,
      "xáo": 4078,
      "xối": 4079,
      "xướng": 4080,
      "xuyết": 4081,
      "xte": 4082,
      "xiêm": 4083,
      "xói": 4084,
      "xộn": 4085,
      "xvi": 4086,
      "ya": 4087,
      "yể": 4088,
      "yas": 4089,
      "za": 4090,
      "zo": 4091,
      "zi": 4092,
      "zh": 4093,
      "zou": 4094,
      "zig": 4095,
      "đả": 4096,
      "đạn": 4097,
      "đống": 4098,
      "đinh": 4099,
      "đính": 4100,
      "đực": 4101,
      "đẻ": 4102,
      "đắc": 4103,
      "đạc": 4104,
      "điệp": 4105,
      "đắp": 4106,
      "đặng": 4107,
      "đẳng": 4108,
      "đặn": 4109,
      "_um": 4110,
      "_ux": 4111,
      "_uc": 4112,
      "_uv": 4113,
      "_uit": 4114,
      "_ule": 4115,
      "_uta": 4116,
      "_ute": 4117,
      "_uke": 4118,
      "_uilla": 4119,
      "_üm": 4120,
      "_nk": 4121,
      "_ny": 4122,
      "_nau": 4123,
      "_nal": 4124,
      "_nist": 4125,
      "_nos": 4126,
      "_jo": 4127,
      "_ji": 4128,
      "_jon": 4129,
      "_jia": 4130,
      "_jet": 4131,
      "_jab": 4132,
      "_az": 4133,
      "_ãng": 4134,
      "_ael": 4135,
      "_aza": 4136,
      "_aqu": 4137,
      "_bin": 4138,
      "_bal": 4139,
      "_bor": 4140,
      "_bet": 4141,
      "_bson": 4142,
      "_blin": 4143,
      "_born": 4144,
      "_bean": 4145,
      "_bruk": 4146,
      "_blic": 4147,
      "_sg": 4148,
      "_sm": 4149,
      "_ş": 4150,
      "_sau": 4151,
      "_sar": 4152,
      "_sen": 4153,
      "_sel": 4154,
      "_ses": 4155,
      "_sand": 4156,
      "_sur": 4157,
      "_sta": 4158,
      "_sla": 4159,
      "_seth": 4160,
      "_sala": 4161,
      "_smo": 4162,
      "_fa": 4163,
      "_fy": 4164,
      "_fal": 4165,
      "_fas": 4166,
      "_fing": 4167,
      "_fth": 4168,
      "_fta": 4169,
      "_foke": 4170,
      "_faw": 4171,
      "_wc": 4172,
      "_wan": 4173,
      "_wak": 4174,
      "_world": 4175,
      "_wych": 4176,
      "_wpar": 4177,
      "_ror": 4178,
      "_rro": 4179,
      "_rap": 4180,
      "_rna": 4181,
      "_rash": 4182,
      "_rican": 4183,
      "_rray": 4184,
      "_rling": 4185,
      "_rade": 4186,
      "_rses": 4187,
      "_od": 4188,
      "_oon": 4189,
      "_ole": 4190,
      "_over": 4191,
      "_oda": 4192,
      "_otte": 4193,
      "_oxit": 4194,
      "_oja": 4195,
      "_ofan": 4196,
      "_̆an": 4197,
      "_go": 4198,
      "_gi": 4199,
      "_gl": 4200,
      "_gy": 4201,
      "_gine": 4202,
      "_gow": 4203,
      "_gust": 4204,
      "_gsl": 4205,
      "_grade": 4206,
      "_ğan": 4207,
      "_ei": 4208,
      "_ex": 4209,
      "_én": 4210,
      "_eir": 4211,
      "_edo": 4212,
      "_mb": 4213,
      "_mal": 4214,
      "_mel": 4215,
      "_mat": 4216,
      "_mur": 4217,
      "_mos": 4218,
      "_mir": 4219,
      "_mson": 4220,
      "_mber": 4221,
      "_mey": 4222,
      "_mbai": 4223,
      "_io": 4224,
      "_ín": 4225,
      "_ich": 4226,
      "_ile": 4227,
      "_iers": 4228,
      "_iog": 4229,
      "_iola": 4230,
      "_ichel": 4231,
      "_xt": 4232,
      "_xon": 4233,
      "_xlo": 4234,
      "_xbur": 4235,
      "_tong": 4236,
      "_tia": 4237,
      "_tol": 4238,
      "_tine": 4239,
      "_trig": 4240,
      "_har": 4241,
      "_hal": 4242,
      "_hen": 4243,
      "_hel": 4244,
      "_hul": 4245,
      "_hoo": 4246,
      "_hall": 4247,
      "_hey": 4248,
      "_hary": 4249,
      "_hood": 4250,
      "_hiti": 4251,
      "_du": 4252,
      "_dc": 4253,
      "_dan": 4254,
      "_din": 4255,
      "_der": 4256,
      "_dern": 4257,
      "_dina": 4258,
      "_dul": 4259,
      "_dya": 4260,
      "_drig": 4261,
      "_dwych": 4262,
      "_ls": 4263,
      "_lon": 4264,
      "_lam": 4265,
      "_las": 4266,
      "_llo": 4267,
      "_lington": 4268,
      "_lni": 4269,
      "_lgar": 4270,
      "_lborn": 4271,
      "_cia": 4272,
      "_cil": 4273,
      "_cta": 4274,
      "_cord": 4275,
      "_ctic": 4276,
      "_cone": 4277,
      "_cci": 4278,
      "_canian": 4279,
      "_ciano": 4280,
      "_cfta": 4281,
      "_kan": 4282,
      "_kor": 4283,
      "_kol": 4284,
      "_kur": 4285,
      "_kla": 4286,
      "_kir": 4287,
      "_kou": 4288,
      "_krit": 4289,
      "_yon": 4290,
      "_yer": 4291,
      "_yland": 4292,
      "_yss": 4293,
      "_yns": 4294,
      "_yuz": 4295,
      "_ysla": 4296,
      "_vu": 4297,
      "_via": 4298,
      "_vé": 4299,
      "_vol": 4300,
      "_vian": 4301,
      "_vall": 4302,
      "_vish": 4303,
      "_vick": 4304,
      "_villa": 4305,
      "_varia": 4306,
      "_vado": 4307,
      "_ville": 4308,
      "_pi": 4309,
      "_pen": 4310,
      "_por": 4311,
      "_pus": 4312,
      "_pern": 4313,
      "_pul": 4314,
      "_puch": 4315,
      "_pov": 4316,
      "_poulos": 4317,
      "_pú": 4318,
      "_zo": 4319,
      "_zz": 4320,
      "_zơ": 4321,
      "_zam": 4322,
      "_zel": 4323,
      "_zian": 4324,
      "_zez": 4325,
      "_zuma": 4326,
      "_zich": 4327,
      "_zyns": 4328,
      "_qi": 4329,
      "_̈ng": 4330,
      "_̈sl": 4331,
      "_̈rses": 4332,
      "_nger": 4333,
      "_ngla": 4334,
      "_ngord": 4335,
      "_ngary": 4336,
      "_ếch": 4337,
      "thệ": 4338,
      "thuy": 4339,
      "thỏ": 4340,
      "ther": 4341,
      "thép": 4342,
      "thra": 4343,
      "thấm": 4344,
      "thềm": 4345,
      "thrash": 4346,
      "_ược": 4347,
      "trống": 4348,
      "trinh": 4349,
      "treo": 4350,
      "trin": 4351,
      "trỏ": 4352,
      "trat": 4353,
      "trễ": 4354,
      "trạc": 4355,
      "trướng": 4356,
      "trồi": 4357,
      "trèo": 4358,
      "trian": 4359,
      "trenton": 4360,
      "chày": 4361,
      "chài": 4362,
      "chật": 4363,
      "cheo": 4364,
      "chập": 4365,
      "cher": 4366,
      "chiết": 4367,
      "chổi": 4368,
      "chào": 4369,
      "chánh": 4370,
      "chội": 4371,
      "chas": 4372,
      "chán": 4373,
      "chìm": 4374,
      "chăng": 4375,
      "chốt": 4376,
      "chìa": 4377,
      "chớp": 4378,
      "chồm": 4379,
      "nhi": 4380,
      "nhk": 4381,
      "nhì": 4382,
      "nhại": 4383,
      "nhí": 4384,
      "nhổ": 4385,
      "nhường": 4386,
      "nhở": 4387,
      "nham": 4388,
      "nhàng": 4389,
      "nhặt": 4390,
      "nhát": 4391,
      "nhãn": 4392,
      "nhấc": 4393,
      "nhộn": 4394,
      "nhược": 4395,
      "khước": 4396,
      "kham": 4397,
      "khiết": 4398,
      "khen": 4399,
      "khôi": 4400,
      "khốn": 4401,
      "khiếm": 4402,
      "khiếu": 4403,
      "khẳng": 4404,
      "khớp": 4405,
      "ngột": 4406,
      "ngài": 4407,
      "ngơi": 4408,
      "ngạo": 4409,
      "ngor": 4410,
      "ngách": 4411,
      "ngắt": 4412,
      "_ău": 4413,
      "_ằng": 4414,
      "phông": 4415,
      "phiện": 4416,
      "phai": 4417,
      "phanh": 4418,
      "phơi": 4419,
      "phen": 4420,
      "phượt": 4421,
      "phễ": 4422,
      "phẫn": 4423,
      "phấn": 4424,
      "phượng": 4425,
      "phant": 4426,
      "phond": 4427,
      "cua": 4428,
      "cú": 4429,
      "cup": 4430,
      "cúc": 4431,
      "cúp": 4432,
      "cuer": 4433,
      "cuội": 4434,
      "cush": 4435,
      "giông": 4436,
      "giong": 4437,
      "giang": 4438,
      "giật": 4439,
      "giời": 4440,
      "giặt": 4441,
      "gill": 4442,
      "giẫm": 4443,
      "gibson": 4444,
      "giằng": 4445,
      "quật": 4446,
      "quặt": 4447,
      "quấy": 4448,
      "quạnh": 4449,
      "quầng": 4450,
      "làn": 4451,
      "cóng": 4452,
      "hong": 4453,
      "hoài": 4454,
      "hous": 4455,
      "howe": 4456,
      "homo": 4457,
      "homer": 4458,
      "hooke": 4459,
      "hopper": 4460,
      "horro": 4461,
      "holborn": 4462,
      "hokur": 4463,
      "_ania": 4464,
      "_anes": 4465,
      "_anth": 4466,
      "_ansa": 4467,
      "_ankar": 4468,
      "_ongor": 4469,
      "duệ": 4470,
      "dũng": 4471,
      "dust": 4472,
      "dublin": 4473,
      "dumb": 4474,
      "duxbur": 4475,
      "duvall": 4476,
      "chọc": 4477,
      "chọi": 4478,
      "choud": 4479,
      "chùng": 4480,
      "chùm": 4481,
      "chuôi": 4482,
      "chuộng": 4483,
      "thun": 4484,
      "thục": 4485,
      "thùy": 4486,
      "tiêm": 4487,
      "tiễn": 4488,
      "_anga": 4489,
      "_angel": 4490,
      "_angjia": 4491,
      "khỉ": 4492,
      "_onic": 4493,
      "_onos": 4494,
      "_onov": 4495,
      "_aica": 4496,
      "_aigsl": 4497,
      "nghịch": 4498,
      "nghiệt": 4499,
      "nghiền": 4500,
      "_audia": 4501,
      "_aucanian": 4502,
      "vung": 4503,
      "vùi": 4504,
      "raro": 4505,
      "rahul": 4506,
      "raonic": 4507,
      "chiao": 4508,
      "chick": 4509,
      "chiş": 4510,
      "_eosau": 4511,
      "lọ": 4512,
      "lọt": 4513,
      "loes": 4514,
      "lõi": 4515,
      "loãng": 4516,
      "lodin": 4517,
      "_inen": 4518,
      "_inski": 4519,
      "_inău": 4520,
      "nóc": 4521,
      "_ermo": 4522,
      "_ara": 4523,
      "_arch": 4524,
      "_arus": 4525,
      "_arman": 4526,
      "_arine": 4527,
      "_arest": 4528,
      "_arola": 4529,
      "_arctic": 4530,
      "_arinen": 4531,
      "đioxit": 4532,
      "tuýp": 4533,
      "khuếch": 4534,
      "múi": 4535,
      "muối": 4536,
      "much": 4537,
      "muss": 4538,
      "muộn": 4539,
      "murray": 4540,
      "mumbai": 4541,
      "muxlo": 4542,
      "müsl": 4543,
      "xé": 4544,
      "ân": 4545,
      "doạ": 4546,
      "dọn": 4547,
      "down": 4548,
      "doming": 4549,
      "lún": 4550,
      "lùi": 4551,
      "lụt": 4552,
      "luno": 4553,
      "lúa": 4554,
      "lufth": 4555,
      "trúng": 4556,
      "truex": 4557,
      "ôm": 4558,
      "ốt": 4559,
      "_alle": 4560,
      "_alos": 4561,
      "tut": 4562,
      "tụt": 4563,
      "phui": 4564,
      "phùn": 4565,
      "phúng": 4566,
      "_ent": 4567,
      "_enid": 4568,
      "_ence": 4569,
      "_enburg": 4570,
      "_enicia": 4571,
      "_enei": 4572,
      "khoe": 4573,
      "khoai": 4574,
      "khoái": 4575,
      "khoát": 4576,
      "khoẻ": 4577,
      "khoảnh": 4578,
      "top": 4579,
      "toà": 4580,
      "toái": 4581,
      "toạc": 4582,
      "toto": 4583,
      "toron": 4584,
      "tobruk": 4585,
      "răng": 4586,
      "xuôi": 4587,
      "quyến": 4588,
      "coas": 4589,
      "colo": 4590,
      "coun": 4591,
      "cover": 4592,
      "couch": 4593,
      "cowpar": 4594,
      "copern": 4595,
      "const": 4596,
      "connau": 4597,
      "_chy": 4598,
      "_chin": 4599,
      "_chus": 4600,
      "_chol": 4601,
      "_chur": 4602,
      "_chag": 4603,
      "_chem": 4604,
      "_chary": 4605,
      "_chael": 4606,
      "_charest": 4607,
      "lượn": 4608,
      "cớ": 4609,
      "_iah": 4610,
      "_iad": 4611,
      "_oru": 4612,
      "_oras": 4613,
      "_oros": 4614,
      "_orua": 4615,
      "ngòi": 4616,
      "ngoắc": 4617,
      "vụn": 4618,
      "taj": 4619,
      "tagine": 4620,
      "tahiti": 4621,
      "troy": 4622,
      "tròn": 4623,
      "_ise": 4624,
      "_isha": 4625,
      "_isban": 4626,
      "hôi": 4627,
      "_els": 4628,
      "_ely": 4629,
      "_elow": 4630,
      "_elty": 4631,
      "nguyền": 4632,
      "lyon": 4633,
      "lynd": 4634,
      "đun": 4635,
      "_esa": 4636,
      "_esian": 4637,
      "_esso": 4638,
      "_essand": 4639,
      "sọ": 4640,
      "sol": 4641,
      "sole": 4642,
      "soph": 4643,
      "sound": 4644,
      "soci": 4645,
      "sofia": 4646,
      "somal": 4647,
      "soyuz": 4648,
      "namgyal": 4649,
      "namgy": 4650,
      "vik": 4651,
      "vilni": 4652,
      "vichy": 4653,
      "chiêm": 4654,
      "back": 4655,
      "baby": 4656,
      "batt": 4657,
      "bafoke": 4658,
      "badya": 4659,
      "bavaria": 4660,
      "bazơ": 4661,
      "_ete": 4662,
      "_ety": 4663,
      "_eton": 4664,
      "_etic": 4665,
      "_etta": 4666,
      "_etts": 4667,
      "_atrap": 4668,
      "_asal": 4669,
      "_asque": 4670,
      "_ascar": 4671,
      "_asgow": 4672,
      "ròng": 4673,
      "room": 4674,
      "rotor": 4675,
      "robert": 4676,
      "rolando": 4677,
      "route": 4678,
      "robin": 4679,
      "rodrig": 4680,
      "giancar": 4681,
      "_andina": 4682,
      "thằn": 4683,
      "thắp": 4684,
      "did": 4685,
      "dilo": 4686,
      "dieg": 4687,
      "lựu": 4688,
      "bục": 4689,
      "bụi": 4690,
      "buôn": 4691,
      "buồn": 4692,
      "buồng": 4693,
      "buồm": 4694,
      "bulgar": 4695,
      "bungary": 4696,
      "bucharest": 4697,
      "phỉ": 4698,
      "hệt": 4699,
      "bank": 4700,
      "gồ": 4701,
      "vịn": 4702,
      "vịt": 4703,
      "suv": 4704,
      "sút": 4705,
      "sụp": 4706,
      "_ica": 4707,
      "_icus": 4708,
      "thọ": 4709,
      "thõng": 4710,
      "thoảng": 4711,
      "thomson": 4712,
      "_robi": 4713,
      "_ropus": 4714,
      "giục": 4715,
      "nút": 4716,
      "number": 4717,
      "_ith": 4718,
      "_itas": 4719,
      "_itution": 4720,
      "_itvice": 4721,
      "_itals": 4722,
      "_usis": 4723,
      "_usie": 4724,
      "_leans": 4725,
      "_lege": 4726,
      "_lejon": 4727,
      "_levé": 4728,
      "_inger": 4729,
      ").\"": 4730,
      "_ols": 4731,
      "_olini": 4732,
      "_urley": 4733,
      "_imonos": 4734,
      "ngục": 4735,
      "ngủi": 4736,
      "tayyi": 4737,
      "inca": 4738,
      "inuit": 4739,
      "intrig": 4740,
      "_aptor": 4741,
      "_apfen": 4742,
      "_lou": 4743,
      "_loon": 4744,
      "_lopoulos": 4745,
      "_adley": 4746,
      "_adysla": 4747,
      "_akh": 4748,
      "_akia": 4749,
      "_akha": 4750,
      "_akop": 4751,
      "bỏng": 4752,
      "neigh": 4753,
      "next": 4754,
      "anto": 4755,
      "ansa": 4756,
      "anatol": 4757,
      "anfa": 4758,
      "emma": 4759,
      "emmy": 4760,
      "_reb": 4761,
      "_rew": 4762,
      "_reet": 4763,
      "khói": 4764,
      "khóc": 4765,
      "_rida": 4766,
      "_rillo": 4767,
      "_rabo": 4768,
      "_teros": 4769,
      "_hire": 4770,
      "_hikawa": 4771,
      "strand": 4772,
      "station": 4773,
      "stofan": 4774,
      "street": 4775,
      "strabo": 4776,
      "_neapolis": 4777,
      "lafas": 4778,
      "xavi": 4779,
      "rũ": 4780,
      "ruột": 4781,
      "rủng": 4782,
      "ruộng": 4783,
      "rudd": 4784,
      "rumel": 4785,
      "đét": 4786,
      "_omé": 4787,
      "_omag": 4788,
      "_omir": 4789,
      "trafal": 4790,
      "vồ": 4791,
      "ngửi": 4792,
      "_thang": 4793,
      "_thic": 4794,
      "_thag": 4795,
      "nhiêu": 4796,
      "ali": 4797,
      "alps": 4798,
      "albert": 4799,
      "alden": 4800,
      "aldwych": 4801,
      "alessand": 4802,
      "_ila": 4803,
      "_ileo": 4804,
      "_ilis": 4805,
      "_tave": 4806,
      "_tagne": 4807,
      "_tafy": 4808,
      "tie": 4809,
      "tipper": 4810,
      "võng": 4811,
      "vòm": 4812,
      "_istina": 4813,
      "_istler": 4814,
      "_istchur": 4815,
      "_ebo": 4816,
      "_eber": 4817,
      "mãnh": 4818,
      "_agan": 4819,
      "_agem": 4820,
      "_agsta": 4821,
      "_agascar": 4822,
      "jobs": 4823,
      "jose": 4824,
      "joaqu": 4825,
      "jochem": 4826,
      "_tone": 4827,
      "cafen": 4828,
      "taiba": 4829,
      "tainos": 4830,
      "taizich": 4831,
      "news": 4832,
      "”.\"": 4833,
      "_osition": 4834,
      "arly": 4835,
      "arti": 4836,
      "aryan": 4837,
      "artem": 4838,
      "aristoph": 4839,
      "araucanian": 4840,
      "kem": 4841,
      "keir": 4842,
      "kechag": 4843,
      "_tep": 4844,
      "_team": 4845,
      "rio": 4846,
      "rỉnh": 4847,
      "riina": 4848,
      "river": 4849,
      "rift": 4850,
      "riga": 4851,
      "riomag": 4852,
      "_cock": 4853,
      "_codi": 4854,
      "_covado": 4855,
      "lệch": 4856,
      "lantagne": 4857,
      "rex": 4858,
      "rét": 4859,
      "rece": 4860,
      "report": 4861,
      "reed": 4862,
      "revol": 4863,
      "repú": 4864,
      "reagan": 4865,
      "_ional": 4866,
      "thỉnh": 4867,
      "bọt": 4868,
      "bots": 4869,
      "book": 4870,
      "bohr": 4871,
      "boule": 4872,
      "_uns": 4873,
      "_unya": 4874,
      "_mplo": 4875,
      "_ardian": 4876,
      "santo": 4877,
      "sanju": 4878,
      "sansk": 4879,
      "sanpar": 4880,
      "santia": 4881,
      "_ffer": 4882,
      "_ffir": 4883,
      "_tric": 4884,
      "cưỡng": 4885,
      "gừ": 4886,
      "mafia": 4887,
      "machu": 4888,
      "mahal": 4889,
      "maasal": 4890,
      "savan": 4891,
      "sahe": 4892,
      "saens": 4893,
      "sacks": 4894,
      "sahel": 4895,
      "saarinen": 4896,
      "sachin": 4897,
      "saffir": 4898,
      "shri": 4899,
      "shore": 4900,
      "short": 4901,
      "shari": 4902,
      "shannes": 4903,
      "shankar": 4904,
      "shisha": 4905,
      "shimonos": 4906,
      "_lah": 4907,
      "_iraptor": 4908,
      "nhút": 4909,
      "cốp": 4910,
      "medina": 4911,
      "canal": 4912,
      "canxi": 4913,
      "canaan": 4914,
      "canyon": 4915,
      "huyện": 4916,
      "_hae": 4917,
      "chíp": 4918,
      "johannes": 4919,
      "bổng": 4920,
      "hei": 4921,
      "heck": 4922,
      "hecta": 4923,
      "hekla": 4924,
      "headley": 4925,
      "maria": 4926,
      "marta": 4927,
      "marion": 4928,
      "marsh": 4929,
      "mario": 4930,
      "maryland": 4931,
      "_emiah": 4932,
      "_iance": 4933,
      "_ianapolis": 4934,
      "_touv": 4935,
      "suplic": 4936,
      "proxy": 4937,
      "provis": 4938,
      "_ápagos": 4939,
      "greely": 4940,
      "kivu": 4941,
      "_maeosau": 4942,
      "_erson": 4943,
      "_ersity": 4944,
      "bien": 4945,
      "bieber": 4946,
      "_bodia": 4947,
      "_doğan": 4948,
      "dẹp": 4949,
      "deity": 4950,
      "deuts": 4951,
      "vidde": 4952,
      "_strom": 4953,
      "ash": 4954,
      "astron": 4955,
      "asfaw": 4956,
      "daesh": 4957,
      "ghề": 4958,
      "ghé": 4959,
      "ghim": 4960,
      "ghẹ": 4961,
      "ghrai": 4962,
      "môt": 4963,
      "methan": 4964,
      "metror": 4965,
      "vựng": 4966,
      "_ogle": 4967,
      "_lie": 4968,
      "_cell": 4969,
      "_phin": 4970,
      "carpan": 4971,
      "saito": 4972,
      "_tier": 4973,
      "camille": 4974,
      "campuch": 4975,
      "cambodia": 4976,
      "sea": 4977,
      "seng": 4978,
      "sét": 4979,
      "séc": 4980,
      "sezen": 4981,
      "sedan": 4982,
      "sevilla": 4983,
      "sepul": 4984,
      "_ulu": 4985,
      "_ulka": 4986,
      "_vaji": 4987,
      "_vec": 4988,
      "_veda": 4989,
      ".”\"": 4990,
      "african": 4991,
      "afcfta": 4992,
      "niue": 4993,
      "niig": 4994,
      "nixon": 4995,
      "nikol": 4996,
      "nichol": 4997,
      "_beration": 4998,
      "_linn": 4999,
      "_lino": 5000,
      "_inek": 5001,
      "_inews": 5002,
      "barca": 5003,
      "bartol": 5004,
      "gù": 5005,
      "gürses": 5006,
      "guardian": 5007,
      "haris": 5008,
      "harbour": 5009,
      "harappan": 5010,
      "harper": 5011,
      "harvick": 5012,
      "moa": 5013,
      "mohen": 5014,
      "modern": 5015,
      "mozam": 5016,
      "norman": 5017,
      "_sack": 5018,
      "_iej": 5019,
      "_ieux": 5020,
      "_rüm": 5021,
      "_allit": 5022,
      "_allus": 5023,
      "_banks": 5024,
      "_ivan": 5025,
      "_ives": 5026,
      "_iversity": 5027,
      "tribu": 5028,
      "bloch": 5029,
      "_orno": 5030,
      "bali": 5031,
      "balbo": 5032,
      "balkan": 5033,
      "casa": 5034,
      "casas": 5035,
      "casey": 5036,
      "caspi": 5037,
      "capuch": 5038,
      "capuz": 5039,
      "capitals": 5040,
      "flat": 5041,
      "flash": 5042,
      "fluke": 5043,
      "flagsta": 5044,
      "franks": 5045,
      "isis": 5046,
      "isil": 5047,
      "ishikawa": 5048,
      "manta": 5049,
      "manarola": 5050,
      "manila": 5051,
      "managem": 5052,
      "mantouv": 5053,
      "nairobi": 5054,
      "pound": 5055,
      "pohu": 5056,
      "point": 5057,
      "power": 5058,
      "podc": 5059,
      "_bile": 5060,
      "_bique": 5061,
      "_toral": 5062,
      "_zania": 5063,
      "_zantine": 5064,
      "ẩu": 5065,
      "steve": 5066,
      "stars": 5067,
      "starmer": 5068,
      "august": 5069,
      "gazian": 5070,
      "hưu": 5071,
      "hưng": 5072,
      "tệp": 5073,
      "xix": 5074,
      "_xiou": 5075,
      "phoenicia": 5076,
      "airway": 5077,
      "ames": 5078,
      "amir": 5079,
      "berber": 5080,
      "berhan": 5081,
      "callejon": 5082,
      "grande": 5083,
      "jamie": 5084,
      "jamaica": 5085,
      "kenned": 5086,
      "kenseth": 5087,
      "latam": 5088,
      "latvia": 5089,
      "lakes": 5090,
      "palaw": 5091,
      "palermo": 5092,
      "templo": 5093,
      "_uchen": 5094,
      "chót": 5095,
      "runnels": 5096,
      "alliance": 5097,
      "armand": 5098,
      "_undation": 5099,
      "electric": 5100,
      "electoral": 5101,
      "edward": 5102,
      "edgar": 5103,
      "educ": 5104,
      "gọn": 5105,
      "gourley": 5106,
      "gothic": 5107,
      "google": 5108,
      "galông": 5109,
      "galile": 5110,
      "galileo": 5111,
      "galápagos": 5112,
      "mayotte": 5113,
      "not": 5114,
      "noto": 5115,
      "nova": 5116,
      "petros": 5117,
      "_egates": 5118,
      "_egsm": 5119,
      "_huania": 5120,
      "_pshire": 5121,
      "adt": 5122,
      "add": 5123,
      "angola": 5124,
      "angkor": 5125,
      "catalunya": 5126,
      "delhi": 5127,
      "delta": 5128,
      "delegates": 5129,
      "espr": 5130,
      "gomulka": 5131,
      "liu": 5132,
      "ligur": 5133,
      "liberation": 5134,
      "mip": 5135,
      "mike": 5136,
      "miami": 5137,
      "michel": 5138,
      "michael": 5139,
      "plc": 5140,
      "plata": 5141,
      "plitvice": 5142,
      "ski": 5143,
      "skis": 5144,
      "scopol": 5145,
      "tank": 5146,
      "tanzania": 5147,
      "tamaki": 5148,
      "_abakh": 5149,
      "giovan": 5150,
      "hungaria": 5151,
      "_icana": 5152,
      "atlantic": 5153,
      "ecuado": 5154,
      "monteros": 5155,
      "maswa": 5156,
      "indias": 5157,
      "indianapolis": 5158,
      "acid": 5159,
      "acma": 5160,
      "alexiou": 5161,
      "break": 5162,
      "bremer": 5163,
      "brewer": 5164,
      "brevis": 5165,
      "crown": 5166,
      "crocodi": 5167,
      "falcone": 5168,
      "gurmat": 5169,
      "hamlin": 5170,
      "hamburg": 5171,
      "hampshire": 5172,
      "hẻo": 5173,
      "ilha": 5174,
      "iliad": 5175,
      "jack": 5176,
      "jazz": 5177,
      "jeremiah": 5178,
      "kristo": 5179,
      "krapfen": 5180,
      "lamb": 5181,
      "lastu": 5182,
      "laskhar": 5183,
      "mêlam": 5184,
      "peru": 5185,
      "patos": 5186,
      "pattave": 5187,
      "raymon": 5188,
      "sara": 5189,
      "saroja": 5190,
      "tony": 5191,
      "who": 5192,
      "whistler": 5193,
      "đựng": 5194,
      "_nigl": 5195,
      "_oç": 5196,
      "_ocles": 5197,
      "_ociraptor": 5198,
      "_eki": 5199,
      "_minus": 5200,
      "_minster": 5201,
      "_tukawa": 5202,
      "_vention": 5203,
      "chhatrap": 5204,
      "dunkir": 5205,
      "_issary": 5206,
      "safina": 5207,
      "berliner": 5208,
      "elizabet": 5209,
      "dịp": 5210,
      "daru": 5211,
      "daro": 5212,
      "granville": 5213,
      "karenia": 5214,
      "karate": 5215,
      "karabakh": 5216,
      "_bonite": 5217,
      "corpor": 5218,
      "corcovado": 5219,
      "cornigl": 5220,
      "_ingstone": 5221,
      "bén": 5222,
      "blue": 5223,
      "craigsl": 5224,
      "crete": 5225,
      "cristina": 5226,
      "claudia": 5227,
      "clara": 5228,
      "clorua": 5229,
      "congo": 5230,
      "civis": 5231,
      "civitas": 5232,
      "civilis": 5233,
      "felicia": 5234,
      "grachte": 5235,
      "hira": 5236,
      "hanami": 5237,
      "hanover": 5238,
      "hancock": 5239,
      "katja": 5240,
      "kirby": 5241,
      "mili": 5242,
      "onega": 5243,
      "oneworld": 5244,
      "picchu": 5245,
      "punja": 5246,
      "punjab": 5247,
      "punakha": 5248,
      "service": 5249,
      "versace": 5250,
      "walt": 5251,
      "westjet": 5252,
      "westminster": 5253,
      "đàm": 5254,
      "_rayaan": 5255,
      "_ovarman": 5256,
      "_mons": 5257,
      "_mont": 5258,
      "_iges": 5259,
      "_ydallus": 5260,
      "nhòm": 5261,
      "nhọn": 5262,
      "sứa": 5263,
      "_inette": 5264,
      "college": 5265,
      "_chell": 5266,
      "journal": 5267,
      "caribbean": 5268,
      "skype": 5269,
      "skyteam": 5270,
      "montezuma": 5271,
      "massachus": 5272,
      "falklands": 5273,
      "azeris": 5274,
      "fairbanks": 5275,
      "fairmont": 5276,
      "fernandez": 5277,
      "glen": 5278,
      "glasgow": 5279,
      "hằng": 5280,
      "kito": 5281,
      "leona": 5282,
      "leonov": 5283,
      "madam": 5284,
      "madagascar": 5285,
      "nanak": 5286,
      "richter": 5287,
      "scotia": 5288,
      "brzez": 5289,
      "brisban": 5290,
      "benin": 5291,
      "belgrade": 5292,
      "belarus": 5293,
      "branca": 5294,
      "branson": 5295,
      "cell": 5296,
      "cella": 5297,
      "ephesus": 5298,
      "ephesian": 5299,
      "fools": 5300,
      "foundation": 5301,
      "formos": 5302,
      "gara": 5303,
      "garcia": 5304,
      "iwata": 5305,
      "iwasaki": 5306,
      "ipod": 5307,
      "jonny": 5308,
      "jarque": 5309,
      "jaromir": 5310,
      "kalaalle": 5311,
      "kalaallit": 5312,
      "lều": 5313,
      "larson": 5314,
      "larry": 5315,
      "lẻo": 5316,
      "lemieux": 5317,
      "mcmur": 5318,
      "mccord": 5319,
      "minneapolis": 5320,
      "minivan": 5321,
      "malar": 5322,
      "malta": 5323,
      "mitt": 5324,
      "mitchell": 5325,
      "mission": 5326,
      "nagasaki": 5327,
      "nagorno": 5328,
      "orlando": 5329,
      "orleans": 5330,
      "oldrich": 5331,
      "oldsmo": 5332,
      "shika": 5333,
      "shivaji": 5334,
      "tonga": 5335,
      "tongan": 5336,
      "terre": 5337,
      "terminus": 5338,
      "urdu": 5339,
      "vẹt": 5340,
      "valley": 5341,
      "valetta": 5342,
      "velasque": 5343,
      "velociraptor": 5344,
      "xinhua": 5345,
      "_utsk": 5346,
      "_seca": 5347,
      "_raine": 5348,
      "_gurat": 5349,
      "_mingham": 5350,
      "_iku": 5351,
      "_housie": 5352,
      "_ctus": 5353,
      "_paniola": 5354,
      "transant": 5355,
      "transnist": 5356,
      "christoph": 5357,
      "christchur": 5358,
      "_innati": 5359,
      "dominica": 5360,
      "dominicana": 5361,
      "comoros": 5362,
      "commons": 5363,
      "_atollah": 5364,
      "rogers": 5365,
      "rogaland": 5366,
      "roberto": 5367,
      "roberts": 5368,
      "bums": 5369,
      "bumthang": 5370,
      "animal": 5371,
      "animals": 5372,
      "alpes": 5373,
      "alpha": 5374,
      "cacbonic": 5375,
      "_temata": 5376,
      "bowen": 5377,
      "bowyer": 5378,
      "santorini": 5379,
      "santorum": 5380,
      "macbeth": 5381,
      "maciej": 5382,
      "shark": 5383,
      "sharma": 5384,
      "_ifax": 5385,
      "_wazaki": 5386,
      "audition": 5387,
      "palmeir": 5388,
      "whitehall": 5389,
      "felix": 5390,
      "felipe": 5391,
      "versaille": 5392,
      "versailles": 5393,
      "princesa": 5394,
      "princeton": 5395,
      "wilds": 5396,
      "dreamer": 5397,
      "expo": 5398,
      "exposition": 5399,
      "jefferson": 5400,
      "jakarta": 5401,
      "ocelot": 5402,
      "ocelots": 5403,
      "slovenia": 5404,
      "slovakia": 5405,
      "scaffolds": 5406,
      "scaffolding": 5407,
      "byzantine": 5408,
      "bhutan": 5409,
      "erik": 5410,
      "fire": 5411,
      "kowloon": 5412,
      "morphin": 5413,
      "zagreb": 5414,
      "chandrayaan": 5415,
      "_enstad": 5416,
      ",...": 5417,
      "abc": 5418,
      "agder": 5419,
      "ayatollah": 5420,
      "aituta": 5421,
      "arawak": 5422,
      "athens": 5423,
      "avenger": 5424,
      "axít": 5425,
      "aksu": 5426,
      "aegean": 5427,
      "borsel": 5428,
      "beso": 5429,
      "bright": 5430,
      "boston": 5431,
      "bardia": 5432,
      "birmingham": 5433,
      "bengal": 5434,
      "binnenstad": 5435,
      "cntt": 5436,
      "cinque": 5437,
      "cirque": 5438,
      "cliff": 5439,
      "cruelty": 5440,
      "cincinnati": 5441,
      "cctv": 5442,
      "dylan": 5443,
      "daily": 5444,
      "dervish": 5445,
      "dalhousie": 5446,
      "dromaeosau": 5447,
      "drive": 5448,
      "dravid": 5449,
      "dragoon": 5450,
      "dslr": 5451,
      "erdoğan": 5452,
      "élevé": 5453,
      "evangel": 5454,
      "erectus": 5455,
      "ehud": 5456,
      "erkoç": 5457,
      "eighmey": 5458,
      "ellis": 5459,
      "faa": 5460,
      "ftir": 5461,
      "fkp": 5462,
      "fonseca": 5463,
      "finish": 5464,
      "fisichel": 5465,
      "floyd": 5466,
      "film": 5467,
      "falls": 5468,
      "fatih": 5469,
      "gbp": 5470,
      "gangetic": 5471,
      "gonu": 5472,
      "gorilla": 5473,
      "golf": 5474,
      "global": 5475,
      "gripen": 5476,
      "gallon": 5477,
      "goldust": 5478,
      "gyöng": 5479,
      "gridley": 5480,
      "hjr": 5481,
      "hãm": 5482,
      "halifax": 5483,
      "hispaniola": 5484,
      "heliers": 5485,
      "hills": 5486,
      "hebrew": 5487,
      "hershey": 5488,
      "http": 5489,
      "hastings": 5490,
      "italo": 5491,
      "izmir": 5492,
      "iphone": 5493,
      "idaho": 5494,
      "irkutsk": 5495,
      "janissary": 5496,
      "jelinek": 5497,
      "jimén": 5498,
      "jagr": 5499,
      "jardín": 5500,
      "julia": 5501,
      "jordan": 5502,
      "judean": 5503,
      "knp": 5504,
      "kahne": 5505,
      "kouns": 5506,
      "kayak": 5507,
      "kerala": 5508,
      "korydallus": 5509,
      "keselow": 5510,
      "krezel": 5511,
      "kriegsm": 5512,
      "kruger": 5513,
      "kalousis": 5514,
      "kariwa": 5515,
      "kokoda": 5516,
      "kissinger": 5517,
      "kingsway": 5518,
      "kashiwazaki": 5519,
      "kandahar": 5520,
      "kwazulu": 5521,
      "lằn": 5522,
      "leslie": 5523,
      "lithuania": 5524,
      "lionsg": 5525,
      "livingstone": 5526,
      "mbit": 5527,
      "mdt": 5528,
      "mía": 5529,
      "maui": 5530,
      "merenid": 5531,
      "mister": 5532,
      "melamine": 5533,
      "mossack": 5534,
      "mersey": 5535,
      "mashhad": 5536,
      "minoa": 5537,
      "maldives": 5538,
      "nsw": 5539,
      "nmr": 5540,
      "nếp": 5541,
      "nấng": 5542,
      "nếm": 5543,
      "ninth": 5544,
      "nassar": 5545,
      "napole": 5546,
      "naked": 5547,
      "national": 5548,
      "nicklas": 5549,
      "oahu": 5550,
      "otter": 5551,
      "odyss": 5552,
      "oakland": 5553,
      "oravec": 5554,
      "ohio": 5555,
      "ounce": 5556,
      "office": 5557,
      "olaf": 5558,
      "oliver": 5559,
      "obanaza": 5560,
      "opec": 5561,
      "ogarzyns": 5562,
      "ptwc": 5563,
      "pythag": 5564,
      "purcell": 5565,
      "prevention": 5566,
      "pstn": 5567,
      "pedrillo": 5568,
      "pfannk": 5569,
      "qvc": 5570,
      "rwanda": 5571,
      "rệp": 5572,
      "ranch": 5573,
      "rustenburg": 5574,
      "rspca": 5575,
      "research": 5576,
      "smith": 5577,
      "scandina": 5578,
      "syria": 5579,
      "seork": 5580,
      "sesame": 5581,
      "satoru": 5582,
      "sasebo": 5583,
      "sveriges": 5584,
      "smyrna": 5585,
      "sintra": 5586,
      "science": 5587,
      "sydney": 5588,
      "tmz": 5589,
      "tdễ": 5590,
      "tcn": 5591,
      "tươi": 5592,
      "tallinn": 5593,
      "tendul": 5594,
      "tele": 5595,
      "university": 5596,
      "ucla": 5597,
      "ukraine": 5598,
      "ürüm": 5599,
      "uthappa": 5600,
      "urani": 5601,
      "uppsala": 5602,
      "usaf": 5603,
      "unión": 5604,
      "uighur": 5605,
      "vpn": 5606,
      "verde": 5607,
      "visa": 5608,
      "vasco": 5609,
      "vernaz": 5610,
      "veguilla": 5611,
      "weise": 5612,
      "wladysla": 5613,
      "waitemata": 5614,
      "wellington": 5615,
      "whirling": 5616,
      "wagon": 5617,
      "wikinews": 5618,
      "wonders": 5619,
      "xtô": 5620,
      "xiếc": 5621,
      "xtéc": 5622,
      "yahoo": 5623,
      "yểm": 5624,
      "yasovarman": 5625,
      "zachary": 5626,
      "zoom": 5627,
      "zhangjia": 5628,
      "zoungla": 5629,
      "ziggurat": 5630,
      "_borhood": 5631,
      "_blica": 5632,
      "_surfing": 5633,
      "_wana": 5634,
      "_giore": 5635,
      "_ioglou": 5636,
      "_tonga": 5637,
      "_ngordel": 5638,
      "thuỷ": 5639,
      "therese": 5640,
      "thrace": 5641,
      "thrashers": 5642,
      "trinity": 5643,
      "tratado": 5644,
      "triantafy": 5645,
      "cherry": 5646,
      "chase": 5647,
      "nhíp": 5648,
      "khamenei": 5649,
      "ngorongor": 5650,
      "phễu": 5651,
      "phantom": 5652,
      "phondey": 5653,
      "cuerden": 5654,
      "cushing": 5655,
      "gillard": 5656,
      "house": 5657,
      "horrocks": 5658,
      "hokuriku": 5659,
      "_anthropus": 5660,
      "dustin": 5661,
      "duxbury": 5662,
      "choudhary": 5663,
      "rarotonga": 5664,
      "chicken": 5665,
      "chişinău": 5666,
      "loesch": 5667,
      "muchanga": 5668,
      "mussolini": 5669,
      "muxloe": 5670,
      "müslüm": 5671,
      "downing": 5672,
      "domingo": 5673,
      "lufthansa": 5674,
      "toronto": 5675,
      "coaster": 5676,
      "cologne": 5677,
      "council": 5678,
      "coverciano": 5679,
      "couchsurfing": 5680,
      "cowparade": 5681,
      "copernicus": 5682,
      "constitution": 5683,
      "connaught": 5684,
      "lyndon": 5685,
      "soleil": 5686,
      "sophocles": 5687,
      "society": 5688,
      "somali": 5689,
      "namgyel": 5690,
      "vilnius": 5691,
      "backstrom": 5692,
      "babylon": 5693,
      "batten": 5694,
      "bafokeng": 5695,
      "rooms": 5696,
      "rotorua": 5697,
      "rodrigo": 5698,
      "giancarlo": 5699,
      "dilokrit": 5700,
      "diego": 5701,
      "bulgaria": 5702,
      "tayyip": 5703,
      "intrigue": 5704,
      "_akopoulos": 5705,
      "neighborhood": 5706,
      "nextgen": 5707,
      "antoinette": 5708,
      "anatolia": 5709,
      "_ridae": 5710,
      "lafasto": 5711,
      "xavier": 5712,
      "rumelia": 5713,
      "trafalgar": 5714,
      "alessandro": 5715,
      "joseon": 5716,
      "joaquim": 5717,
      "jochemsen": 5718,
      "cafenet": 5719,
      "taizicheng": 5720,
      "artibonite": 5721,
      "artemis": 5722,
      "aristophanes": 5723,
      "kechagioglou": 5724,
      "riomaggiore": 5725,
      "recep": 5726,
      "revolution": 5727,
      "república": 5728,
      "botswana": 5729,
      "booking": 5730,
      "boulevard": 5731,
      "sanskrit": 5732,
      "sanparks": 5733,
      "santiago": 5734,
      "savanna": 5735,
      "sahei": 5736,
      "sahelanthropus": 5737,
      "sharipov": 5738,
      "shannessy": 5739,
      "shimonoseki": 5740,
      "johannesburg": 5741,
      "marshal": 5742,
      "suplicy": 5743,
      "provisional": 5744,
      "deutsche": 5745,
      "astronet": 5746,
      "ghẹo": 5747,
      "ghraib": 5748,
      "methanol": 5749,
      "metrorail": 5750,
      "carpanedo": 5751,
      "campuchia": 5752,
      "sepulveda": 5753,
      "niigata": 5754,
      "nikolakopoulos": 5755,
      "nicholas": 5756,
      "bartolomé": 5757,
      "mohenjo": 5758,
      "mozambique": 5759,
      "tribune": 5760,
      "capuchino": 5761,
      "capuzzo": 5762,
      "flagstaff": 5763,
      "management": 5764,
      "mantouvalos": 5765,
      "pohutukawa": 5766,
      "podcast": 5767,
      "augustus": 5768,
      "gaziantep": 5769,
      "airways": 5770,
      "berhane": 5771,
      "kennedy": 5772,
      "palawan": 5773,
      "education": 5774,
      "galilei": 5775,
      "espresso": 5776,
      "liguria": 5777,
      "michele": 5778,
      "scopolamine": 5779,
      "giovanni": 5780,
      "monterosso": 5781,
      "brewery": 5782,
      "crocodile": 5783,
      "kristoffer": 5784,
      "lastucci": 5785,
      "mêlamin": 5786,
      "pattavee": 5787,
      "raymond": 5788,
      "chhatrapati": 5789,
      "dunkirk": 5790,
      "elizabethae": 5791,
      "corporation": 5792,
      "corniglia": 5793,
      "craigslist": 5794,
      "grachtengordel": 5795,
      "punjabi": 5796,
      "massachusetts": 5797,
      "brzezinski": 5798,
      "brisbane": 5799,
      "ephesians": 5800,
      "formosa": 5801,
      "kalaalleq": 5802,
      "mcmurdo": 5803,
      "oldsmobile": 5804,
      "velasquez": 5805,
      "transantarctic": 5806,
      "transnistria": 5807,
      "christopher": 5808,
      "christchurch": 5809,
      "palmeiras": 5810,
      "borsellino": 5811,
      "dervishes": 5812,
      "dromaeosauridae": 5813,
      "evangelos": 5814,
      "fisichella": 5815,
      "gyöngyi": 5816,
      "jiménez": 5817,
      "keselowski": 5818,
      "kriegsmarine": 5819,
      "lionsgate": 5820,
      "napoleon": 5821,
      "odyssey": 5822,
      "obanazawa": 5823,
      "ogarzynska": 5824,
      "pythagoras": 5825,
      "pfannkuchen": 5826,
      "scandinavian": 5827,
      "tendulkar": 5828,
      "ürümqi": 5829,
      "vernazza": 5830,
      "wladyslaw": 5831,
      "zhangjiakou": 5832,
      "triantafylopoulos": 5833,
      "ngorongoro": 5834,
      "aps": 5835,
      "bát": 5836,
      "bích": 5837,
      "born": 5838,
      "bord": 5839,
      "cấy": 5840,
      "cad": 5841,
      "cẩm": 5842,
      "dỡ": 5843,
      "ew": 5844,
      "ey": 5845,
      "eth": 5846,
      "eti": 5847,
      "east": 5848,
      "ether": 5849,
      "ehr": 5850,
      "fer": 5851,
      "fat": 5852,
      "fron": 5853,
      "gay": 5854,
      "gro": 5855,
      "gard": 5856,
      "heo": 5857,
      "hái": 5858,
      "hảo": 5859,
      "hán": 5860,
      "hit": 5861,
      "hiếp": 5862,
      "hald": 5863,
      "io": 5864,
      "ju": 5865,
      "king": 5866,
      "klo": 5867,
      "lap": 5868,
      "lạch": 5869,
      "lad": 5870,
      "ms": 5871,
      "my": 5872,
      "mĩ": 5873,
      "ná": 5874,
      "nôn": 5875,
      "nặn": 5876,
      "os": 5877,
      "pay": 5878,
      "pam": 5879,
      "pli": 5880,
      "qat": 5881,
      "rr": 5882,
      "rh": 5883,
      "rặng": 5884,
      "slan": 5885,
      "tt": 5886,
      "tĩ": 5887,
      "ull": 5888,
      "vv": 5889,
      "vần": 5890,
      "vau": 5891,
      "vol": 5892,
      "vắt": 5893,
      "vish": 5894,
      "wall": 5895,
      "yar": 5896,
      "yos": 5897,
      "điêu": 5898,
      "đẫm": 5899,
      "_nu": 5900,
      "_nold": 5901,
      "_jor": 5902,
      "_bro": 5903,
      "_sv": 5904,
      "_sun": 5905,
      "_fiti": 5906,
      "_wald": 5907,
      "_wood": 5908,
      "_rd": 5909,
      "_rus": 5910,
      "_ot": 5911,
      "_oya": 5912,
      "_oks": 5913,
      "_gv": 5914,
      "_gel": 5915,
      "_gic": 5916,
      "_gus": 5917,
      "_ekhar": 5918,
      "_mad": 5919,
      "_mou": 5920,
      "_ire": 5921,
      "_̀nh": 5922,
      "_tz": 5923,
      "_̣m": 5924,
      "_hl": 5925,
      "_hya": 5926,
      "_dam": 5927,
      "_lred": 5928,
      "_cy": 5929,
      "_cau": 5930,
      "_cur": 5931,
      "_cines": 5932,
      "_ki": 5933,
      "_ympic": 5934,
      "_ygv": 5935,
      "_pin": 5936,
      "_zek": 5937,
      "_̈ck": 5938,
      "_ênh": 5939,
      "thiển": 5940,
      "thợ": 5941,
      "tráng": 5942,
      "trán": 5943,
      "trygv": 5944,
      "chắt": 5945,
      "cháu": 5946,
      "khốc": 5947,
      "ngẫm": 5948,
      "vàn": 5949,
      "phà": 5950,
      "phô": 5951,
      "phồn": 5952,
      "phốt": 5953,
      "cuộn": 5954,
      "_ệch": 5955,
      "giảng": 5956,
      "nhựa": 5957,
      "hò": 5958,
      "hoà": 5959,
      "hoan": 5960,
      "holo": 5961,
      "đười": 5962,
      "_aní": 5963,
      "_ík": 5964,
      "dund": 5965,
      "_aycur": 5966,
      "ớt": 5967,
      "chúc": 5968,
      "nắp": 5969,
      "_ones": 5970,
      "nghẽ": 5971,
      "nghênh": 5972,
      "ramp": 5973,
      "đói": 5974,
      "cừu": 5975,
      "_amó": 5976,
      "lock": 5977,
      "lord": 5978,
      "logic": 5979,
      "loire": 5980,
      "_erman": 5981,
      "_arsv": 5982,
      "_araní": 5983,
      "nhào": 5984,
      "muham": 5985,
      "_alog": 5986,
      "_alympic": 5987,
      "tùng": 5988,
      "tủy": 5989,
      "turk": 5990,
      "_ening": 5991,
      "_ento": 5992,
      "coch": 5993,
      "\"\"(": 5994,
      "lướt": 5995,
      "lượm": 5996,
      "cợt": 5997,
      "_ory": 5998,
      "ngoạc": 5999,
      "ngọn": 6000,
      "_elred": 6001,
      "soi": 6002,
      "solan": 6003,
      "virus": 6004,
      "_asson": 6005,
      "roca": 6006,
      "dill": 6007,
      "lứa": 6008,
      "butte": 6009,
      "ươi": 6010,
      "súc": 6011,
      "thoi": 6012,
      "mangola": 6013,
      "_legel": 6014,
      "_urb": 6015,
      "_ima": 6016,
      "nguệch": 6017,
      "_low": 6018,
      "_adesh": 6019,
      "_aka": 6020,
      "_akot": 6021,
      "đớn": 6022,
      "anne": 6023,
      "analog": 6024,
      "emir": 6025,
      "_rahl": 6026,
      "rung": 6027,
      "ruồng": 6028,
      "tracy": 6029,
      "cụm": 6030,
      "ngừ": 6031,
      "ngưng": 6032,
      "sợi": 6033,
      "_tha": 6034,
      "_thru": 6035,
      "algeria": 6036,
      "_ilton": 6037,
      "ướp": 6038,
      "võ": 6039,
      "cabo": 6040,
      "_oshi": 6041,
      "arya": 6042,
      "arnold": 6043,
      "_unci": 6044,
      "sans": 6045,
      "major": 6046,
      "shekhar": 6047,
      "nhú": 6048,
      "mede": 6049,
      "lãi": 6050,
      "huynh": 6051,
      "huỳnh": 6052,
      "paralympic": 6053,
      "_emite": 6054,
      "_top": 6055,
      "johndro": 6056,
      "great": 6057,
      "_sturo": 6058,
      "greene": 6059,
      "assun": 6060,
      "asunci": 6061,
      "_livan": 6062,
      "caro": 6063,
      "carro": 6064,
      "carbon": 6065,
      "caroly": 6066,
      "_berg": 6067,
      "guaycur": 6068,
      "guaraní": 6069,
      "guthru": 6070,
      "moham": 6071,
      "cairo": 6072,
      "schwar": 6073,
      "schlegel": 6074,
      "danela": 6075,
      "danub": 6076,
      "frank": 6077,
      "audi": 6078,
      "gaza": 6079,
      "amb": 6080,
      "amster": 6081,
      "goeth": 6082,
      "giễu": 6083,
      "noor": 6084,
      "simon": 6085,
      "_egger": 6086,
      "adek": 6087,
      "adden": 6088,
      "cheers": 6089,
      "montan": 6090,
      "maslow": 6091,
      "indones": 6092,
      "franciszek": 6093,
      "hamilton": 6094,
      "granit": 6095,
      "karno": 6096,
      "lởm": 6097,
      "_space": 6098,
      "thơm": 6099,
      "chởm": 6100,
      "corona": 6101,
      "grafiti": 6102,
      "brooks": 6103,
      "glory": 6104,
      "hertz": 6105,
      "lee": 6106,
      "madhya": 6107,
      "pradesh": 6108,
      "paget": 6109,
      "wilson": 6110,
      "chaco": 6111,
      "vẹn": 6112,
      "veerman": 6113,
      "_aguá": 6114,
      "simpsons": 6115,
      "byron": 6116,
      "bhutha": 6117,
      "erie": 6118,
      "fichte": 6119,
      "kowal": 6120,
      "morakot": 6121,
      "zagros": 6122,
      "_zenegger": 6123,
      "chandra": 6124,
      "_enstrahl": 6125,
      "sullivan": 6126,
      "scotturb": 6127,
      "viking": 6128,
      "vikings": 6129,
      "_tiere": 6130,
      "borneo": 6131,
      "bordento": 6132,
      "cadwald": 6133,
      "ewing": 6134,
      "eysturo": 6135,
      "ethelred": 6136,
      "etihad": 6137,
      "etherlred": 6138,
      "ehrenstrahl": 6139,
      "fergus": 6140,
      "fatima": 6141,
      "frontiere": 6142,
      "groening": 6143,
      "gardens": 6144,
      "hitoshi": 6145,
      "haldarsv": 6146,
      "judo": 6147,
      "klöck": 6148,
      "laptop": 6149,
      "ladoga": 6150,
      "myspace": 6151,
      "osaka": 6152,
      "payaguá": 6153,
      "pamela": 6154,
      "qatar": 6155,
      "rhine": 6156,
      "slania": 6157,
      "tĩu": 6158,
      "ullman": 6159,
      "vautier": 6160,
      "volga": 6161,
      "vishnu": 6162,
      "yarmou": 6163,
      "yosemite": 6164,
      "_brooke": 6165,
      "_caust": 6166,
      "_pink": 6167,
      "trygvasson": 6168,
      "holocaust": 6169,
      "dundee": 6170,
      "nghẽn": 6171,
      "rampro": 6172,
      "lockwood": 6173,
      "muhammad": 6174,
      "turkish": 6175,
      "cochamó": 6176,
      "solanki": 6177,
      "dillon": 6178,
      "emirates": 6179,
      "majorca": 6180,
      "medecines": 6181,
      "paralympics": 6182,
      "johndroe": 6183,
      "assunpink": 6184,
      "asunción": 6185,
      "carolyn": 6186,
      "guaycurú": 6187,
      "guthrum": 6188,
      "mohamed": 6189,
      "schwarzenegger": 6190,
      "danelaw": 6191,
      "danube": 6192,
      "amsterdam": 6193,
      "goethe": 6194,
      "adekoya": 6195,
      "addenbrooke": 6196,
      "montana": 6197,
      "indonesia": 6198,
      "hertzberg": 6199,
      "bordentown": 6200,
      "cadwalder": 6201,
      "eysturoy": 6202,
      "ferguson": 6203,
      "haldarsvík": 6204,
      "klöcker": 6205,
      "yarmouth": 6206
    },
    "merges": [
      "_n _g",
      "_u _̛",
      "_e _̂",
      "_o _̛",
      "_a _̀",
      "_̣ _̂",
      "_o _̂",
      "t _h",
      "_a _̂",
      "_a _́",
      "_ư _ơ",
      "t _r",
      "_i _ê",
      "c _h",
      "_a _̣",
      "n _h",
      "_n _h",
      "k _h",
      "_o _̣̂",
      "_o _́",
      "_́ _t",
      "n _g",
      "_̣ _c",
      "v _à",
      "_a _̆",
      "_́ _c",
      "p _h",
      "c _u",
      "_á _c",
      "_a _̉",
      "_e _̣̂",
      "_̀ _ng",
      "g _i",
      "_́ _n",
      "_́ _i",
      "q _u",
      "_i _ệ",
      "_ô _ng",
      "_̉ _a",
      "l _à",
      "_̀ _n",
      "nh _ư",
      "_̀ _i",
      "c _ó",
      "_ê _̉",
      "_a _̣̂",
      "cu _̉a",
      "h _o",
      "_̀ _u",
      "_́ _ng",
      "c _ác",
      "đ _ươ",
      "_̃ _ng",
      "_ộ _t",
      "m _ột",
      "_a _̃",
      "_a _n",
      "_i _̣",
      "_i _̀",
      "_â _́t",
      "_o _ng",
      "_u _y",
      "đươ _̣c",
      "_ê _n",
      "_ạ _i",
      "_ơ _́i",
      "tr _ong",
      "_ạ _̆",
      "như _̃ng",
      "_ươ _̀i",
      "_i _́",
      "_à _y",
      "t _ư",
      "đ _ã",
      "đ _ê",
      "ng _ười",
      "_́ _p",
      "_iê _̉",
      "d _u",
      "s _ư",
      "_iê _n",
      "đ _ộ",
      "_a _y",
      "_ê _́",
      "o _̛",
      "ch _o",
      "ơ _̉",
      "th _ể",
      "_â _n",
      "kh _ông",
      "_ì _nh",
      "_ô _́",
      "_â _̀u",
      "_â _̀n",
      "_ô _̉",
      "_̣ _ng",
      "th _ư",
      "_iệ _n",
      "_ạ _n",
      "_à _nh",
      "v _ới",
      "n _ày",
      "_iê _̀u",
      "ch _u",
      "n _ă",
      "th _u",
      "t _iê",
      "_a _ng",
      "kh _i",
      "_ươ _́c",
      "và _o",
      "h _ơ",
      "_ả _i",
      "b _ă",
      "_ặ _c",
      "kh _ác",
      "đ _ể",
      "_o _n",
      "_a _i",
      "ng _h",
      "_ê _́t",
      "_ươ _̀ng",
      "_ậ _n",
      "_à _i",
      "ph _á",
      "_â _y",
      "đê _́n",
      "_a _o",
      "_ư _̃",
      "_ươ _ng",
      "tư _̀",
      "_ô _́ng",
      "_ô _́c",
      "_i _nh",
      "_a _u",
      "_ê _̀",
      "_ậ _t",
      "b _ị",
      "_í _nh",
      "_ơ _̉",
      "v _u",
      "r _a",
      "đ _ô",
      "sư _̣",
      "_e _̃",
      "ch _i",
      "đ _ị",
      "_ơ _̀i",
      "đ _ó",
      "_â _́",
      "b _ạn",
      "c _ư",
      "_e _o",
      "v _ề",
      "nă _m",
      "_a _m",
      "l _o",
      "độ _ng",
      "c _ả",
      "_i _n",
      "_à _ng",
      "s _ẽ",
      "_̃ _n",
      "_iê _́n",
      "_iệ _c",
      "s _ố",
      "tr _ên",
      "_ả _n",
      "v _iệc",
      "_ộ _c",
      "_ậ _p",
      "k _y",
      "_á _o",
      "_o _̉",
      "_à _n",
      "nh _iều",
      "hơ _n",
      "_̀ _m",
      "n _ó",
      "_e _r",
      "c _ông",
      "đ _ầu",
      "_a _r",
      "_̉ _ng",
      "đ _i",
      "_iê _́t",
      "t _uy",
      "nh _ất",
      "th _ành",
      "_iể _m",
      "t _ại",
      "gi _a",
      "th _eo",
      "_á _ng",
      "_a _nh",
      "ho _ặc",
      "kh _u",
      "_ê _̀n",
      "n _ước",
      "_ơ _i",
      "nh _à",
      "_ư _́c",
      "_̣c _h",
      "_̣ _i",
      "_ư _̣c",
      "h _iện",
      "m _u",
      "qu _ốc",
      "t _ô",
      "x _e",
      "th _ường",
      "cu _̃ng",
      "a _̂",
      "s _au",
      "_i _̣ch",
      "_á _i",
      "qu _an",
      "d _o",
      "l _u",
      "_ă _n",
      "tr _u",
      "chi _̉",
      "o _̂",
      "_a _l",
      "th _ế",
      "t _u",
      "ho _̣",
      "ph _ải",
      "_̀ _a",
      "ph _u",
      "_e _n",
      "ch _ính",
      "kh _o",
      "chu _́ng",
      "du _̣ng",
      "_â _́p",
      "l _ại",
      "các _h",
      "ch _uy",
      "_i _̃",
      "ho _̣c",
      "_ặ _t",
      "_̣ _p",
      "t _o",
      "_â _u",
      "r _ă",
      "_iể _u",
      "x _u",
      "th _ông",
      "_́c _h",
      "_ổ _i",
      "tr _ước",
      "qu _y",
      "l _ơ",
      "c _o",
      "_o _̣i",
      "_ô _́i",
      "qu _a",
      "phá _t",
      "th _ời",
      "_ạ _t",
      "_ả _ng",
      "ră _̀ng",
      "c _on",
      "_ô _n",
      "đị _a",
      "n _ên",
      "_́ _m",
      "_ả _o",
      "_iể _n",
      "h _ai",
      "_ạ _ng",
      "như _ng",
      "sư _̉",
      "v _â",
      "_ạ _o",
      "_à _o",
      "_ô _̃",
      "thư _̣c",
      "ng _ày",
      "\" _\"",
      "_c _h",
      "r _ất",
      "_iệ _t",
      "đ _iều",
      "_á _nh",
      "h _àng",
      "l _ươ",
      "_â _̉",
      "_á _t",
      "là _m",
      "v _ì",
      "_ộ _i",
      "m _à",
      "đ _iểm",
      "c _ơ",
      "v _ật",
      "đươ _̀ng",
      "ph _í",
      "h _ình",
      "đ _ại",
      "đị _nh",
      "v _iên",
      "_ơ _̀",
      "b _ản",
      "bă _̀ng",
      "cu _ộc",
      "_ế _u",
      "_̉ _nh",
      "_i _a",
      "_ó _a",
      "_o _r",
      "thư _́",
      "h _ành",
      "n _ơi",
      "d _ư",
      "_e _̉",
      "_̣ _t",
      "ng _o",
      "_ấ _y",
      "_ươ _̉ng",
      "vu _̣",
      "tr _ình",
      "hơ _̣p",
      "b _ộ",
      "phá _p",
      "tr _ường",
      "tiê _́ng",
      "nh _ận",
      "tru _ng",
      "_ó _ng",
      "h _ay",
      "gi _ới",
      "_ấ _u",
      "_iệ _u",
      "lơ _́n",
      "k _ết",
      "t _a",
      "đ _ang",
      "h _óa",
      "ky _̀",
      "l _ịch",
      "bă _́t",
      "_i _́ch",
      "d _ân",
      "đ _o",
      "_ữ _a",
      "nó _i",
      "b _iết",
      "l _iên",
      "_ư _a",
      "tr _o",
      "nh _ân",
      "ô _ng",
      "_á _y",
      "thư _́c",
      "n _ào",
      "tiê _́p",
      "_́ _u",
      "tr _ở",
      "tư _̣",
      "t _ổ",
      "_i _s",
      "h _ô",
      "v _ăn",
      "_e _l",
      "ng _uy",
      "_ở _i",
      "l _y",
      "m _ặt",
      "ch _iến",
      "t _ạo",
      "_ă _́c",
      "du _̀",
      "khác _h",
      "a _̉nh",
      "v _ực",
      "th _áng",
      "_uy _ền",
      "đ _u",
      "_ô _i",
      "b _áo",
      "gi _ải",
      "phí _a",
      "a _nh",
      "c _ấp",
      "_ô _́n",
      "kho _ảng",
      "đ _ây",
      "ph _ần",
      "_e _s",
      "_ộ _ng",
      "s _o",
      "_â _m",
      "ly _́",
      "c _ần",
      "n _am",
      "n _ếu",
      "v _i",
      "y _́",
      "ch _iê",
      "nh _iên",
      "b _a",
      "_ê _́n",
      "_ể _n",
      "nă _ng",
      "co _̀n",
      "_e _t",
      "vu _̀ng",
      "g _ọi",
      "m _ới",
      "_a _t",
      "nh _au",
      "đô _̀ng",
      "đô _́i",
      "lươ _̣ng",
      "_a _s",
      "cu _̀ng",
      "b _ay",
      "đ _ất",
      "_à _u",
      "r _o",
      "t _in",
      "_̣ _a",
      "gi _an",
      "_an _d",
      "th _ă",
      "_ạ _m",
      "_ệ _nh",
      "đê _̀",
      "c _ầu",
      "l _ên",
      "s _inh",
      "t _ế",
      "d _i",
      "l _ư",
      "_ư _́ng",
      "ch _ức",
      "xu _ất",
      "m _ặc",
      "_á _n",
      "_iệ _m",
      "_ươ _̣t",
      "b _u",
      "u _̛",
      "đ _ông",
      "ph _i",
      "_ì _m",
      "h _ệ",
      "_ác _h",
      ". _\"",
      "ph _ương",
      "đê _̀u",
      "b _an",
      "b _ởi",
      "g _ần",
      "m _áy",
      "t _ình",
      "_ê _̃",
      "_iê _̃n",
      "qu _ân",
      "thu _̉",
      "ngh _ĩ",
      "vâ _̃n",
      "h _ội",
      "t _iên",
      "ph _ố",
      "lo _ài",
      "t _ìm",
      "h _ầu",
      "n _ay",
      "th _ống",
      "to _àn",
      "s _át",
      "t _àu",
      "gi _áo",
      "ngo _ài",
      "l _ập",
      "chuy _ển",
      "t _ới",
      "_â _̀m",
      "g _ô",
      "h _ết",
      "t _ính",
      "lo _ại",
      "v _ị",
      "th _ị",
      "b _ao",
      "b _iệt",
      "s _u",
      "th _ấy",
      "nh _ỏ",
      "cả _nh",
      "h _u",
      "_i _c",
      "_ă _ng",
      "ho _ạt",
      "_ẩ _n",
      "b _ệnh",
      "đ _ặc",
      "_e _́",
      "th _o",
      "_ạ _c",
      "tro _̣ng",
      "gô _̀m",
      "c _ao",
      "t _ây",
      "tr _uyền",
      "ch _ất",
      "gi _á",
      "_ỗ _i",
      "b _iến",
      "m _ình",
      "v _ận",
      "_r _o",
      "_iệ _p",
      "mu _̀a",
      "độ _i",
      "m _inh",
      "_ươ _́ng",
      "_ả _m",
      "_ả _y",
      "l _ực",
      "ch _âu",
      "_ạ _nh",
      "_ã _y",
      "l _ần",
      "gi _u",
      "gi _ữa",
      "bă _́c",
      "b _iển",
      "t _ất",
      "th _iết",
      "a _̆",
      "m _ọi",
      "n _u",
      "s _ống",
      "t _ập",
      "th _ương",
      "giu _́p",
      "ă _n",
      "m _ang",
      "s _áng",
      "t _ác",
      "_i _t",
      "ky _̉",
      "_u _s",
      "_l _e",
      "gi _ống",
      "thu _ộc",
      "th _am",
      "quy _ền",
      "t _y",
      "tr _ượt",
      "kh _ỏ",
      "d _ươ",
      "_e _̀",
      "_â _̃n",
      "_ó _m",
      "nghĩ _a",
      "đ _iện",
      "_o _̀ng",
      "ng _ữ",
      "d _iễn",
      "i _́t",
      "đ _ảo",
      "ho _a",
      "chu _̉",
      "tuy _ết",
      "chiê _́c",
      "d _ịch",
      "h _ãy",
      "_i _ng",
      ") _.",
      "d _ài",
      "_o _l",
      "th _ì",
      "_ă _́t",
      "gi _ờ",
      "k _iện",
      "_u _r",
      "_e _́p",
      "ch _ương",
      "cư _̉",
      "vâ _́n",
      "gi _ao",
      "nguy _ên",
      "b _ất",
      "b _ên",
      "b _ảo",
      "đ _ổi",
      "_i _m",
      "_â _́n",
      "ng _u",
      "tô _́t",
      "c _ố",
      "t _ay",
      "_ơ _̣",
      "b _ình",
      "c _áo",
      "i _n",
      "_̣ _n",
      "_ê _u",
      "tr _í",
      "_iê _ng",
      "nh _óm",
      "cu _ng",
      "x _ác",
      "đ _ưa",
      "_á _m",
      "ng _ôn",
      "_ậ _y",
      "cư _́u",
      "g _ây",
      "_ư _̀ng",
      "b _ầu",
      "qu _á",
      "h _ưởng",
      "_̀ _y",
      "kho _a",
      "k _inh",
      "t _ương",
      "tiê _u",
      "c _ộng",
      "_a _p",
      "_ạ _ch",
      "h _iểu",
      "y _êu",
      "đ _ặt",
      "đ _ánh",
      "_l _o",
      "_̉ _i",
      "th _ay",
      "kh _ả",
      "khỏ _i",
      "b _iểu",
      "_́ _y",
      "tr _anh",
      "ch _ứng",
      "bă _ng",
      "â _́n",
      "dươ _́i",
      "_a _d",
      "_a _k",
      "tr _iển",
      "_iê _̀n",
      "qu _ả",
      "tư _̉",
      "chuy _ến",
      "a _i",
      "b _ã",
      "b _ỏ",
      "k _ế",
      "đ _ơ",
      "lu _ật",
      "k _iến",
      "n _e",
      "ph _ép",
      "ngh _i",
      "a _n",
      "e _m",
      "k _ể",
      "k _iểm",
      "đ _ức",
      "_r _e",
      "tr _ẻ",
      "_ạ _y",
      "kh _ó",
      "kh _í",
      "du _̀ng",
      "â _́y",
      "c _ổ",
      "t _ên",
      "_r _i",
      "_ô _̀i",
      "_ươ _̣ng",
      "nu _́i",
      "d _ễ",
      "_ô _̀n",
      "chu _ẩn",
      "_ă _́m",
      "_ặ _m",
      "tô _i",
      "â _u",
      "d _uy",
      "m _ười",
      "m _ỗi",
      "n _ữ",
      "s _ao",
      "v _ậy",
      "_y _̃",
      "_ư _́",
      "b _óng",
      "t _ích",
      "_r _a",
      "_t _er",
      "_h _i",
      "th _ích",
      "tr _ái",
      "ngh _iệm",
      "dư _̣",
      "c _ăn",
      "h _ướng",
      "m _ức",
      "m _ỹ",
      "t _âm",
      "đ _ấu",
      "th _ần",
      "_ă _́ng",
      "_ệ _n",
      "độ _c",
      "xe _m",
      "phu _̉",
      "d _ành",
      "h _ạn",
      "k _ính",
      "t _inh",
      "th _ân",
      "tr _ang",
      "gi _̀",
      "s _ĩ",
      "qu _anh",
      "_ấ _m",
      "b _ố",
      "d _ẫn",
      "d _ặm",
      "r _ộng",
      "s _t",
      "gi _ữ",
      "phu _̣",
      "đu _a",
      "lư _u",
      "a _́",
      "t _ốc",
      "v _iện",
      "đ _ài",
      "_n _e",
      "tr _iệu",
      "cu _ối",
      "gi _ảm",
      "ho _̀a",
      "tiê _́t",
      "tiê _̀n",
      "xu _ống",
      "b _ang",
      "l _a",
      "m _ạng",
      "s _ách",
      "x _a",
      "_ạ _p",
      "ng _ôi",
      "ph _ong",
      "ho _ang",
      "ngh _iên",
      "h _iểm",
      "r _u",
      "đ _e",
      "_o _m",
      "tr _a",
      "tr _ận",
      "ch _ơi",
      "ng _ay",
      "_ă _́p",
      "ph _ổ",
      "cu _̣",
      "tư _̀ng",
      "tuy _ên",
      "tô _́i",
      "_ẩ _m",
      "l _âu",
      "r _iêng",
      "s _ở",
      "s _ản",
      "v _ô",
      "_â _̀y",
      "ng _ư",
      "c _ái",
      "n _ền",
      "s _ơ",
      "v _iết",
      "_i _̀n",
      "_t _h",
      "_iê _́m",
      "nh _ật",
      "nh _iệt",
      "ph _òng",
      "d _anh",
      "h _iệu",
      "t _ài",
      "v _ệ",
      "đ _áng",
      "tr _ị",
      "tr _ạng",
      "nh _iê",
      "ph _ân",
      "ho _àn",
      "_ặ _p",
      "tu _ổi",
      "ư _́ng",
      "a _l",
      "c _ây",
      "t _iểu",
      "x _ây",
      "y _ếu",
      "tr _ời",
      "_iê _́u",
      "ch _ạy",
      "nh _anh",
      "nh _ìn",
      "cho _̣n",
      "nă _̀m",
      "thu _ật",
      "cư _̉a",
      "h _ạng",
      "_i _l",
      "_t _a",
      "_c _k",
      "ch _ế",
      "_ă _́n",
      "tiê _́n",
      "quy _ết",
      "_é _o",
      "tho _ại",
      "d _iện",
      "k _m",
      "nh _ập",
      "qu _ần",
      "cư _́",
      "mu _̣c",
      "ô _́ng",
      "phu _̣c",
      "hô _m",
      "ư _ơ",
      "_è _o",
      "m _ở",
      "n _ội",
      "s _ông",
      "t _i",
      "đ _a",
      "_̉ _y",
      "và _i",
      "sư _́c",
      "ngh _iệp",
      "đô _̀",
      "mu _ốn",
      "dư _̣ng",
      "tổ _ng",
      "thă _́ng",
      "c _âu",
      "n _ổi",
      "t _ố",
      "v _o",
      "đ _á",
      "tr _ợ",
      "lu _́c",
      "_is _t",
      "d _ã",
      "g _ắng",
      "l _ời",
      "l _iệu",
      "m _ôn",
      "_e _b",
      "th _ái",
      "tr _ưởng",
      "đê _m",
      "đô _i",
      "cư _̣c",
      "â _m",
      "ngu _ồn",
      "l _ái",
      "m _ã",
      "m _ạnh",
      "n _ạn",
      "s _ân",
      "_a _g",
      "_ô _́t",
      "th _anh",
      "chu _ng",
      "khu _̉ng",
      "ngư _̣a",
      "h _ạt",
      "j _o",
      "_t _on",
      "_̃ _m",
      "_̃ _i",
      "tr _ải",
      "ch _ân",
      "ch _ưa",
      "_uy _ên",
      "đê _̀n",
      "tu _ần",
      "đơ _n",
      "c _a",
      "h _y",
      "l _ễ",
      "t _ai",
      "x _ảy",
      "_l _and",
      "vu _a",
      "do _̀ng",
      "lu _ận",
      "tro _̀",
      "d _ương",
      "g _ặp",
      "h _iệp",
      "k _éo",
      "đ _ạt",
      "đ _ạo",
      "_r _an",
      "_l _y",
      "_ê _m",
      "th _êm",
      "_á _u",
      "ch _ỗ",
      "qu _ay",
      "ky _̃",
      "ro _̃",
      "ne _w",
      "a _́n",
      "h _a",
      "t _ăng",
      "” _.",
      "_o _s",
      "_i _d",
      "ch _ị",
      "_uy _ết",
      "_ặ _ng",
      "thu _́c",
      "ky _́",
      "to _̀a",
      "a _r",
      "d _ạng",
      "k _e",
      "m _ất",
      "t _ưởng",
      "v _é",
      "đ _ứng",
      "_t _e",
      "kh _á",
      "_ậ _m",
      "tu _̣c",
      "lơ _̣i",
      "đo _ạn",
      "h _ộ",
      "m _ôi",
      "r _i",
      "_c _o",
      "th _ổ",
      "_ệ _t",
      "hơ _i",
      "thă _m",
      ".\" _\"",
      "b _ốn",
      "k _im",
      "l _ệ",
      "l _an",
      "r _e",
      "t _ượng",
      "x _in",
      "đ _ình",
      "_i _on",
      "th _i",
      "tr _ực",
      "nh _a",
      "kh _iến",
      "ph _ạm",
      "_ứ _a",
      "nhiê _̃m",
      ") _,",
      "b _àn",
      "c _àng",
      "d _ấu",
      "m _iền",
      "s _ó",
      "_iê _m",
      "ph _ản",
      "du _̣",
      "đi _́ch",
      "hô _̀",
      "phi _m",
      "bã _o",
      "b _o",
      "c _á",
      "h _ải",
      "l _ạc",
      "r _ừng",
      "s _ạn",
      "s _óng",
      "w _eb",
      "x _uyên",
      "_u _n",
      "_n _et",
      "_m _p",
      "gi _ả",
      "du _̣c",
      "cả _m",
      "_ar _d",
      "bu _ộc",
      "in _ter",
      "inter _net",
      "g _hi",
      "s _an",
      "s _ang",
      "t _ộc",
      "x _ư",
      "_f _f",
      "_t _r",
      "th _ấp",
      "th _uyết",
      "ch _ống",
      "ph _ẩm",
      "qu _ản",
      "ho _àng",
      "nó _ng",
      "tuy _ến",
      "đo _àn",
      "đu _̉",
      "chị _u",
      "b _ánh",
      "c _ươ",
      "c _ắm",
      "d _àng",
      "g _ư",
      "l _ông",
      "m _a",
      "r _ơi",
      "s _a",
      "s _h",
      "x _ê",
      "_l _a",
      "tr _ại",
      "tr _ăng",
      "du _ng",
      "chu _́",
      "vu _̃",
      "đó _ng",
      "tô _n",
      "tô _̀n",
      "ươ _́c",
      "vo _̣ng",
      "b _iên",
      "s _ă",
      "v _òng",
      "đ _ảm",
      "_i _r",
      "nh _u",
      "_ó _n",
      "ng _ân",
      "_ă _̉ng",
      "chi _m",
      "cơ _n",
      "hô _̀i",
      "bu _ổi",
      "ha _̃ng",
      "să _̃n",
      "c _ô",
      "c _ận",
      "m _e",
      "n _ữa",
      "t _ắc",
      "_g _h",
      "ho _̉i",
      "thu _́",
      "mu _a",
      "phu _́t",
      "ngo _ại",
      "so _át",
      "bã _i",
      "gư _̉i",
      "xê _́p",
      "b _ài",
      "c _an",
      "g _ó",
      "k _iếm",
      "l _ã",
      "u _́c",
      "th _ật",
      "th _uyền",
      "_iê _u",
      "nh _ạc",
      "ph _óng",
      "_ậ _u",
      "_ặ _n",
      "thư _̉",
      "chu _̣p",
      "ngh _ệ",
      "hu _́t",
      "_ist _an",
      "xư _̉",
      "b _ảng",
      "c _ánh",
      "h _ạ",
      "h _uy",
      "l _ong",
      "l _eo",
      "m _ối",
      "n _ặng",
      "p _ar",
      "t _ạm",
      "u _ống",
      "x _o",
      "x _âm",
      "đ _ời",
      "_h _a",
      "_̉ _n",
      "th _iên",
      "th _ao",
      "th _ờ",
      "ch _í",
      "nh _iệm",
      "gi _ấy",
      "tư _́c",
      "xe _́t",
      "chuy _ên",
      "ty _̉",
      "jo _h",
      "a _́p",
      "b _ức",
      "h _ữ",
      "l _ộ",
      "m _ươ",
      "s _ắc",
      "t _ướng",
      "v _ượt",
      "_ô _̀ng",
      "ch _ữ",
      "gi _ác",
      "thu _̣",
      "ngh _iêm",
      "lư _̣a",
      "hữ _u",
      "a _̉",
      "b _ổ",
      "b _án",
      "h _e",
      "h _è",
      "k _iểu",
      "m _ar",
      "m _ưa",
      "m _èo",
      "n _ổ",
      "v _ốn",
      "_e _m",
      "_i _an",
      "_t _o",
      "_z _a",
      "ng _ươ",
      "ng _ành",
      "_ă _m",
      "ph _ê",
      "gi _ai",
      "thu _ế",
      "ngh _ị",
      "tuy _ệt",
      "do _̣c",
      "su _p",
      "joh _n",
      "b _ảy",
      "c _ạnh",
      "p _ro",
      "s _uy",
      "t _iện",
      "v _ai",
      "_̣ _u",
      "_c _a",
      "_á _p",
      "kh _ởi",
      "kh _ắp",
      "ph _iếu",
      "chuy _ện",
      "_mp _ic",
      "c _ập",
      "g _re",
      "h _à",
      "h _ang",
      "k _i",
      "n _ối",
      "o _ly",
      "t _ấn",
      "u _̉y",
      "v _í",
      "đ _ám",
      "đ _ầy",
      "_m _a",
      "th _ất",
      "_â _̃",
      "nh _ĩ",
      "gi _ành",
      "ho _ạch",
      "_er _s",
      "_al _and",
      "dư _̣a",
      "lã _nh",
      "oly _mpic",
      "b _i",
      "b _inh",
      "b _ữa",
      "k _ích",
      "m _ộ",
      "t _ầm",
      "x _ã",
      "_b _o",
      "_d _o",
      "_ơ _̃",
      "th _ập",
      "th _áp",
      "tr _ì",
      "ch _ấp",
      "ng _ầm",
      "gi _ó",
      "thu _ận",
      "xu _ng",
      "mươ _i",
      "d _e",
      "l _ối",
      "m _ắc",
      "m _ắt",
      "z _e",
      "_u _e",
      "_s _o",
      "_m _an",
      "_l _an",
      "tr _ánh",
      "gi _ản",
      "qu _án",
      "_er _n",
      "lu _̣c",
      "tru _́",
      "phu _̀",
      "lươ _̣c",
      "vi _d",
      "chiê _́m",
      "ngu _̉",
      "á _o",
      "sơ _́m",
      "ze _aland",
      "b _ại",
      "c _à",
      "g _ấp",
      "l _inh",
      "l _ấy",
      "n _ông",
      "r _ời",
      "r _àng",
      "đ _ột",
      "đ _àn",
      "_s _t",
      "tr _ả",
      "tr _iều",
      "ch _ẳng",
      "nh _ị",
      "kh _uy",
      "kh _ai",
      "ng _ại",
      "chi _a",
      "đo _̣c",
      "đo _án",
      "gre _en",
      "a _s",
      "d _a",
      "d _ầu",
      "g _h",
      "h _ỗ",
      "h _ậu",
      "l _ẽ",
      "m _ô",
      "m _et",
      "m _ón",
      "s _áu",
      "v _ư",
      "v _ong",
      "y _ên",
      "_o _g",
      "_l _i",
      "_c _el",
      "_p _h",
      "th _iếu",
      "tr _ao",
      "ch _óng",
      "ch _ảy",
      "ch _ứa",
      "qu _en",
      "_ã _i",
      "chi _́n",
      "_in _a",
      "tru _̣",
      "\"\" _.",
      "thă _̉ng",
      "ngươ _̣c",
      "c _ân",
      "c _ar",
      "d _ốc",
      "s _ai",
      "s _ăn",
      "t _ái",
      "t _ạp",
      "x _ô",
      "đ _ổ",
      "đ _ăng",
      "_t _i",
      "_ơ _́",
      "th _iện",
      "tr _ư",
      "nh _ớ",
      "ng _àn",
      "_ã _n",
      "thư _̀a",
      "ngh _e",
      "khu _ôn",
      "hu _̉y",
      "giá _m",
      "á _nh",
      "só _t",
      "b _ày",
      "b _ơi",
      "c _am",
      "c _ầm",
      "h _iếm",
      "m _ại",
      "m _ái",
      "r _ẻ",
      "s _e",
      "v _ẻ",
      "_u _l",
      "_s _on",
      "_e _̣",
      "_i _f",
      "_v _a",
      "_v _e",
      "_p _p",
      "th _e",
      "tr _ông",
      "ch _ết",
      "nh _ă",
      "nh _ờ",
      "ho _̉a",
      "đê _́",
      "chu _̉ng",
      "đi _̣ch",
      "tu _̀",
      "co _i",
      "_ẩ _y",
      "chiê _́u",
      "lư _̉a",
      "thủ _y",
      "_ad _a",
      "nghi _̉",
      "ti _̉nh",
      "_ẫ _u",
      "green _land",
      "nhă _̀m",
      ". _”",
      "a _f",
      "b _ào",
      "i _́ch",
      "l _ạnh",
      "n _i",
      "n _iệm",
      "s _âu",
      "s _ợ",
      "t _ội",
      "_n _a",
      "_n _es",
      "_b _er",
      "_l _in",
      "_k _h",
      "_y _a",
      "th _iệt",
      "th _ẩm",
      "_ươ _̀n",
      "tr _ạm",
      "tr _ách",
      "tr _ấn",
      "ch _iều",
      "kh _ảo",
      "ng _ồi",
      "ng _ắn",
      "qu _ê",
      "ho _̀n",
      "bă _́n",
      "lo _̀ng",
      "_in _e",
      "tu _̀y",
      "_or _e",
      "ru _́t",
      ".\"\" _\"",
      "thụ _y",
      "b _ác",
      "b _ar",
      "b _ờ",
      "c _ải",
      "c _ấu",
      "g _u",
      "g _ốc",
      "h _ại",
      "h _ar",
      "l _ây",
      "l _ệnh",
      "l _ạp",
      "m _o",
      "m _ồi",
      "n _iên",
      "n _or",
      "r _ập",
      "đ _iển",
      "đ _ẩy",
      "_b _a",
      "_b _ur",
      "_s _a",
      "_r _y",
      "_i _e",
      "_l _d",
      "_k _a",
      "th _ảo",
      "th _ậm",
      "tr _ăm",
      "ch _ặn",
      "nh _ẹ",
      "_ỏ _i",
      "đi _̉nh",
      "lu _ôn",
      "lơ _́p",
      "\"\" _,",
      "_ẩ _u",
      "hô _̀ng",
      "su _ng",
      "su _ốt",
      "tho _ải",
      "khỏ _e",
      "dươ _̃ng",
      "_ap _p",
      "_ne _y",
      "ả _o",
      "vid _eo",
      "b _ề",
      "c _ai",
      "h _ương",
      "n _ã",
      "s _ing",
      "t _ám",
      "đ _ới",
      "đ _ốc",
      "đ _en",
      "đ _ừng",
      "_r _u",
      "_o _o",
      "_c _e",
      "_v _id",
      "_. _.",
      "th _ạch",
      "tr _uy",
      "ch _ắc",
      "ch _ạm",
      "ch _ắn",
      "kh _iển",
      "thu _ốc",
      "_al _l",
      "đu _́ng",
      "ti _́n",
      "nã _o",
      "b _ạc",
      "c _ắt",
      "h _ôn",
      "h _át",
      "l _á",
      "l _uy",
      "l _âm",
      "m _m",
      "m _ẫu",
      "p _ak",
      "s _àng",
      "v _ời",
      "v _ĩ",
      "v _ỡ",
      "đ _ắt",
      "” _,",
      "_n _n",
      "_b _an",
      "_o _p",
      "_i _v",
      "_t _s",
      "_v _er",
      "th _ẻ",
      "th _ượng",
      "_â _ng",
      "_â _́c",
      "tr _i",
      "ch _ối",
      "ch _ấm",
      "ng _a",
      "ph _ạt",
      "gi _ày",
      "thu _̀ng",
      "_ai _l",
      "vu _ông",
      "lo _an",
      "tru _́c",
      "ô _̉n",
      "mà _u",
      "_or _i",
      "đo _̀i",
      "nu _ôi",
      "cươ _́p",
      "can _ada",
      "xo _ay",
      "khuy _ến",
      "nor _th",
      "luy _ện",
      "pak _istan",
      "b _lo",
      "b _om",
      "i _ran",
      "k _ia",
      "k _ẻ",
      "l _ao",
      "l _ẫn",
      "m _iễn",
      "n _ỗ",
      "s _ch",
      "s _ánh",
      "t _ách",
      "v _ương",
      "_r _g",
      "_k _e",
      "_ơ _̣i",
      "th _í",
      "ch _ar",
      "ch _ờ",
      "nh _ắc",
      "ph _ức",
      "gi _àu",
      "qu _ận",
      "qu _ảng",
      "_an _istan",
      "_on _a",
      "_ĩ _nh",
      "_or _n",
      "đe _̣p",
      "_tr _on",
      "_gh _anistan",
      "af _ghanistan",
      "b _uy",
      "b _al",
      "b _ạo",
      "c _ôn",
      "c _as",
      "c _ap",
      "d _an",
      "f _l",
      "f _ran",
      "h _ạm",
      "i _s",
      "k _ịch",
      "l _ô",
      "l _ai",
      "l _ỗ",
      "m _an",
      "m _ol",
      "m _áu",
      "n _ư",
      "n _ai",
      "p _o",
      "r _ươ",
      "v _iễn",
      "đ _ảng",
      "_b _i",
      "_w _a",
      "_r _and",
      "_t _or",
      "_z _an",
      "_q _ue",
      "th _ải",
      "th _ách",
      "kh _ối",
      "kh _ẩu",
      "gi _ấc",
      "ho _ảng",
      "sư _̀ng",
      "đô _̀i",
      "lo _̀",
      "_ỏ _ng",
      "â _̉",
      "do _̀",
      "do _̣a",
      "tru _̀ng",
      "_en _ia",
      "cơ _̃",
      "_or _t",
      "_or _d",
      "_or _ld",
      "dư _́t",
      "nguy _ện",
      "_as _h",
      "st _e",
      "st _ar",
      "đe _̀n",
      "_tr _al",
      "me _́t",
      "xo _áy",
      "sup _er",
      "bi _̉",
      "met _ro",
      "vư _̀a",
      "buy _́t",
      "rươ _̣u",
      ". _..",
      "a _u",
      "b _à",
      "b _ước",
      "b _ầy",
      "c _ấm",
      "g _a",
      "h _ư",
      "l _ạ",
      "l _iền",
      "m _ơ",
      "m _ong",
      "m _ạch",
      "r _ồi",
      "t _ệ",
      "t _ịch",
      "x _i",
      "đ _ào",
      "_n _d",
      "_x _i",
      "_̃ _a",
      "_l _es",
      "_k _s",
      "th _ô",
      "th _ả",
      "tr _ộ",
      "kh _ăn",
      "kh _ám",
      "ng _ăn",
      "ng _ắm",
      "ph _a",
      "ph _o",
      "sư _̉a",
      "phá _n",
      "lo _ạn",
      "tuy _ển",
      "khu _ẩn",
      "lươ _́i",
      "dư _̀ng",
      "ai _r",
      "ke _̀m",
      "trư _ng",
      "blo _g",
      "a _m",
      "b _er",
      "b _ối",
      "b _ra",
      "b _la",
      "c _al",
      "c _át",
      "e _le",
      "f _e",
      "g _rand",
      "h _iến",
      "h _iển",
      "j _am",
      "k _ông",
      "k _en",
      "l _í",
      "l _ốc",
      "l _at",
      "l _ỗi",
      "l _ak",
      "l _ĩnh",
      "m _àn",
      "n _ấu",
      "p _al",
      "r _ãi",
      "s _ổ",
      "s _ẻ",
      "s _iêu",
      "t _e",
      "t _im",
      "t _ấm",
      "u _̉ng",
      "v _a",
      "v _en",
      "v _ườn",
      "w _orld",
      "x _ạ",
      "đ _ứa",
      "_u _ch",
      "_j _an",
      "_b _u",
      "_b _y",
      "_s _s",
      "_s _h",
      "_s _y",
      "_o _w",
      "_e _y",
      "_e _z",
      "_d _a",
      "_p _e",
      "_z _il",
      "th _ác",
      "th _iểu",
      "th _ánh",
      "th _ám",
      "tr _ữ",
      "tr _ầm",
      "_iê _̀m",
      "ch _ó",
      "ch _áy",
      "ch _ậm",
      "ch _ồng",
      "kh _ổ",
      "kh _óa",
      "cu _ốn",
      "gi _ây",
      "thu _a",
      "thu _ng",
      "khi _́ch",
      "vu _i",
      "cư _́ng",
      "_ar _y",
      "khu _́c",
      "do _̃i",
      "lu _̃ng",
      "_al _o",
      "tu _́i",
      "họ _p",
      "kho _ản",
      "to _ur",
      "hai _ti",
      "lươ _̣t",
      "_is _h",
      "đu _ổi",
      "_es _t",
      "_at _al",
      "_at _ion",
      "ro _̀",
      "ư _u",
      "su _́ng",
      "hu _̀ng",
      "tho _̉a",
      "tho _át",
      "_it _e",
      "_le _y",
      "nghi _̀n",
      "ru _nn",
      "nhiê _́p",
      "al _l",
      "ar _m",
      "_un _d",
      "cươ _̃i",
      "ki _́n",
      "north _ern",
      "dan _i",
      "ẩ _m",
      "bra _zil",
      "bla _ck",
      "ele _c",
      "b _ư",
      "e _d",
      "g _o",
      "g _iê",
      "g _eo",
      "g _iết",
      "g _al",
      "k _ê",
      "m _ay",
      "m _ật",
      "n _o",
      "p _et",
      "r _ối",
      "s _im",
      "t _ạng",
      "t _ờ",
      "đ _au",
      "đ _ỏ",
      "_o _u",
      "_e _g",
      "_e _ng",
      "_h _u",
      "_d _i",
      "_d _ro",
      "_p _s",
      "th _ận",
      "th _ưởng",
      "ch _ứ",
      "và _ng",
      "ho _á",
      "thu _ê",
      "chi _le",
      "cư _̣u",
      "khu _ng",
      "mu _̀i",
      "do _anh",
      "tru _̀m",
      "chỉ _nh",
      "họ _a",
      "to _̣a",
      "quy _́",
      "_et _h",
      "ro _m",
      "thị _t",
      "su _ất",
      "hu _ống",
      "hu _ấn",
      "_ap _ore",
      "đơ _̃",
      "nhị _p",
      "_og _a",
      "sing _apore",
      "fran _c",
      "bư _u",
      "a _t",
      "a _d",
      "a _ng",
      "a _us",
      "b _ì",
      "b _iện",
      "c _atal",
      "d _ày",
      "d _ữ",
      "d _áng",
      "d _is",
      "d _el",
      "d _ạy",
      "e _s",
      "e _c",
      "g _om",
      "g _ợi",
      "i _ra",
      "i _cel",
      "l _i",
      "l _ắp",
      "m _i",
      "m _ao",
      "m _óng",
      "m _ạc",
      "n _ỗi",
      "n _iềm",
      "o _f",
      "p _l",
      "s _i",
      "s _k",
      "s _co",
      "t _ơ",
      "t _ả",
      "t _an",
      "t _ải",
      "t _am",
      "t _iệc",
      "t _àn",
      "t _ắt",
      "v _an",
      "v _ết",
      "x _ấu",
      "y _oga",
      "đ _ệ",
      "đ _ai",
      "đ _áo",
      "_u _ad",
      "_a _b",
      "_r _ia",
      "_x _as",
      "_t _ion",
      "_̃ _y",
      "_y _al",
      "_p _ort",
      "_q _u",
      "tr _àn",
      "tr _ốn",
      "_iê _́p",
      "ch _e",
      "ch _inh",
      "nh _ẫn",
      "kh _ẩn",
      "kh _ứ",
      "ph _iên",
      "ph _ật",
      "_ả _nh",
      "gi _o",
      "gi _ãn",
      "gi _ỏi",
      "là _ng",
      "ho _̉ng",
      "chu _́t",
      "thu _̀",
      "ngh _iêng",
      "_ề _m",
      "cư _̣",
      "cả _ng",
      "_in _o",
      "_in _i",
      "_ar _i",
      "_ar _ban",
      "mu _ỗi",
      "â _́m",
      "lu _̃",
      "to _án",
      "ră _́n",
      "xu _́c",
      "vâ _̃y",
      "lươ _̃i",
      "ngo _̣t",
      "tổ _n",
      "_at _a",
      "_at _i",
      "ro _ck",
      "vị _nh",
      "su _nd",
      "hu _ng",
      "_ic _an",
      "_it _y",
      "_us _t",
      "_ing _ton",
      "_ol _a",
      "_ri _ch",
      "_ra _g",
      "hy _dro",
      "ke _́m",
      "ri _̉",
      "gó _c",
      "par _is",
      "_bo _ur",
      "_do _va",
      "_man _ia",
      "\"\". _\"",
      "_if _orn",
      "mol _dova",
      "nư _̉a",
      "cal _iforn",
      "te _xas",
      "runn _ing",
      "arm _enia",
      "at _lan",
      "aus _tral",
      "dis _ney",
      "ec _uad",
      "ira _q",
      "icel _and",
      "si _kh",
      "_arban _s",
      "sund _arbans",
      "californ _ia",
      "b _ật",
      "b _é",
      "c _ẩn",
      "d _ao",
      "d _ãy",
      "h _àn",
      "k _iệm",
      "l _iệt",
      "m _on",
      "m _ực",
      "m _as",
      "n _ộ",
      "n _ề",
      "s _ong",
      "t _ân",
      "t _án",
      "đ _âm",
      "đ _ạp",
      "_w _n",
      "_e _́t",
      "_t _t",
      "_t _an",
      "_t _te",
      "_v _an",
      "_\" _\"",
      "th _ang",
      "ch _ặt",
      "ch _èo",
      "ng _ang",
      "gi _am",
      "qu _ang",
      "ho _ãn",
      "nă _́m",
      "lo _ạt",
      "_in _es",
      "phu _n",
      "lư _ng",
      "in _d",
      "khí _a",
      "gó _p",
      "pro _ton",
      "mo _̀n",
      "_bur _g",
      "char _les",
      "franc _is",
      "a _c",
      "a _le",
      "a _ma",
      "a _pp",
      "b _í",
      "b _è",
      "b _re",
      "b _ha",
      "c _ỏ",
      "c _ro",
      "c _ồn",
      "c _ắp",
      "d _ải",
      "d _àn",
      "d _âng",
      "e _t",
      "e _li",
      "f _al",
      "g _ái",
      "g _ôn",
      "g _ỗ",
      "g _ấu",
      "g _ầm",
      "g _ur",
      "g _iêng",
      "g _ắn",
      "h _am",
      "h _ấp",
      "h _ẻ",
      "i _l",
      "j _a",
      "j _er",
      "k _r",
      "k _iên",
      "k _êu",
      "l _ữ",
      "l _ương",
      "l _am",
      "l _áng",
      "l _as",
      "l _ấn",
      "m _ê",
      "m _ây",
      "m _ẽ",
      "m _ừng",
      "m _ori",
      "m _ềm",
      "n _a",
      "n _inh",
      "n _ồng",
      "n _âng",
      "p _er",
      "p _at",
      "p _it",
      "r _ay",
      "r _ào",
      "s _ốc",
      "s _ar",
      "s _ắt",
      "s _ạch",
      "s _ắm",
      "s _ắp",
      "t _ần",
      "t _on",
      "t _ường",
      "u _y",
      "v _ỏ",
      "v _ắc",
      "v _án",
      "v _ợ",
      "w _h",
      "w _ash",
      "x _anh",
      "x _óa",
      "đ _ư",
      "_u _is",
      "_n _i",
      "_b _eth",
      "_w _ai",
      "_w _ard",
      "_o _c",
      "_o _k",
      "_g _ar",
      "_e _k",
      "_e _an",
      "_m _y",
      "_m _in",
      "_x _it",
      "_x _em",
      "_t _u",
      "_t _ic",
      "_h _am",
      "_h _ne",
      "_l _us",
      "_y _i",
      "_y _an",
      "_v _en",
      "_p _lus",
      "_z _on",
      "_ng _rich",
      "_ơ _n",
      "th _ảm",
      "_â _̀ng",
      "tr _ào",
      "tr _ơn",
      "ch _h",
      "ch _ăn",
      "ch _ấn",
      "nh _ấn",
      "nh _ượng",
      "kh _ô",
      "kh _ơi",
      "kh _ấu",
      "kh _ắc",
      "kh _án",
      "kh _uyên",
      "_ó _i",
      "_ó _c",
      "ng _ừng",
      "ph _e",
      "ph _ạn",
      "ph _ỏng",
      "cu _́m",
      "gi _̀n",
      "gi _ường",
      "gi _ngrich",
      "đươ _ng",
      "du _n",
      "_on _e",
      "_on _so",
      "_ai _n",
      "phá _o",
      "vu _ốt",
      "_am _i",
      "lo _̣c",
      "lo _̉ng",
      "lo _uis",
      "cả _n",
      "_in _t",
      "ky _̣",
      "đi _̃a",
      "khu _ất",
      "mu _̀",
      "lu _ân",
      "lu _na",
      "lu _xem",
      "_al _a",
      "_al _d",
      "tu _ệ",
      "_en _do",
      "quy _ển",
      "_ia _s",
      "ngo _ái",
      "_is _s",
      "_el _a",
      "_el _ly",
      "so _̀ng",
      "vi _rg",
      "ro _ss",
      "bu _̀ng",
      "bu _ff",
      "bu _sh",
      "_ic _k",
      "in _ch",
      "_ak _i",
      "đơ _̣i",
      "em _ail",
      "_ri _g",
      "_ra _el",
      "st _an",
      "_ne _d",
      "đe _m",
      "al _onso",
      "ươ _ng",
      "ha _wai",
      "_te _in",
      "re _id",
      "só _i",
      "só _c",
      "sa _f",
      "me _̣",
      "gó _t",
      "pro _tein",
      "_so _c",
      "trư _̀",
      "_ber _t",
      "_app _an",
      "cap _e",
      "is _rael",
      "lô _̀",
      "metro _plus",
      "trộ _m",
      "pho _ton",
      "ber _lin",
      "fe _et",
      "jam _es",
      "ken _ya",
      "lat _inh",
      "khổ _ng",
      "tour _s",
      "elec _tron",
      "giê _̀ng",
      "catal _an",
      "gom _a",
      "mao _ri",
      "gio _̣ng",
      "_bour _g",
      "atlan _ta",
      "ecuad _or",
      "francis _co",
      "ama _zon",
      "app _le",
      "bha _jan",
      "eli _za",
      "mori _ori",
      "wash _ington",
      "luxem _bourg",
      "virg _in",
      "buff _alo",
      "hawai _i",
      ", _\"\"",
      "b _ơ",
      "b _ể",
      "c _ối",
      "d _ị",
      "d _ar",
      "d _ối",
      "d _ậy",
      "e _b",
      "g _ran",
      "h _ãi",
      "k _an",
      "k _ar",
      "l _ang",
      "l _ính",
      "l _ở",
      "l _ạm",
      "s _ườn",
      "t _ỏ",
      "u _s",
      "u _ng",
      "đ _âu",
      "_b _on",
      "_s _p",
      "_r _k",
      "_g _er",
      "_e _d",
      "_c _i",
      "_ơ _̣t",
      "th _ơ",
      "th _ở",
      "tr _ắng",
      "ch _ở",
      "ch _ôn",
      "ch _ẩn",
      "kh _ái",
      "_ộ _n",
      "gi _za",
      "chu _̣c",
      "chu _ỗi",
      "tô _̀i",
      "tu _̣",
      "co _r",
      "ta _xi",
      "so _ạn",
      "thị _nh",
      "_ing _s",
      "_ol _d",
      "ke _̣t",
      "hộ _p",
      "he _̣p",
      "khuy _nh",
      "da _vid",
      "_bur _gh",
      "_oo _d",
      "_rg _e",
      "geo _rge",
      "nộ _p",
      ", _”",
      "< _/",
      "a _z",
      "a _ol",
      "a _ri",
      "a _xit",
      "b _e",
      "b _h",
      "b _l",
      "b _ê",
      "b _ậ",
      "b _ền",
      "b _ia",
      "b _ish",
      "c _r",
      "c _l",
      "c _ong",
      "c _ỗ",
      "c _ặp",
      "c _ốt",
      "c _ậu",
      "c _iv",
      "d _ại",
      "d _ần",
      "d _âm",
      "d _ồi",
      "e _́p",
      "f _ai",
      "f _el",
      "f _ern",
      "f _bi",
      "g _à",
      "g _ập",
      "g _ậy",
      "g _ặm",
      "g _ra",
      "g _ỡ",
      "g _ps",
      "h _i",
      "h _ươ",
      "h _an",
      "h _ố",
      "h _ài",
      "h _ề",
      "h _ối",
      "h _uyền",
      "i _i",
      "j _r",
      "k _ì",
      "k _iệt",
      "k _at",
      "k _ép",
      "k _ir",
      "k _und",
      "l _iều",
      "l _en",
      "l _ấp",
      "l _ội",
      "l _ầy",
      "m _ời",
      "m _ỏ",
      "m _ào",
      "m _át",
      "m _ầm",
      "m _ri",
      "m _il",
      "m _iêu",
      "m _ỏng",
      "n _on",
      "n _àng",
      "n _àn",
      "o _ne",
      "p _u",
      "p _ao",
      "p _ic",
      "p _ri",
      "p _un",
      "r _ác",
      "r _ổ",
      "r _ốc",
      "r _ẽ",
      "s _l",
      "s _ay",
      "s _ập",
      "s _er",
      "s _ốt",
      "s _ỏi",
      "t _v",
      "t _á",
      "t _ang",
      "t _ống",
      "t _àng",
      "t _áo",
      "t _ảng",
      "t _ảo",
      "t _ầng",
      "u _t",
      "u _ta",
      "u _nes",
      "v _inh",
      "v _ở",
      "v _iệt",
      "v _at",
      "v _ách",
      "v _ers",
      "w _al",
      "w _if",
      "w _est",
      "x _ơ",
      "x _ưa",
      "x _ôi",
      "x _ám",
      "đ _à",
      "đ _am",
      "đ _áy",
      "đ _ầm",
      "đ _iền",
      "đ _ậm",
      "” _)",
      "_u _a",
      "_u _ma",
      "_u _ver",
      "_u _ela",
      "_n _s",
      "_j _u",
      "_j _a",
      "_b _s",
      "_b _ai",
      "_s _l",
      "_s _k",
      "_f _t",
      "_w _s",
      "_w _e",
      "_r _ay",
      "_o _v",
      "_g _en",
      "_g _yal",
      "_m _o",
      "_m _on",
      "_m _er",
      "_i _b",
      "_i _g",
      "_i _gh",
      "_x _y",
      "_t _y",
      "_t _elly",
      "_h _e",
      "_d _d",
      "_d _p",
      "_l _l",
      "_l _er",
      "_l _ing",
      "_l _ap",
      "_k _land",
      "_k _ha",
      "_y _d",
      "_y _ch",
      "_v _ard",
      "_p _r",
      "_p _er",
      "_p _ol",
      "_z _ona",
      "th _ai",
      "th _ấu",
      "th _iệp",
      "th _ói",
      "_â _̃m",
      "tr _à",
      "tr _ích",
      "ch _ẽ",
      "ch _ép",
      "ch _ợ",
      "ch _ặng",
      "ch _ăm",
      "nh _o",
      "nh _ánh",
      "nh _ạy",
      "nh _ấm",
      "_nh _ag",
      "kh _âu",
      "kh _iêu",
      "ng _ộ",
      "ng _ã",
      "ng _on",
      "ng _ờ",
      "và _nh",
      "ph _ận",
      "ph _àn",
      "ph _ar",
      "ph _ối",
      "ph _ẳng",
      "cu _̣c",
      "qu _ét",
      "ho _ại",
      "ho _ward",
      "_an _s",
      "_an _ian",
      "_ì _a",
      "đã _i",
      "sư _́",
      "_ố _m",
      "bă _́p",
      "phá _i",
      "_ao _h",
      "đô _n",
      "đô _́t",
      "đó _n",
      "cư _ng",
      "_am _a",
      "_am _un",
      "lo _s",
      "_in _c",
      "_in _et",
      "ô _̉",
      "_al _om",
      "_al _em",
      "_al _ini",
      "tu _tan",
      "kho _ang",
      "to _a",
      "to _m",
      "to _̉a",
      "lơ _̣n",
      "co _l",
      "co _̣p",
      "co _st",
      "co _pe",
      "\"\" _\"",
      "_ch _e",
      "_ch _el",
      "lươ _̃ng",
      "_or _id",
      "đo _an",
      "hô _̃n",
      "_el _le",
      "_el _lo",
      "đu _̣ng",
      "_at _e",
      "_as _hi",
      "_as _ka",
      "ro _mania",
      "_and _a",
      "ư _a",
      "phi _li",
      "hu _hne",
      "_ic _e",
      "giá _p",
      "_it _i",
      "_us _alem",
      "_lo _tte",
      "_ad _e",
      "_re _d",
      "_hi _op",
      "_ne _id",
      "al _aska",
      "_il _la",
      "_ck _land",
      "ươ _́t",
      "đá _p",
      "_ist _o",
      "jo _ur",
      "ar _ias",
      "_co _uver",
      "re _d",
      "bo _b",
      "cá _p",
      "san _ta",
      "chú _a",
      "nhu _̃ng",
      "huy _̉",
      "he _́t",
      "mar _a",
      "mar _telly",
      "ngươ _̃ng",
      "john _son",
      "pro _ven",
      "_ẫ _y",
      "_lan _ca",
      "as _sy",
      "vư _̃ng",
      "_cel _ona",
      "car _ib",
      "_pp _ines",
      "_kh _amun",
      "bar _celona",
      "_app _a",
      "sing _h",
      "_ru _k",
      "sch _neid",
      "_ke _k",
      "char _lotte",
      "cas _ab",
      "fl _orid",
      "_zan _o",
      "star _k",
      "au _ckland",
      "xi _̉n",
      "lak _kha",
      "ven _ez",
      "dani _elle",
      "black _s",
      "kê _nh",
      "pet _er",
      "sim _ino",
      "rom _ney",
      "ang _el",
      "sk _y",
      "van _couver",
      "austral _ia",
      "mon _te",
      "mas _sa",
      "ale _x",
      "et _hiop",
      "fal _kland",
      "gur _u",
      "hẻ _m",
      "jer _usalem",
      "per _ry",
      "đư _́t",
      "chh _appan",
      "dun _lap",
      "saf _ari",
      "eliza _beth",
      "az _er",
      "ari _zona",
      "bh _og",
      "bậ _c",
      "bish _kek",
      "fai _r",
      "fern _and",
      "hươ _u",
      "kund _alini",
      "pri _x",
      "sl _alom",
      "ut _c",
      "uta _h",
      "unes _co",
      "vat _ican",
      "wif _i",
      "_nhag _en",
      "phar _aoh",
      "tutan _khamun",
      "cost _ello",
      "cope _nhagen",
      "phili _ppines",
      "proven _zano",
      "assy _ria",
      "schneid _er",
      "casab _lanca",
      "florid _a",
      "venez _uela",
      "simino _ff",
      "ethiop _ia",
      "b _ốc",
      "b _ến",
      "b _ro",
      "b _ạch",
      "b _áu",
      "c _ất",
      "d _ạo",
      "g _l",
      "g _en",
      "h _ă",
      "h _er",
      "k _ĩ",
      "k _it",
      "l _e",
      "m _ad",
      "n _an",
      "p _r",
      "p _ag",
      "r _au",
      "w _il",
      "x _ế",
      "x _ấp",
      "x _ách",
      "x _óm",
      "đ _an",
      "đ _ập",
      "_u _b",
      "_u _tron",
      "_n _t",
      "_j _ar",
      "_s _ite",
      "_w _in",
      "_w _ar",
      "_o _ke",
      "_g _a",
      "_g _e",
      "_̃ _u",
      "_d _e",
      "_d _en",
      "_y _o",
      "th _ước",
      "th _ổi",
      "th _ắc",
      "th _ầy",
      "tr _ần",
      "ch _a",
      "ch _ai",
      "ch _ữa",
      "kh _áng",
      "kh _iếp",
      "ng _ạc",
      "ng _ợi",
      "ph _ó",
      "cu _̃",
      "cu _ba",
      "sư _̃a",
      "chu _a",
      "ngh _èo",
      "_in _nes",
      "â _̉n",
      "tu _ân",
      "phu _́",
      "_en _s",
      "xu _ân",
      "quy _̃",
      "co _̣c",
      "ngo _ạn",
      "tự _u",
      "_at _es",
      "_as _t",
      "_ol _y",
      "đơ _̣t",
      "ne _́m",
      "ne _utron",
      "_ri _d",
      "duy _ệt",
      "la _̃ng",
      "_th _er",
      "_ag _os",
      "ri _ch",
      "web _site",
      "sh _ow",
      "nhu _ận",
      "he _̣n",
      "olympic _s",
      "gh _ế",
      "car _ter",
      "sai _nt",
      "gu _innes",
      "xi _̉",
      "trộ _n",
      "rom _e",
      "sco _t",
      "kan _jar",
      "guinnes _s",
      ". _,",
      "> _(",
      "a _́c",
      "a _́ch",
      "a _pol",
      "b _r",
      "b _ô",
      "b _á",
      "b _en",
      "b _el",
      "b _ol",
      "b _ám",
      "b _ồi",
      "b _ran",
      "b _ón",
      "b _ẫy",
      "c _e",
      "c _m",
      "c _ước",
      "c _ường",
      "c _en",
      "c _el",
      "c _ẩu",
      "c _ity",
      "c _yan",
      "d _v",
      "d _z",
      "d _iê",
      "d _ường",
      "d _ây",
      "d _inh",
      "d _ính",
      "d _am",
      "d _ắt",
      "d _re",
      "d _ồn",
      "d _ruk",
      "e _x",
      "e _ph",
      "f _o",
      "f _or",
      "f _oo",
      "f _red",
      "g _m",
      "g _p",
      "g _ar",
      "g _ối",
      "g _ánh",
      "g _as",
      "g _ấm",
      "g _os",
      "g _ore",
      "g _dp",
      "h _s",
      "h _in",
      "h _en",
      "h _es",
      "h _âm",
      "h _ứng",
      "h _ạnh",
      "h _ứa",
      "h _all",
      "i _w",
      "i _r",
      "i _p",
      "i _on",
      "i _st",
      "j _e",
      "j _on",
      "j _ar",
      "j _ak",
      "k _ìm",
      "k _om",
      "k _iêm",
      "k _ala",
      "l _ê",
      "l _ay",
      "l _ar",
      "l _ăn",
      "l _ánh",
      "l _ẻ",
      "l _óng",
      "l _ăng",
      "l _iêng",
      "l _ắng",
      "l _ặp",
      "l _éo",
      "l _ặn",
      "l _em",
      "l _ăm",
      "m _c",
      "m _p",
      "m _ác",
      "m _ổ",
      "m _ận",
      "m _in",
      "m _al",
      "m _ẻ",
      "m _ấy",
      "m _ic",
      "m _it",
      "m _ap",
      "m _ắn",
      "m _ệt",
      "m _ặn",
      "m _ảnh",
      "m _endo",
      "m _iss",
      "n _p",
      "n _ở",
      "n _âu",
      "n _ướng",
      "n _ad",
      "n _ấm",
      "n _ạp",
      "n _ag",
      "n _ba",
      "n _sa",
      "n _yi",
      "n _int",
      "o _n",
      "o _r",
      "o _̃",
      "o _re",
      "o _cel",
      "o _ve",
      "o _ld",
      "o _rig",
      "o _xy",
      "p _i",
      "p _an",
      "p _in",
      "p _en",
      "p _lan",
      "p _ry",
      "p _rag",
      "p _bs",
      "p _oly",
      "r _ô",
      "r _ã",
      "r _ước",
      "r _ải",
      "r _ống",
      "r _ing",
      "r _ậm",
      "r _ain",
      "r _ìa",
      "s _am",
      "s _ôi",
      "s _ap",
      "s _lo",
      "s _hi",
      "s _ir",
      "s _ca",
      "s _port",
      "s _ảnh",
      "s _pr",
      "t _b",
      "t _ông",
      "t _ong",
      "t _ận",
      "t _ật",
      "t _er",
      "t _ấp",
      "t _it",
      "t _óm",
      "u _r",
      "u _soc",
      "v _e",
      "v _ươ",
      "v _ang",
      "v _ẽ",
      "v _al",
      "v _áy",
      "v _el",
      "v _ắng",
      "v _ợt",
      "x _d",
      "x _ả",
      "x _inh",
      "x _ứng",
      "x _ứ",
      "y _or",
      "y _ến",
      "y _ard",
      "z _m",
      "z _ay",
      "z _am",
      "z _im",
      "z _ha",
      "đ _eo",
      "đ _iệu",
      "đ _ốm",
      "’ _,",
      "_u _d",
      "_u _z",
      "_u _th",
      "_u _ts",
      "_u _tion",
      "_n _er",
      "_n _om",
      "_n _sy",
      "_j _ong",
      "_a _w",
      "_a _an",
      "_a _ck",
      "_b _d",
      "_b _ia",
      "_b _el",
      "_b _ul",
      "_b _ya",
      "_b _we",
      "_s _e",
      "_s _mania",
      "_s _ashi",
      "_f _u",
      "_f _an",
      "_f _en",
      "_f _ia",
      "_f _ord",
      "_w _ay",
      "_w _ang",
      "_w _er",
      "_w _al",
      "_r _on",
      "_r _ai",
      "_r _am",
      "_r _it",
      "_r _ina",
      "_o _to",
      "_g _on",
      "_g _ur",
      "_g _ne",
      "_g _by",
      "_g _inet",
      "_e _ul",
      "_m _et",
      "_m _ing",
      "_i _k",
      "_i _za",
      "_x _ic",
      "_t _ro",
      "_t _man",
      "_t _ina",
      "_h _o",
      "_h _an",
      "_h _che",
      "_d _ia",
      "_d _ain",
      "_l _ic",
      "_l _van",
      "_c _t",
      "_c _ar",
      "_c _us",
      "_c _ol",
      "_c _tor",
      "_c _bon",
      "_k _in",
      "_k _ar",
      "_k _im",
      "_k _tu",
      "_y _am",
      "_v _i",
      "_v _on",
      "_v _is",
      "_v _ada",
      "_v _ati",
      "_v _ice",
      "_p _an",
      "_p _ar",
      "_p _al",
      "_p _son",
      "_̈ _m",
      "_ơ _́p",
      "_ô _̀m",
      "th _an",
      "th _ôn",
      "th _iệu",
      "th _iêng",
      "th _iền",
      "th _iếp",
      "tr _au",
      "tr _iết",
      "tr _ội",
      "tr _ứng",
      "tr _ic",
      "tr _ừng",
      "tr _ans",
      "_iê _́ng",
      "ch _r",
      "ch _ư",
      "ch _âm",
      "ch _at",
      "ch _ừng",
      "nh _ầm",
      "nh _ảy",
      "nh _ắm",
      "kh _an",
      "kh _ố",
      "kh _and",
      "kh _éo",
      "kh _uyết",
      "_ó _t",
      "ng _ai",
      "ng _ập",
      "ng _ặt",
      "ng _ón",
      "ph _ế",
      "ph _iền",
      "ph _iêu",
      "ph _ẫu",
      "ph _nom",
      "cu _̉ng",
      "cu _dd",
      "gi _à",
      "gi _ấu",
      "gi _án",
      "gi _ầy",
      "_́n _o",
      "là _nh",
      "ho _̣ng",
      "ho _ạn",
      "_an _t",
      "_an _nes",
      "_an _bul",
      "_ong _o",
      "đê _́m",
      "cho _àng",
      "chu _ông",
      "chu _ột",
      "chu _̀a",
      "chu _ồn",
      "thu _ẫn",
      "tiê _́c",
      "tiê _̀m",
      "hơ _̉",
      "_on _d",
      "_on _ia",
      "_on _ald",
      "_on _ych",
      "ngh _ề",
      "_au _ty",
      "vu _́",
      "ra _di",
      "ra _ju",
      "đô _̀n",
      "_am _e",
      "_am _ine",
      "lo _̀a",
      "_in _n",
      "ky _oto",
      "_er _ang",
      "_er _at",
      "_er _to",
      "_er _que",
      "_ar _ia",
      "_ar _ns",
      "khu _fu",
      "mu _̃i",
      "mu _sashi",
      "do _min",
      "lu _i",
      "lu _ồng",
      "tru _̣c",
      "tru _mp",
      "ô _́c",
      "ô _̀n",
      "_al _s",
      "tu _ng",
      "tu _́c",
      "tu _̣ng",
      "tu _́y",
      "_en _a",
      "_en _th",
      "_en _ton",
      "_en _os",
      "chuy _ền",
      "to _wn",
      "to _ginet",
      "ră _́c",
      "co _m",
      "co _̣",
      "co _vid",
      "co _ok",
      "qua _̃ng",
      "_ch _u",
      "_ch _er",
      "_ch _es",
      "_ch _man",
      "_ch _ner",
      "_ch _kin",
      "cơ _̀",
      "_ia _tion",
      "ta _smania",
      "đo _ạt",
      "tro _̣",
      "_el _and",
      "_el _wal",
      "đu _́c",
      "đu _ôi",
      "_es _e",
      "_es _us",
      "so _uth",
      "vi _̉a",
      "vi _ctor",
      "ba _chman",
      "_et _i",
      "_at _ia",
      "_at _us",
      "_at _ol",
      "_as _ma",
      "_as _aki",
      "_as _ub",
      "_as _vati",
      "ro _g",
      "ro _e",
      "ro _ber",
      "ro _yal",
      "gian _t",
      "_and _er",
      "thă _ng",
      "thă _́t",
      "thă _́n",
      "lư _̀a",
      "bu _m",
      "bu _enos",
      "_ic _ia",
      "tho _áng",
      "_ro _m",
      "_ro _so",
      "nu _̣",
      "_it _ion",
      "_it _he",
      "_us _hche",
      "_ing _bo",
      "_ol _is",
      "_ol _ina",
      "_ur _ic",
      "ngu _̣",
      "in _c",
      "_ap _olis",
      "_lo _s",
      "_lo _met",
      "_ad _o",
      "_ad _ing",
      "_ad _ian",
      "_ak _e",
      "_ak _is",
      "ne _́t",
      "ne _vada",
      "ne _pal",
      "an _im",
      "an _na",
      "duy _ên",
      "_ter _s",
      "st _ard",
      "st _one",
      "ru _̉i",
      "ru _gby",
      "_om _erang",
      "sơ _n",
      "_th _ur",
      "al _p",
      "al _bu",
      "_il _le",
      "_ck _s",
      "vo _i",
      "vo _̀i",
      "_eb _ack",
      "mã _i",
      "_ag _u",
      "_ton _ia",
      "ca _cbon",
      "tai _́no",
      "_land _o",
      "_ly _nn",
      "new _t",
      "_os _tr",
      "ar _gen",
      "ar _thur",
      "ke _̣p",
      "_te _m",
      "re _m",
      "re _ading",
      "bo _w",
      "bo _̀",
      "bo _at",
      "bo _da",
      "bo _omerang",
      "san _tor",
      "xư _ng",
      "_ff _old",
      "cươ _́i",
      "ma _c",
      "sh _ar",
      "sh _oo",
      "sh _yam",
      "me _xic",
      "_gh _t",
      "gó _i",
      "lã _m",
      "par _o",
      "par _k",
      "par _ti",
      "par _enth",
      "lộ _n",
      "mươ _̣n",
      "bổ _n",
      "mar _ie",
      "_ian _o",
      "hà _m",
      "hang _i",
      "hang _eul",
      "ki _̉",
      "ki _lomet",
      "bi _g",
      "_bo _w",
      "de _von",
      "vid _al",
      "as _us",
      "as _soc",
      "da _ve",
      "gh _z",
      "met _i",
      "_ph _en",
      "car _olina",
      "se _jong",
      "_if _a",
      "_pp _er",
      "_nes _ia",
      "gu _̃i",
      "har _vard",
      "har _appa",
      "_ba _bwe",
      "_ie _h",
      "_ka _wa",
      "_ru _ng",
      "_vid _eo",
      "_op _ithe",
      "_ts _burgh",
      "nga _wang",
      "sch _uma",
      "bal _tic",
      "bal _asub",
      "man _ches",
      "mol _l",
      "nư _́t",
      "po _tro",
      "_wa _z",
      "ste _war",
      "ste _arns",
      "ste _phen",
      "au _d",
      "air _es",
      "am _in",
      "lí _p",
      "lak _e",
      "pal _m",
      "pal _est",
      "tim _bu",
      "_uch _e",
      "all _en",
      "dani _us",
      "geo _sp",
      "no _bel",
      "sim _pson",
      "_ou _los",
      "_eng _eti",
      "ad _am",
      "es _kim",
      "es _tonia",
      "li _bya",
      "pl _asma",
      "_qu _et",
      "_qu _erque",
      "hung _ary",
      "_rag _ongo",
      "austral _opithe",
      "ind _us",
      "ac _ta",
      "cro _atia",
      "ja _va",
      "kr _ushche",
      "pat _in",
      "pit _tman",
      "pit _tsburgh",
      "sar _asvati",
      "ton _le",
      "wh _ite",
      "ross _by",
      "stan _ley",
      "stan _ford",
      "virgin _ia",
      "bơ _m",
      "eb _ay",
      "gran _t",
      "us _d",
      "_ger _ia",
      "be _auty",
      "bl _ake",
      "fel _i",
      "hi _́t",
      "kat _rina",
      "kir _chner",
      "len _z",
      "mil _ler",
      "pu _erto",
      "pao _lo",
      "pic _col",
      "ser _engeti",
      "vers _ail",
      "wal _es",
      "_bai _jan",
      "_sk _i",
      "_per _onych",
      "tom _my",
      "col _bert",
      "_isto _ph",
      "jour _dain",
      "bob _ek",
      "angel _es",
      "monte _video",
      "alex _ander",
      "azer _baijan",
      "fernand _o",
      "bro _ther",
      "her _ostr",
      "pr _inc",
      "pag _o",
      "wil _d",
      "apol _lo",
      "bô _̀",
      "bol _onia",
      "ce _p",
      "cen _tral",
      "cyan _uric",
      "dv _d",
      "dz _ong",
      "diê _̃u",
      "dam _adian",
      "dre _am",
      "druk _gyal",
      "ex _p",
      "foo _t",
      "gm _t",
      "gos _ling",
      "hs _ieh",
      "hin _di",
      "hen _ry",
      "hes _peronych",
      "ir _eland",
      "ist _anbul",
      "je _ff",
      "jak _ar",
      "kom _en",
      "lay _ton",
      "mic _roso",
      "map _uche",
      "mendo _za",
      "np _ws",
      "nad _al",
      "nyi _ragongo",
      "nint _endo",
      "on _ion",
      "ore _gon",
      "ocel _o",
      "ove _chkin",
      "orig _ami",
      "pi _quet",
      "pan _ama",
      "pen _nsy",
      "plan _ned",
      "pry _ce",
      "prag _ue",
      "poly _nesia",
      "rã _nh",
      "rain _bow",
      "slo _v",
      "sir _ena",
      "sca _ffold",
      "sport _ing",
      "spr _ingbo",
      "tit _an",
      "vươ _̣n",
      "xd _r",
      "yor _k",
      "zm _app",
      "zay _at",
      "zam _bia",
      "zim _babwe",
      "zha _bd",
      "_ram _anian",
      "_lvan _ia",
      "tric _erat",
      "chat _ham",
      "khand _elwal",
      "cudd _eback",
      "radi _o",
      "victor _ia",
      "bachman _n",
      "stard _ust",
      "albu _querque",
      "argen _tina",
      "shoo _ters",
      "mexic _o",
      "parti _zan",
      "parenth _ood",
      "devon _port",
      "assoc _iation",
      "dave _y",
      "schuma _cher",
      "balasub _ramanian",
      "manches _ter",
      "stewar _t",
      "palest _ine",
      "timbu _ktu",
      "geosp _iza",
      "eskim _o",
      "australopithe _cus",
      "krushche _v",
      "piccol _o",
      "herostr _atus",
      "hesperonych _us",
      "microso _ft",
      "pennsy _lvania",
      "springbo _ks",
      "zhabd _rung",
      "tricerat _op",
      "b _y",
      "b _hu",
      "b _óc",
      "c _ãi",
      "d _ê",
      "d _ời",
      "d _na",
      "e _ri",
      "f _i",
      "g _an",
      "g _ắt",
      "g _ord",
      "h _ổ",
      "h _ạch",
      "k _ow",
      "l _ột",
      "l _ường",
      "l _ôi",
      "l _ắm",
      "m _ạn",
      "m _ai",
      "m _or",
      "p _a",
      "t _em",
      "t _ĩnh",
      "t _óc",
      "x _á",
      "x _ị",
      "x _ích",
      "z _ag",
      "đ _èo",
      "đ _ậu",
      "_u _́",
      "_u _ro",
      "_n _o",
      "_a _ce",
      "_b _rid",
      "_s _ter",
      "_́ _a",
      "_g _s",
      "_e _e",
      "_h _r",
      "_h _ad",
      "_c _ca",
      "_k _yo",
      "_z _en",
      "th _ạo",
      "th _ôi",
      "tr _ai",
      "tr _ật",
      "tr _ôi",
      "ch _and",
      "ch _ợt",
      "cu _̉",
      "qu _ên",
      "sư _u",
      "thư _a",
      "nă _́ng",
      "thu _ần",
      "_in _burgh",
      "phu _́c",
      "_en _st",
      "to _kyo",
      "_ch _te",
      "phí _m",
      "dư _̀a",
      "_es _h",
      "ba _ba",
      "su _l",
      "_ro _s",
      "ngu _̃",
      "_ap _agos",
      "ngư _̀a",
      "ti _̉",
      "mã _n",
      "_ff _iti",
      "me _cca",
      "par _agu",
      "_ers _burg",
      "gh _ét",
      "cam _brid",
      "ni _geria",
      "_lin _es",
      "_kh _ar",
      "sch _eng",
      "air _lines",
      "ed _inburgh",
      "gal _apagos",
      "pet _ersburg",
      "sco _tt",
      "bơ _́t",
      "dar _win",
      "eb _ola",
      "us _gs",
      "thơ _́t",
      "gra _ffiti",
      "hă _̉n",
      "kit _ô",
      "rich _ard",
      "scot _land",
      "gord _on",
      "xị _t",
      "paragu _ay",
      "cambrid _ge",
      "scheng _en",
      "! _)",
      "! _\"\"",
      "( _“",
      ") _;",
      ", _:",
      ", _..",
      "- _-",
      "a _b",
      "a _g",
      "a _y",
      "a _́m",
      "a _it",
      "a _ra",
      "a _th",
      "a _un",
      "a _mp",
      "a _ve",
      "a _xi",
      "a _ks",
      "a _bu",
      "a _eg",
      "b _s",
      "b _ệ",
      "b _ế",
      "b _ần",
      "b _on",
      "b _ây",
      "b _ống",
      "b _àng",
      "b _or",
      "b _es",
      "b _ẩn",
      "b _it",
      "b _ri",
      "b _ốt",
      "b _os",
      "b _ard",
      "b _ir",
      "b _eng",
      "b _elly",
      "b _inn",
      "c _n",
      "c _g",
      "c _ột",
      "c _ười",
      "c _ay",
      "c _ạn",
      "c _ài",
      "c _ống",
      "c _ốc",
      "c _in",
      "c _anh",
      "c _ởi",
      "c _âm",
      "c _ăng",
      "c _ậy",
      "c _ạp",
      "c _ir",
      "c _li",
      "c _ru",
      "c _inc",
      "c _ct",
      "d _y",
      "d _ai",
      "d _ập",
      "d _er",
      "d _al",
      "d _ĩ",
      "d _ặt",
      "d _ào",
      "d _ội",
      "d _ẻ",
      "d _ấy",
      "d _án",
      "d _ro",
      "d _è",
      "d _ri",
      "d _ra",
      "d _ặn",
      "d _rag",
      "d _sl",
      "d _ẫm",
      "d _onald",
      "e _r",
      "e _o",
      "e _́",
      "e _i",
      "e _v",
      "e _re",
      "e _va",
      "e _hu",
      "e _rk",
      "e _igh",
      "e _ll",
      "e _uro",
      "e _ee",
      "f _a",
      "f _t",
      "f _k",
      "f _on",
      "f _in",
      "f _is",
      "f _ic",
      "f _lo",
      "f _il",
      "f _all",
      "f _ort",
      "f _ata",
      "f _ati",
      "f _ray",
      "f _enton",
      "f _lynn",
      "f _ifa",
      "g _b",
      "g _ã",
      "g _ang",
      "g _on",
      "g _ạt",
      "g _or",
      "g _án",
      "g _ãy",
      "g _ol",
      "g _lo",
      "g _ri",
      "g _all",
      "g _old",
      "g _ốm",
      "g _ama",
      "g _ate",
      "g _ẫy",
      "g _yo",
      "g _ates",
      "g _rid",
      "g _ame",
      "g _lynn",
      "h _j",
      "h _k",
      "h _ã",
      "h _iên",
      "h _ước",
      "h _al",
      "h _is",
      "h _el",
      "h _ầm",
      "h _ăng",
      "h _iền",
      "h _il",
      "h _ắn",
      "h _eb",
      "h _ers",
      "h _iv",
      "h _tt",
      "h _ast",
      "i _m",
      "i _t",
      "i _z",
      "i _ph",
      "i _da",
      "i _oc",
      "i _rk",
      "j _an",
      "j _ong",
      "j _ai",
      "j _el",
      "j _as",
      "j _im",
      "j _ag",
      "j _ard",
      "j _ul",
      "j _ord",
      "j _ean",
      "j _ud",
      "j _esus",
      "k _n",
      "k _a",
      "k _o",
      "k _g",
      "k _v",
      "k _ong",
      "k _ay",
      "k _ẽ",
      "k _er",
      "k _or",
      "k _es",
      "k _re",
      "k _ri",
      "k _iêu",
      "k _ph",
      "k _ru",
      "k _iềm",
      "k _alo",
      "k _ari",
      "k _ok",
      "k _iss",
      "k _ings",
      "k _ashi",
      "k _anda",
      "k _rom",
      "k _waz",
      "l _ă",
      "l _ười",
      "l _ặt",
      "l _át",
      "l _es",
      "l _ách",
      "l _ầm",
      "l _it",
      "l _èo",
      "l _ặng",
      "l _ion",
      "l _ồng",
      "l _iv",
      "l _ines",
      "l _ót",
      "m _b",
      "m _d",
      "m _ông",
      "m _ì",
      "m _í",
      "m _au",
      "m _ộc",
      "m _er",
      "m _anh",
      "m _ền",
      "m _en",
      "m _âu",
      "m _ạo",
      "m _iệt",
      "m _ờ",
      "m _is",
      "m _el",
      "m _ệnh",
      "m _è",
      "m _ép",
      "m _ìn",
      "m _os",
      "m _ers",
      "m _ph",
      "m _ỏi",
      "m _ail",
      "m _ash",
      "m _ino",
      "m _óc",
      "m _ald",
      "m _ick",
      "m _iếng",
      "m _akis",
      "n _s",
      "n _m",
      "n _ê",
      "n _â",
      "n _ại",
      "n _ới",
      "n _ế",
      "n _ặc",
      "n _in",
      "n _ản",
      "n _ập",
      "n _ỏ",
      "n _át",
      "n _ẻ",
      "n _ấy",
      "n _as",
      "n _òng",
      "n _ap",
      "n _ak",
      "n _ồi",
      "n _ện",
      "n _ốt",
      "n _ẩy",
      "n _atal",
      "n _ation",
      "n _ick",
      "n _dp",
      "o _a",
      "o _t",
      "o _d",
      "o _́c",
      "o _ur",
      "o _ak",
      "o _ra",
      "o _hi",
      "o _un",
      "o _ff",
      "o _la",
      "o _ha",
      "o _li",
      "o _ban",
      "o _pe",
      "o _gar",
      "p _t",
      "p _c",
      "p _y",
      "p _ng",
      "p _ur",
      "p _re",
      "p _st",
      "p _ed",
      "p _fan",
      "p _iano",
      "q _c",
      "q _v",
      "r _w",
      "r _à",
      "r _ệ",
      "r _an",
      "r _ực",
      "r _ạng",
      "r _âm",
      "r _ễ",
      "r _iệp",
      "r _ạp",
      "r _ệt",
      "r _ỡ",
      "r _ust",
      "r _yan",
      "r _ick",
      "r _sp",
      "r _onald",
      "r _ese",
      "s _m",
      "s _c",
      "s _y",
      "s _ô",
      "s _ên",
      "s _ành",
      "s _eo",
      "s _àn",
      "s _ảng",
      "s _es",
      "s _et",
      "s _at",
      "s _as",
      "s _ồi",
      "s _ỹ",
      "s _ấm",
      "s _ie",
      "s _ver",
      "s _my",
      "s _int",
      "s _ci",
      "s _yd",
      "s _akis",
      "t _m",
      "t _d",
      "t _c",
      "t _ươ",
      "t _ản",
      "t _al",
      "t _en",
      "t _el",
      "t _iệm",
      "t _ắm",
      "t _win",
      "u _n",
      "u _w",
      "u _c",
      "u _k",
      "u _̈",
      "u _́t",
      "u _th",
      "u _ran",
      "u _pp",
      "u _sa",
      "u _ka",
      "u _ni",
      "u _igh",
      "v _p",
      "v _ay",
      "v _ân",
      "v _ải",
      "v _er",
      "v _ặt",
      "v _ấy",
      "v _is",
      "v _as",
      "v _ảy",
      "v _iền",
      "v _ượng",
      "v _iêm",
      "v _ern",
      "v _eg",
      "v _anda",
      "v _iếng",
      "v _ót",
      "w _e",
      "w _l",
      "w _ong",
      "w _ai",
      "w _el",
      "w _hi",
      "w _ag",
      "w _ard",
      "w _ned",
      "w _ade",
      "w _ik",
      "w _ond",
      "x _x",
      "x _t",
      "x _iê",
      "x _ong",
      "x _ổ",
      "x _ương",
      "x _áo",
      "x _ối",
      "x _ướng",
      "x _uyết",
      "x _te",
      "x _iêm",
      "x _ói",
      "x _ộn",
      "x _vi",
      "y _a",
      "y _ể",
      "y _as",
      "z _a",
      "z _o",
      "z _i",
      "z _h",
      "z _ou",
      "z _ig",
      "đ _ả",
      "đ _ạn",
      "đ _ống",
      "đ _inh",
      "đ _ính",
      "đ _ực",
      "đ _ẻ",
      "đ _ắc",
      "đ _ạc",
      "đ _iệp",
      "đ _ắp",
      "đ _ặng",
      "đ _ẳng",
      "đ _ặn",
      "_u _m",
      "_u _x",
      "_u _c",
      "_u _v",
      "_u _it",
      "_u _le",
      "_u _ta",
      "_u _te",
      "_u _ke",
      "_u _illa",
      "_u _̈m",
      "_n _k",
      "_n _y",
      "_n _au",
      "_n _al",
      "_n _ist",
      "_n _os",
      "_j _o",
      "_j _i",
      "_j _on",
      "_j _ia",
      "_j _et",
      "_j _ab",
      "_a _z",
      "_a _̃ng",
      "_a _el",
      "_a _za",
      "_a _qu",
      "_b _in",
      "_b _al",
      "_b _or",
      "_b _et",
      "_b _son",
      "_b _lin",
      "_b _orn",
      "_b _ean",
      "_b _ruk",
      "_b _lic",
      "_s _g",
      "_s _m",
      "_s _̧",
      "_s _au",
      "_s _ar",
      "_s _en",
      "_s _el",
      "_s _es",
      "_s _and",
      "_s _ur",
      "_s _ta",
      "_s _la",
      "_s _eth",
      "_s _ala",
      "_s _mo",
      "_f _a",
      "_f _y",
      "_f _al",
      "_f _as",
      "_f _ing",
      "_f _th",
      "_f _ta",
      "_f _oke",
      "_f _aw",
      "_w _c",
      "_w _an",
      "_w _ak",
      "_w _orld",
      "_w _ych",
      "_w _par",
      "_r _or",
      "_r _ro",
      "_r _ap",
      "_r _na",
      "_r _ash",
      "_r _ican",
      "_r _ray",
      "_r _ling",
      "_r _ade",
      "_r _ses",
      "_o _d",
      "_o _on",
      "_o _le",
      "_o _ver",
      "_o _da",
      "_o _tte",
      "_o _xit",
      "_o _ja",
      "_o _fan",
      "_̆ _an",
      "_g _o",
      "_g _i",
      "_g _l",
      "_g _y",
      "_g _ine",
      "_g _ow",
      "_g _ust",
      "_g _sl",
      "_g _rade",
      "_g _̆an",
      "_e _i",
      "_e _x",
      "_e _́n",
      "_e _ir",
      "_e _do",
      "_m _b",
      "_m _al",
      "_m _el",
      "_m _at",
      "_m _ur",
      "_m _os",
      "_m _ir",
      "_m _son",
      "_m _ber",
      "_m _ey",
      "_m _bai",
      "_i _o",
      "_i _́n",
      "_i _ch",
      "_i _le",
      "_i _ers",
      "_i _og",
      "_i _ola",
      "_i _chel",
      "_x _t",
      "_x _on",
      "_x _lo",
      "_x _bur",
      "_t _ong",
      "_t _ia",
      "_t _ol",
      "_t _ine",
      "_t _rig",
      "_h _ar",
      "_h _al",
      "_h _en",
      "_h _el",
      "_h _ul",
      "_h _oo",
      "_h _all",
      "_h _ey",
      "_h _ary",
      "_h _ood",
      "_h _iti",
      "_d _u",
      "_d _c",
      "_d _an",
      "_d _in",
      "_d _er",
      "_d _ern",
      "_d _ina",
      "_d _ul",
      "_d _ya",
      "_d _rig",
      "_d _wych",
      "_l _s",
      "_l _on",
      "_l _am",
      "_l _as",
      "_l _lo",
      "_l _ington",
      "_l _ni",
      "_l _gar",
      "_l _born",
      "_c _ia",
      "_c _il",
      "_c _ta",
      "_c _ord",
      "_c _tic",
      "_c _one",
      "_c _ci",
      "_c _anian",
      "_c _iano",
      "_c _fta",
      "_k _an",
      "_k _or",
      "_k _ol",
      "_k _ur",
      "_k _la",
      "_k _ir",
      "_k _ou",
      "_k _rit",
      "_y _on",
      "_y _er",
      "_y _land",
      "_y _ss",
      "_y _ns",
      "_y _uz",
      "_y _sla",
      "_v _u",
      "_v _ia",
      "_v _é",
      "_v _ol",
      "_v _ian",
      "_v _all",
      "_v _ish",
      "_v _ick",
      "_v _illa",
      "_v _aria",
      "_v _ado",
      "_v _ille",
      "_p _i",
      "_p _en",
      "_p _or",
      "_p _us",
      "_p _ern",
      "_p _ul",
      "_p _uch",
      "_p _ov",
      "_p _oulos",
      "_p _ú",
      "_z _o",
      "_z _z",
      "_z _ơ",
      "_z _am",
      "_z _el",
      "_z _ian",
      "_z _ez",
      "_z _uma",
      "_z _ich",
      "_z _yns",
      "_q _i",
      "_̈ _ng",
      "_̈ _sl",
      "_̈ _rses",
      "_ng _er",
      "_ng _la",
      "_ng _ord",
      "_ng _ary",
      "_ê _́ch",
      "th _ệ",
      "th _uy",
      "th _ỏ",
      "th _er",
      "th _ép",
      "th _ra",
      "th _ấm",
      "th _ềm",
      "th _rash",
      "_ươ _̣c",
      "tr _ống",
      "tr _inh",
      "tr _eo",
      "tr _in",
      "tr _ỏ",
      "tr _at",
      "tr _ễ",
      "tr _ạc",
      "tr _ướng",
      "tr _ồi",
      "tr _èo",
      "tr _ian",
      "tr _enton",
      "ch _ày",
      "ch _ài",
      "ch _ật",
      "ch _eo",
      "ch _ập",
      "ch _er",
      "ch _iết",
      "ch _ổi",
      "ch _ào",
      "ch _ánh",
      "ch _ội",
      "ch _as",
      "ch _án",
      "ch _ìm",
      "ch _ăng",
      "ch _ốt",
      "ch _ìa",
      "ch _ớp",
      "ch _ồm",
      "nh _i",
      "nh _k",
      "nh _ì",
      "nh _ại",
      "nh _í",
      "nh _ổ",
      "nh _ường",
      "nh _ở",
      "nh _am",
      "nh _àng",
      "nh _ặt",
      "nh _át",
      "nh _ãn",
      "nh _ấc",
[...]
