{
  "version": "1.0",
  "truncation": null,
  "padding": null,
  "added_tokens": [
    {
      "id": 0,
      "content": "<BLANK>",
      "single_word": false,
      "lstrip": false,
      "rstrip": false,
      "normalized": false,
      "special": true
    },
    {
      "id": 1,
      "content": "<S>",
      "single_word": false,
      "lstrip": false,
      "rstrip": false,
      "normalized": false,
      "special": true
    },
    {
      "id": 2,
      "content": "<UNK>",
      "single_word": false,
      "lstrip": false,
      "rstrip": false,
      "normalized": false,
      "special": true
    }
  ],
  "normalizer": {
    "type": "Sequence",
    "normalizers": [
      {
        "type": "NFD"
      },
      {
        "type": "Lowercase"
      },
      {
        "type": "Strip",
        "strip_left": true,
        "strip_right": true
      }
    ]
  },
  "pre_tokenizer": {
    "type": "Sequence",
    "pretokenizers": [
      {
        "type": "Whitespace"
      },
      {
        "type": "Digits",
        "individual_digits": true
      }
    ]
  },
  "post_processor": null,
  "decoder": null,
  "model": {
    "type": "Unigram",
    "unk_id": null,
    "vocab": [
      [
        "<BLANK>",
        0.0
      ],
      [
        "<S>",
        0.0
      ],
      [
        "<UNK>",
        0.0
      ],
      [
        "n",
        -2.755018237169173
      ],
      [
        "i",
        -3.0343987998064517
      ],
      [
        "t",
        -3.0690759559216065
      ],
      [
        "c",
        -3.29879960650808
      ],
      [
        "ng",
        -3.367714408301797
      ],
      [
        "a",
        -3.437259260694086
      ],
      [
        "g",
        -3.5629290737633745
      ],
      [
        "h",
        -3.6578655568894973
      ],
      [
        "u",
        -3.825978561938271
      ],
      [
        "o",
        -3.875930756163612
      ],
      [
        "m",
        -3.8771415386982913
      ],
      [
        "y",
        -4.100969394147679
      ],
      [
        ".",
        -4.116903014885423
      ],
      [
        "̀",
        -4.18939015249984
      ],
      [
        ",",
        -4.216640736891593
      ],
      [
        "́",
        -4.432889131561616
      ],
      [
        "và",
        -4.488782427835081
      ],
      [
        "̉",
        -4.516881142280615
      ],
      [
        "đ",
        -4.6436457236754745
      ],
      [
        "p",
        -4.653847128743158
      ],
      [
        "̣",
        -4.756712590270996
      ],
      [
        "v",
        -4.944239652521427
      ],
      [
        "là",
        -4.991573242867258
      ],
      [
        "b",
        -5.022007000204958
      ],
      [
        "củ",
        -5.070318549160719
      ],
      [
        "các",
        -5.130941457632047
      ],
      [
        "mộ",
        -5.148840687058738
      ],
      [
        "s",
        -5.168441823978326
      ],
      [
        "có",
        -5.192133123017272
      ],
      [
        "̃",
        -5.3186678500935445
      ],
      [
        "ở",
        -5.400152639773426
      ],
      [
        "l",
        -5.467496174457922
      ],
      [
        "hữ",
        -5.537524467540972
      ],
      [
        "0",
        -5.576111454149333
      ],
      [
        "đã",
        -5.586822731510915
      ],
      [
        "e",
        -5.589189093542848
      ],
      [
        "thê",
        -5.656158181006442
      ],
      [
        "độ",
        -5.668367437895645
      ],
      [
        "khô",
        -5.720422957662848
      ],
      [
        "r",
        -5.7497772878586675
      ],
      [
        "ượ",
        -5.750279068196552
      ],
      [
        "ớ",
        -5.75368139753044
      ],
      [
        "1",
        -5.814033937676039
      ],
      [
        "hàn",
        -5.850585182600457
      ],
      [
        "như",
        -5.8995743490288195
      ],
      [
        "cho",
        -5.902114519782823
      ],
      [
        "ngươ",
        -5.919968758054243
      ],
      [
        "ể",
        -5.965839264273816
      ],
      [
        "d",
        -5.96851187365892
      ],
      [
        "khi",
        -5.981454083796652
      ],
      [
        "khác",
        -6.063064095833559
      ],
      [
        "đươ",
        -6.068608608670315
      ],
      [
        "từ",
        -6.09243645675004
      ],
      [
        "k",
        -6.095969597706545
      ],
      [
        "nă",
        -6.0989444421714
      ],
      [
        "gia",
        -6.124270226842694
      ],
      [
        "họ",
        -6.128264050573626
      ],
      [
        "tron",
        -6.129777682215485
      ],
      [
        "̂",
        -6.136638907382776
      ],
      [
        "nh",
        -6.157983795216718
      ],
      [
        "số",
        -6.1604914510412305
      ],
      [
        "phá",
        -6.175893634258959
      ],
      [
        "tạ",
        -6.19480401428656
      ],
      [
        "hiệ",
        -6.261625535548434
      ],
      [
        "nà",
        -6.268591106205729
      ],
      [
        "việ",
        -6.279007334796598
      ],
      [
        "đị",
        -6.291061148798926
      ],
      [
        "̣c",
        -6.291943239919998
      ],
      [
        "ch",
        -6.3220474859473015
      ],
      [
        "bạ",
        -6.323276995472422
      ],
      [
        "ra",
        -6.345712378682353
      ],
      [
        "ba",
        -6.367245846663292
      ],
      [
        "sư",
        -6.371303687960127
      ],
      [
        "đế",
        -6.384876084469582
      ],
      [
        "ề",
        -6.394013326163079
      ],
      [
        "lạ",
        -6.397790101498104
      ],
      [
        "the",
        -6.400967668208984
      ],
      [
        "2",
        -6.403049071968714
      ],
      [
        "đó",
        -6.415357917184254
      ],
      [
        "ên",
        -6.419827348810616
      ],
      [
        "đầ",
        -6.425750085971412
      ],
      [
        "vậ",
        -6.439050619816196
      ],
      [
        "trê",
        -6.4488764037345
      ],
      [
        "ườ",
        -6.455594404450191
      ],
      [
        "rong",
        -6.466862637079911
      ],
      [
        "à",
        -6.4733294199354265
      ],
      [
        "(",
        -6.4957346946885925
      ],
      [
        "qua",
        -6.504414550956392
      ],
      [
        "se",
        -6.5168080323390125
      ],
      [
        "nhấ",
        -6.518259353014574
      ],
      [
        "hơ",
        -6.531547940794801
      ],
      [
        "ố",
        -6.538937132112965
      ],
      [
        "thứ",
        -6.546345664922877
      ],
      [
        "dụ",
        -6.5522836416540855
      ],
      [
        "quan",
        -6.584730783297238
      ],
      [
        "ộ",
        -6.5885284707712675
      ],
      [
        "ky",
        -6.607894604713969
      ],
      [
        "hoạ",
        -6.6104686441719664
      ],
      [
        "thươ",
        -6.625110527577209
      ],
      [
        "hiề",
        -6.63470436966108
      ],
      [
        "phả",
        -6.642179345154564
      ],
      [
        "chú",
        -6.651255987565946
      ],
      [
        "bắ",
        -6.6734433848819465
      ],
      [
        "nướ",
        -6.68311650830935
      ],
      [
        "cũ",
        -6.68356994301544
      ],
      [
        "thư",
        -6.687116309372072
      ],
      [
        "ấ",
        -6.691149260428093
      ],
      [
        "đạ",
        -6.694127140734995
      ],
      [
        "nhà",
        -6.699809384830082
      ],
      [
        "đề",
        -6.708920820900785
      ],
      [
        "khu",
        -6.709439965501151
      ],
      [
        "chiế",
        -6.711622988690414
      ],
      [
        "-",
        -6.71546958553347
      ],
      [
        "mặ",
        -6.720530536949401
      ],
      [
        "ằn",
        -6.720792889845857
      ],
      [
        "chín",
        -6.723349938486113
      ],
      [
        "nhậ",
        -6.738551607881682
      ],
      [
        "vơ",
        -6.752856273491848
      ],
      [
        "tiế",
        -6.7556731231720635
      ],
      [
        "chỉ",
        -6.765870200900856
      ],
      [
        "thờ",
        -6.773827659464751
      ],
      [
        ")",
        -6.775165034184147
      ],
      [
        "la",
        -6.77999703650279
      ],
      [
        "biế",
        -6.784921627129358
      ],
      [
        "9",
        -6.785948753193082
      ],
      [
        "ần",
        -6.791935036338496
      ],
      [
        "bi",
        -6.8042615994291555
      ],
      [
        "sau",
        -6.804873707507061
      ],
      [
        "côn",
        -6.808068595155708
      ],
      [
        "trươ",
        -6.8089063539195545
      ],
      [
        "ặ",
        -6.821156959611963
      ],
      [
        "cả",
        -6.834349165604764
      ],
      [
        "giả",
        -6.835403597560559
      ],
      [
        "giá",
        -6.850582354376148
      ],
      [
        "ế",
        -6.852337469851515
      ],
      [
        "hìn",
        -6.853916366010092
      ],
      [
        "ăn",
        -6.862487626387013
      ],
      [
        "uố",
        -6.863567179956652
      ],
      [
        "kế",
        -6.869317571164238
      ],
      [
        "5",
        -6.883899184226003
      ],
      [
        "hế",
        -6.898343774113863
      ],
      [
        "trướ",
        -6.898807331372066
      ],
      [
        "chứ",
        -6.901435558631268
      ],
      [
        "tố",
        -6.909412965422874
      ],
      [
        "sử",
        -6.9095346504258375
      ],
      [
        "ho",
        -6.920065649674774
      ],
      [
        "\"\"",
        -6.923455270951808
      ],
      [
        "rấ",
        -6.931491838557138
      ],
      [
        "trơ",
        -6.933722874301596
      ],
      [
        "tha",
        -6.936102444686932
      ],
      [
        "điể",
        -6.936702252774033
      ],
      [
        "điề",
        -6.968466530785604
      ],
      [
        "du",
        -6.980404329408165
      ],
      [
        "x",
        -6.981679462484882
      ],
      [
        "bản",
        -6.982917023992134
      ],
      [
        "đê",
        -6.985532042364643
      ],
      [
        "ngà",
        -6.999031593919477
      ],
      [
        "3",
        -7.002521274814861
      ],
      [
        "ơ",
        -7.003326943704609
      ],
      [
        "dù",
        -7.0182928163996605
      ],
      [
        "6",
        -7.022878167941878
      ],
      [
        "sá",
        -7.026988921567417
      ],
      [
        "4",
        -7.028032807117135
      ],
      [
        "ôn",
        -7.03104942284589
      ],
      [
        "thôn",
        -7.0341055203312495
      ],
      [
        "ự",
        -7.036404369284559
      ],
      [
        "tro",
        -7.047317533972766
      ],
      [
        "hó",
        -7.052971150647886
      ],
      [
        "nhiê",
        -7.0554383208734714
      ],
      [
        "cầ",
        -7.061791101613823
      ],
      [
        "trì",
        -7.064213310675659
      ],
      [
        "phí",
        -7.072440603287986
      ],
      [
        "q",
        -7.076835620155247
      ],
      [
        "chuyê",
        -7.078649903725524
      ],
      [
        "cuộ",
        -7.079386675495104
      ],
      [
        "xe",
        -7.0872066125290125
      ],
      [
        "8",
        -7.092054513868714
      ],
      [
        "̀n",
        -7.092722219734238
      ],
      [
        "nó",
        -7.094594403988477
      ],
      [
        "cá",
        -7.101707125886248
      ],
      [
        "hươ",
        -7.108321255571661
      ],
      [
        "đặ",
        -7.127189564485235
      ],
      [
        "đấ",
        -7.134034847873742
      ],
      [
        "tru",
        -7.149339368757377
      ],
      [
        "tiê",
        -7.150099405497978
      ],
      [
        "ổ",
        -7.151778748911919
      ],
      [
        "thấ",
        -7.177177992662069
      ],
      [
        "ền",
        -7.181168468580798
      ],
      [
        "viê",
        -7.18266214761597
      ],
      [
        "sa",
        -7.183425622316322
      ],
      [
        "hợ",
        -7.187530000950182
      ],
      [
        "́p",
        -7.191399308181855
      ],
      [
        "vụ",
        -7.192174149839904
      ],
      [
        "lớ",
        -7.194876330724075
      ],
      [
        "biể",
        -7.197481649836531
      ],
      [
        "th",
        -7.200859080094099
      ],
      [
        "đâ",
        -7.201167737873675
      ],
      [
        "ó",
        -7.207060510675024
      ],
      [
        "mà",
        -7.208885653499543
      ],
      [
        "dân",
        -7.223442425495247
      ],
      [
        "bá",
        -7.237959450544224
      ],
      [
        "liên",
        -7.241453845688907
      ],
      [
        "ha",
        -7.2590923797500455
      ],
      [
        "giữ",
        -7.263277986456232
      ],
      [
        "phâ",
        -7.269937955847409
      ],
      [
        "nha",
        -7.270821237291404
      ],
      [
        "tiến",
        -7.27322668147256
      ],
      [
        "khoản",
        -7.276821023802374
      ],
      [
        "nhâ",
        -7.28196485024756
      ],
      [
        "đố",
        -7.297662692798304
      ],
      [
        "đườ",
        -7.297892345594571
      ],
      [
        "ữ",
        -7.299502962787473
      ],
      [
        "ứ",
        -7.307806402320237
      ],
      [
        "tr",
        -7.308131017528954
      ],
      [
        "châ",
        -7.317081926345189
      ],
      [
        "vi",
        -7.318092675811886
      ],
      [
        "cấ",
        -7.321677746220271
      ],
      [
        "ướ",
        -7.322461525314119
      ],
      [
        "tra",
        -7.326372873801853
      ],
      [
        "hỏ",
        -7.335589765798762
      ],
      [
        "co",
        -7.33668753832184
      ],
      [
        "hiể",
        -7.338466033901842
      ],
      [
        "hệ",
        -7.346286847640714
      ],
      [
        "chấ",
        -7.3540627176970705
      ],
      [
        "7",
        -7.355244690047745
      ],
      [
        "vự",
        -7.363012878088234
      ],
      [
        "“",
        -7.376984581536648
      ],
      [
        "đô",
        -7.390810081379983
      ],
      [
        "qu",
        -7.393227821323049
      ],
      [
        "hạ",
        -7.396424810835696
      ],
      [
        "dự",
        -7.397056660613063
      ],
      [
        "hộ",
        -7.411631705240408
      ],
      [
        "ườn",
        -7.411874401561979
      ],
      [
        "\"",
        -7.4155235285086825
      ],
      [
        "ô",
        -7.419593281722833
      ],
      [
        "tự",
        -7.419748347620842
      ],
      [
        "loạ",
        -7.434250651492611
      ],
      [
        "bă",
        -7.440162872705653
      ],
      [
        "cử",
        -7.444612329031174
      ],
      [
        "cứ",
        -7.455204802736539
      ],
      [
        "tâ",
        -7.457037692888561
      ],
      [
        "̆",
        -7.4579549111113055
      ],
      [
        "hầ",
        -7.462846464621018
      ],
      [
        "vẫ",
        -7.465783068571449
      ],
      [
        "inh",
        -7.475687619072398
      ],
      [
        "xuâ",
        -7.475924214317237
      ],
      [
        "má",
        -7.483686652640303
      ],
      [
        "lự",
        -7.4851942164064384
      ],
      [
        "ản",
        -7.492555050024049
      ],
      [
        "thu",
        -7.504768588557332
      ],
      [
        "phố",
        -7.508299297086143
      ],
      [
        "tư",
        -7.512229410546516
      ],
      [
        "đứ",
        -7.51457013846785
      ],
      [
        "tín",
        -7.520952816589555
      ],
      [
        "đả",
        -7.522683601191761
      ],
      [
        "tuyế",
        -7.5237376972508585
      ],
      [
        "phươ",
        -7.531403319693988
      ],
      [
        "truy",
        -7.532156585155089
      ],
      [
        "cơ",
        -7.53487214322805
      ],
      [
        "â",
        -7.5399124039716705
      ],
      [
        "giơ",
        -7.540371102860557
      ],
      [
        "phi",
        -7.550517858638109
      ],
      [
        "biệ",
        -7.554172231442681
      ],
      [
        "nghĩ",
        -7.554394878368725
      ],
      [
        "thiế",
        -7.558128728205937
      ],
      [
        "gồ",
        -7.560138919964661
      ],
      [
        "vù",
        -7.560273737799894
      ],
      [
        "iên",
        -7.566083546845064
      ],
      [
        "thá",
        -7.568534473454512
      ],
      [
        "luậ",
        -7.580182814345511
      ],
      [
        ":",
        -7.588292499064187
      ],
      [
        "quâ",
        -7.593627984759496
      ],
      [
        "thán",
        -7.59374019965802
      ],
      [
        "ạn",
        -7.598689920083177
      ],
      [
        "do",
        -7.599274594546343
      ],
      [
        "bả",
        -7.5996071304859525
      ],
      [
        "lo",
        -7.600828957895655
      ],
      [
        "thủ",
        -7.607068253008162
      ],
      [
        "ốn",
        -7.615815199843395
      ],
      [
        "gọ",
        -7.622926787109085
      ],
      [
        "mù",
        -7.626628115293588
      ],
      [
        "ến",
        -7.62964593369977
      ],
      [
        "cô",
        -7.634394339649113
      ],
      [
        "dươ",
        -7.636726090812358
      ],
      [
        "nghiệ",
        -7.638219375113252
      ],
      [
        "phụ",
        -7.64679490360962
      ],
      [
        "lượn",
        -7.647052097448454
      ],
      [
        "thị",
        -7.652074311358679
      ],
      [
        "trạ",
        -7.653400383876825
      ],
      [
        "trọ",
        -7.658112612570096
      ],
      [
        "đồn",
        -7.6583677956058525
      ],
      [
        "tươ",
        -7.6619476482450075
      ],
      [
        "dà",
        -7.663242798568866
      ],
      [
        "đa",
        -7.6766317523095156
      ],
      [
        "ử",
        -7.678676544241364
      ],
      [
        "đán",
        -7.679599667174362
      ],
      [
        "tấ",
        -7.681375000320285
      ],
      [
        "câ",
        -7.684729862945907
      ],
      [
        "chủ",
        -7.695502112155253
      ],
      [
        "cản",
        -7.6955693085754815
      ],
      [
        "tì",
        -7.697615813752159
      ],
      [
        "mìn",
        -7.706007054070365
      ],
      [
        "ngô",
        -7.71442247721931
      ],
      [
        "ờ",
        -7.714594046445304
      ],
      [
        "tổ",
        -7.717868532718817
      ],
      [
        "kiệ",
        -7.7183924097964445
      ],
      [
        "đổ",
        -7.721168925907871
      ],
      [
        "hoa",
        -7.725520647071858
      ],
      [
        "́c",
        -7.726335401740047
      ],
      [
        ".\"",
        -7.729086338932254
      ],
      [
        "li",
        -7.742971271861924
      ],
      [
        "hai",
        -7.744354069727662
      ],
      [
        "tuy",
        -7.751641935741181
      ],
      [
        "ấn",
        -7.7535262687533875
      ],
      [
        "mô",
        -7.754042379583102
      ],
      [
        "ìn",
        -7.754550667063481
      ],
      [
        "kiể",
        -7.7564816236790195
      ],
      [
        "chi",
        -7.758435215097227
      ],
      [
        "ệ",
        -7.761247781743744
      ],
      [
        "vă",
        -7.774782689507932
      ],
      [
        "di",
        -7.778298298653297
      ],
      [
        "diễ",
        -7.789793416446083
      ],
      [
        "hã",
        -7.7898467851839115
      ],
      [
        "vị",
        -7.791329300713765
      ],
      [
        "kiế",
        -7.79240782252641
      ],
      [
        "oàn",
        -7.800095346608629
      ],
      [
        "bệ",
        -7.802067736302145
      ],
      [
        "nế",
        -7.802234309530844
      ],
      [
        "ơn",
        -7.80358189285818
      ],
      [
        "mọ",
        -7.804864882355826
      ],
      [
        "khả",
        -7.806388203437715
      ],
      [
        "”",
        -7.8090377743251365
      ],
      [
        "quy",
        -7.809096500989533
      ],
      [
        "ay",
        -7.811164440597051
      ],
      [
        "điệ",
        -7.811661178620502
      ],
      [
        "gian",
        -7.816166590681877
      ],
      [
        "quá",
        -7.8166039132756575
      ],
      [
        "lư",
        -7.8177761483001476
      ],
      [
        "bầ",
        -7.822113640990063
      ],
      [
        "dị",
        -7.822610028848345
      ],
      [
        "tri",
        -7.824605456479688
      ],
      [
        "lâ",
        -7.828472422580917
      ],
      [
        "ly",
        -7.829170814309556
      ],
      [
        "quyê",
        -7.831233015748825
      ],
      [
        "òn",
        -7.831386599946498
      ],
      [
        "đư",
        -7.833583897791554
      ],
      [
        "khỏ",
        -7.835332906013623
      ],
      [
        "ạ",
        -7.837744947152156
      ],
      [
        "tậ",
        -7.843860408964243
      ],
      [
        "pho",
        -7.843889028587105
      ],
      [
        "dàn",
        -7.843979222186795
      ],
      [
        "yê",
        -7.845461446848434
      ],
      [
        "đồ",
        -7.847030336536869
      ],
      [
        "lê",
        -7.84869794210725
      ],
      [
        "đá",
        -7.857181930962574
      ],
      [
        "tác",
        -7.857493906835394
      ],
      [
        "chu",
        -7.858314119843314
      ],
      [
        "ban",
        -7.859651860982086
      ],
      [
        "iệ",
        -7.865348698249876
      ],
      [
        "giờ",
        -7.869893837670202
      ],
      [
        "huộ",
        -7.874303121144398
      ],
      [
        "mạn",
        -7.874816105401404
      ],
      [
        "so",
        -7.875534830065407
      ],
      [
        "hoàn",
        -7.875687164939883
      ],
      [
        "ậ",
        -7.876477289122937
      ],
      [
        "con",
        -7.8766216237965025
      ],
      [
        "tran",
        -7.881676662127486
      ],
      [
        "nguyê",
        -7.88169782177674
      ],
      [
        "xác",
        -7.897470589215334
      ],
      [
        "trí",
        -7.897965292515829
      ],
      [
        "iền",
        -7.898554856087667
      ],
      [
        "xâ",
        -7.900551450401758
      ],
      [
        "ễ",
        -7.909579321993252
      ],
      [
        "thậ",
        -7.916402047638463
      ],
      [
        "bố",
        -7.918980554842758
      ],
      [
        "sin",
        -7.9299894338503405
      ],
      [
        "hà",
        -7.930822295485055
      ],
      [
        "̛",
        -7.9312010578716
      ],
      [
        "tin",
        -7.931651356866896
      ],
      [
        "loa",
        -7.931737932449981
      ],
      [
        "va",
        -7.933561574105292
      ],
      [
        "mang",
        -7.9335931715781784
      ],
      [
        "triê",
        -7.936506442964208
      ],
      [
        ").",
        -7.938810673121606
      ],
      [
        "trá",
        -7.940245406120112
      ],
      [
        "ác",
        -7.940491245952115
      ],
      [
        "nữ",
        -7.949976260729775
      ],
      [
        "phe",
        -7.9500551030619055
      ],
      [
        "cố",
        -7.950446406049562
      ],
      [
        "thi",
        -7.960750079353255
      ],
      [
        "khoa",
        -7.969481856125132
      ],
      [
        "ngoa",
        -7.972111301616445
      ],
      [
        "uyệ",
        -7.974995851080856
      ],
      [
        "thuậ",
        -7.975806784934162
      ],
      [
        "hồ",
        -7.98976125107937
      ],
      [
        "vê",
        -7.9902900866713145
      ],
      [
        "khó",
        -7.991212760966094
      ],
      [
        "khá",
        -7.998104568497323
      ],
      [
        "quả",
        -8.00708536956838
      ],
      [
        "ẽ",
        -8.010283048195127
      ],
      [
        "hạn",
        -8.012172110573788
      ],
      [
        "sán",
        -8.027898524984128
      ],
      [
        "thô",
        -8.029805303177111
      ],
      [
        "tre",
        -8.041732966280282
      ],
      [
        "tô",
        -8.042231800913935
      ],
      [
        "á",
        -8.043407798161875
      ],
      [
        "nam",
        -8.04382863226476
      ],
      [
        "ị",
        -8.044079179948163
      ],
      [
        "/",
        -8.051976053955809
      ],
      [
        "kín",
        -8.055091018111558
      ],
      [
        "̉n",
        -8.066230495921717
      ],
      [
        "ỗ",
        -8.067516672925795
      ],
      [
        "khí",
        -8.068502885158479
      ],
      [
        "land",
        -8.070296533803177
      ],
      [
        "thí",
        -8.073317750398772
      ],
      [
        "đôn",
        -8.074932563520271
      ],
      [
        "xem",
        -8.088428923530497
      ],
      [
        "àn",
        -8.091080063760375
      ],
      [
        "ta",
        -8.091318828107369
      ],
      [
        "bà",
        -8.096999703219591
      ],
      [
        "án",
        -8.102477253688456
      ],
      [
        "ro",
        -8.111013169437673
      ],
      [
        "lầ",
        -8.11109156091024
      ],
      [
        "ă",
        -8.113585265378891
      ],
      [
        "tuyê",
        -8.114717097302645
      ],
      [
        "tà",
        -8.114769159962055
      ],
      [
        "thâ",
        -8.117660066511904
      ],
      [
        "hốn",
        -8.125133964230509
      ],
      [
        "hư",
        -8.134168571526645
      ],
      [
        "ph",
        -8.136815717853503
      ],
      [
        "ma",
        -8.13791460151355
      ],
      [
        "le",
        -8.138645381760977
      ],
      [
        ";",
        -8.142261193602398
      ],
      [
        "ươ",
        -8.148326266842393
      ],
      [
        "ră",
        -8.148567141112213
      ],
      [
        "bỏ",
        -8.152991461682475
      ],
      [
        "bã",
        -8.167228986702991
      ],
      [
        "phu",
        -8.167734807070222
      ],
      [
        "trả",
        -8.169593705918963
      ],
      [
        "ca",
        -8.176070928153688
      ],
      [
        "ang",
        -8.178182977629714
      ],
      [
        "só",
        -8.178978883165867
      ],
      [
        "ve",
        -8.180358354226723
      ],
      [
        "cu",
        -8.1835801479036
      ],
      [
        "trư",
        -8.190065464791438
      ],
      [
        "nơ",
        -8.191928972415683
      ],
      [
        "hỗ",
        -8.192898960666135
      ],
      [
        "dặ",
        -8.194461004189098
      ],
      [
        "đi",
        -8.202103954444112
      ],
      [
        "chế",
        -8.202233231076221
      ],
      [
        "pha",
        -8.205056987435842
      ],
      [
        "bón",
        -8.20770597978248
      ],
      [
        "nghiên",
        -8.208021938584523
      ],
      [
        "gắn",
        -8.20812822594035
      ],
      [
        "re",
        -8.20950762146068
      ],
      [
        "chạ",
        -8.213351030648575
      ],
      [
        "dẫ",
        -8.219213634346954
      ],
      [
        "bì",
        -8.22681720194658
      ],
      [
        "thú",
        -8.228984917225993
      ],
      [
        "ư",
        -8.229034710680432
      ],
      [
        "sản",
        -8.233576313027177
      ],
      [
        "lượ",
        -8.243195885609737
      ],
      [
        "xa",
        -8.244490119083682
      ],
      [
        "phạ",
        -8.254944785530766
      ],
      [
        "sô",
        -8.258535946822038
      ],
      [
        "đà",
        -8.261430692217118
      ],
      [
        "hô",
        -8.262527212471923
      ],
      [
        "gâ",
        -8.262829830078632
      ],
      [
        "da",
        -8.265556764617852
      ],
      [
        "giu",
        -8.27235022971801
      ],
      [
        "nhiệ",
        -8.272415829821352
      ],
      [
        "hiế",
        -8.279429405257142
      ],
      [
        "dạ",
        -8.285597243299971
      ],
      [
        "nổ",
        -8.289552392076835
      ],
      [
        "rộn",
        -8.290239188065433
      ],
      [
        "ké",
        -8.293154740331538
      ],
      [
        "bê",
        -8.300580239560333
      ],
      [
        "min",
        -8.308521895619345
      ],
      [
        "ầ",
        -8.309511158442662
      ],
      [
        "kh",
        -8.31332394911112
      ],
      [
        "trậ",
        -8.315509364291877
      ],
      [
        "cuố",
        -8.322184175575574
      ],
      [
        "ê",
        -8.322254360105028
      ],
      [
        "duy",
        -8.327114121912462
      ],
      [
        "chơ",
        -8.329053335525494
      ],
      [
        "liệ",
        -8.32989846648982
      ],
      [
        "cự",
        -8.33295555410771
      ],
      [
        "vấ",
        -8.33381497877499
      ],
      [
        "dã",
        -8.338845813907717
      ],
      [
        "cậ",
        -8.346859722189876
      ],
      [
        "f",
        -8.350846829597968
      ],
      [
        "hẳn",
        -8.356327045784546
      ],
      [
        "uốn",
        -8.356896511714673
      ],
      [
        "lệ",
        -8.357594853357625
      ],
      [
        "ung",
        -8.363129271013548
      ],
      [
        "tră",
        -8.367551373457726
      ],
      [
        "riê",
        -8.367914407826177
      ],
      [
        "cắ",
        -8.373040529747415
      ],
      [
        "hướ",
        -8.373702509870123
      ],
      [
        "riệ",
        -8.37474880410014
      ],
      [
        "mư",
        -8.377615241870059
      ],
      [
        "sắ",
        -8.38332580803156
      ],
      [
        "quần",
        -8.383449349704518
      ],
      [
        "ke",
        -8.383979677150972
      ],
      [
        "kin",
        -8.397287761878443
      ],
      [
        "uồn",
        -8.399725641862931
      ],
      [
        "viế",
        -8.401516286710969
      ],
      [
        "quyế",
        -8.4042984367739
      ],
      [
        "mắ",
        -8.4052380993248
      ],
      [
        "bán",
        -8.413480875502325
      ],
      [
        "hiên",
        -8.414224306873859
      ],
      [
        "cư",
        -8.416365938421123
      ],
      [
        "căn",
        -8.418538567250211
      ],
      [
        "ện",
        -8.421235647507569
      ],
      [
        "ằ",
        -8.42584405450365
      ],
      [
        "dò",
        -8.428931335507897
      ],
      [
        "nghi",
        -8.431526811764167
      ],
      [
        "thầ",
        -8.43963571249901
      ],
      [
        "rơ",
        -8.4443932257733
      ],
      [
        "gầ",
        -8.448154005308764
      ],
      [
        "yế",
        -8.452019925394529
      ],
      [
        "huyế",
        -8.452878707229486
      ],
      [
        "să",
        -8.458426389150297
      ],
      [
        "que",
        -8.458950075834462
      ],
      [
        "nguy",
        -8.46909333669435
      ],
      [
        "ùn",
        -8.472723956038806
      ],
      [
        "giấ",
        -8.474129453521362
      ],
      [
        "chư",
        -8.47721562398589
      ],
      [
        "ồn",
        -8.48256066449251
      ],
      [
        "già",
        -8.483832164135869
      ],
      [
        "bơ",
        -8.486716981190625
      ],
      [
        "new",
        -8.487370516779976
      ],
      [
        "thă",
        -8.488564564326722
      ],
      [
        "toà",
        -8.490362453850068
      ],
      [
        "xả",
        -8.491703620626662
      ],
      [
        "thả",
        -8.493018066757063
      ],
      [
        "lá",
        -8.496676175338614
      ],
      [
        "̂̉n",
        -8.50049539689239
      ],
      [
        "ủ",
        -8.501121177605194
      ],
      [
        "lợ",
        -8.50862649662137
      ],
      [
        "gi",
        -8.519936832304861
      ],
      [
        "khiế",
        -8.52390687695851
      ],
      [
        "tay",
        -8.533320703472816
      ],
      [
        "ki",
        -8.53628846644823
      ],
      [
        "sứ",
        -8.539337475414785
      ],
      [
        "thắn",
        -8.543804921920225
      ],
      [
        "chố",
        -8.562911128968627
      ],
      [
        "lú",
        -8.58559431902879
      ],
      [
        "thổ",
        -8.599839932260284
      ],
      [
        "w",
        -8.60009336391375
      ],
      [
        "oà",
        -8.602492939915654
      ],
      [
        "đoạ",
        -8.603095258918014
      ],
      [
        "vô",
        -8.607026044656013
      ],
      [
        "gặ",
        -8.612465950954299
      ],
      [
        "ngư",
        -8.61555431324811
      ],
      [
        "quản",
        -8.615869028615604
      ],
      [
        "ọ",
        -8.62970029924302
      ],
      [
        "hả",
        -8.62986883981727
      ],
      [
        "sâ",
        -8.63047482073398
      ],
      [
        "dọ",
        -8.632533587547128
      ],
      [
        "phú",
        -8.633205161756681
      ],
      [
        "phô",
        -8.637154883000402
      ],
      [
        "̃n",
        -8.638365838149491
      ],
      [
        "rượ",
        -8.64660262926986
      ],
      [
        "ừ",
        -8.656243084505252
      ],
      [
        "ồ",
        -8.656777299304169
      ],
      [
        "”.",
        -8.657097491885931
      ],
      [
        "thuyê",
        -8.668151867295895
      ],
      [
        "uần",
        -8.673262027373482
      ],
      [
        "xuyê",
        -8.673818665699002
      ],
      [
        "sơ",
        -8.681729682374401
      ],
      [
        "tổn",
        -8.690217854041059
      ],
      [
        "lô",
        -8.690421618109408
      ],
      [
        "kim",
        -8.691902808633849
      ],
      [
        "tắ",
        -8.697618630501944
      ],
      [
        "môn",
        -8.703593759194728
      ],
      [
        "iể",
        -8.709647188022654
      ],
      [
        "dan",
        -8.712650104938682
      ],
      [
        "rừ",
        -8.718392881496882
      ],
      [
        "ả",
        -8.722619109448692
      ],
      [
        "web",
        -8.725454912990923
      ],
      [
        "xế",
        -8.725925105763757
      ],
      [
        "trú",
        -8.726241543319217
      ],
      [
        "chị",
        -8.73130169291281
      ],
      [
        "thiệ",
        -8.73254594587064
      ],
      [
        "dấ",
        -8.735375727197358
      ],
      [
        "ngoạ",
        -8.738322756079107
      ],
      [
        "uộ",
        -8.74024942609288
      ],
      [
        "ã",
        -8.7425930984779
      ],
      [
        "hậ",
        -8.74416893311092
      ],
      [
        "ắ",
        -8.74419171412396
      ],
      [
        "hủ",
        -8.747654315251165
      ],
      [
        "mã",
        -8.74821766648441
      ],
      [
        "mấ",
        -8.749689237807548
      ],
      [
        "mạ",
        -8.752967063188452
      ],
      [
        "xư",
        -8.759494549940325
      ],
      [
        "xin",
        -8.761787530352358
      ],
      [
        "kê",
        -8.766425523567642
      ],
      [
        "kha",
        -8.768108914175235
      ],
      [
        "đơ",
        -8.770346562156485
      ],
      [
        "trò",
        -8.78172361375306
      ],
      [
        "ân",
        -8.783076196200726
      ],
      [
        "khắ",
        -8.784810103091624
      ],
      [
        "ẩ",
        -8.787146612717935
      ],
      [
        "ngàn",
        -8.78743812525527
      ],
      [
        "vid",
        -8.796143358491554
      ],
      [
        "hú",
        -8.806030284330058
      ],
      [
        "hì",
        -8.806563005623715
      ],
      [
        "lộ",
        -8.809599300984017
      ],
      [
        "cụ",
        -8.813549820466584
      ],
      [
        "chí",
        -8.81410911897613
      ],
      [
        "ti",
        -8.817449482745314
      ],
      [
        "nghiê",
        -8.834711563384024
      ],
      [
        "su",
        -8.839225142572154
      ],
      [
        "phó",
        -8.83983007381634
      ],
      [
        "chụ",
        -8.840450300624164
      ],
      [
        "bốn",
        -8.841758838756823
      ],
      [
        "istan",
        -8.85030522207213
      ],
      [
        "buô",
        -8.850514513707918
      ],
      [
        "bo",
        -8.855101407530974
      ],
      [
        "xu",
        -8.866410338471601
      ],
      [
        "an",
        -8.868186609360253
      ],
      [
        "gio",
        -8.878921080571942
      ],
      [
        "nter",
        -8.883308234432945
      ],
      [
        "bàn",
        -8.884404009332698
      ],
      [
        "áp",
        -8.88513251597817
      ],
      [
        "hấ",
        -8.885339891862555
      ],
      [
        "lố",
        -8.888759038065118
      ],
      [
        "vu",
        -8.89396716330315
      ],
      [
        "chọ",
        -8.909901308796005
      ],
      [
        "mươ",
        -8.911768832839451
      ],
      [
        "xé",
        -8.916197914721012
      ],
      [
        "chắ",
        -8.926920452185946
      ],
      [
        "phon",
        -8.929264925842428
      ],
      [
        "ham",
        -8.934252246758419
      ],
      [
        "tộ",
        -8.937072366772203
      ],
      [
        "phê",
        -8.938997017825503
      ],
      [
        "chua",
        -8.946686336093244
      ],
      [
        "lấ",
        -8.948650616794719
      ],
      [
        "de",
        -8.952406481370538
      ],
      [
        "hò",
        -8.95358062421954
      ],
      [
        "lãn",
        -8.954039608530744
      ],
      [
        "món",
        -8.95471497377629
      ],
      [
        "per",
        -8.96301890873262
      ],
      [
        "ỡ",
        -8.963505061238942
      ],
      [
        "muố",
        -8.964982670665572
      ],
      [
        "nghị",
        -8.974042430710806
      ],
      [
        "si",
        -8.974434472518544
      ],
      [
        "er",
        -8.976041980754317
      ],
      [
        "̂̀n",
        -8.976347930216185
      ],
      [
        "xô",
        -8.976495135318023
      ],
      [
        "hứ",
        -8.980849591916641
      ],
      [
        "che",
        -8.984042051790443
      ],
      [
        "john",
        -8.987886511823719
      ],
      [
        "he",
        -8.996934327414888
      ],
      [
        "hố",
        -9.000079423094702
      ],
      [
        "thiên",
        -9.00413598676949
      ],
      [
        "tí",
        -9.004965113611568
      ],
      [
        "iê",
        -9.008002663119413
      ],
      [
        "than",
        -9.023758758345481
      ],
      [
        "tiệ",
        -9.024160632565378
      ],
      [
        "cộ",
        -9.032243111854484
      ],
      [
        "ộn",
        -9.033277324239993
      ],
      [
        "uô",
        -9.03364254339287
      ],
      [
        "vò",
        -9.036087253919193
      ],
      [
        "tụ",
        -9.037114940211612
      ],
      [
        "ze",
        -9.038077110739207
      ],
      [
        "thụ",
        -9.03847182271695
      ],
      [
        "ri",
        -9.04036401579483
      ],
      [
        "nộ",
        -9.05137527217768
      ],
      [
        "es",
        -9.05573468227351
      ],
      [
        "hự",
        -9.057653080674129
      ],
      [
        "olympic",
        -9.057997848230377
      ],
      [
        "lạc",
        -9.064769940576802
      ],
      [
        "leo",
        -9.06907785531508
      ],
      [
        "dố",
        -9.070271991019748
      ],
      [
        "na",
        -9.070531193084964
      ],
      [
        "hẹ",
        -9.07484120333399
      ],
      [
        "xuô",
        -9.075092742628442
      ],
      [
        "mè",
        -9.075389304737671
      ],
      [
        "mơ",
        -9.07829944705031
      ],
      [
        ".\"\"",
        -9.078509426571433
      ],
      [
        "lỗ",
        -9.083040589340191
      ],
      [
        "xoa",
        -9.09051502992967
      ],
      [
        "nghe",
        -9.105436769969328
      ],
      [
        "kho",
        -9.111474776230738
      ],
      [
        "ợ",
        -9.120246168651278
      ],
      [
        "biê",
        -9.134068416313156
      ],
      [
        "lò",
        -9.1353993237543
      ],
      [
        "đo",
        -9.135499912371632
      ],
      [
        "hung",
        -9.136044832882677
      ],
      [
        "huy",
        -9.136493845628687
      ],
      [
        "z",
        -9.137487914538703
      ],
      [
        "khẩ",
        -9.151716869805966
      ],
      [
        "iề",
        -9.154439974121084
      ],
      [
        "vượ",
        -9.157966393523157
      ],
      [
        "gì",
        -9.16333818205112
      ],
      [
        "ý",
        -9.165926457700673
      ],
      [
        "đe",
        -9.167422559313714
      ],
      [
        "dầ",
        -9.16778694628001
      ],
      [
        "iế",
        -9.16986465901519
      ],
      [
        "hâ",
        -9.171309887811056
      ],
      [
        "phù",
        -9.173369612308765
      ],
      [
        "ẫ",
        -9.19047324446285
      ],
      [
        "green",
        -9.19123530992201
      ],
      [
        "trụ",
        -9.204508664235345
      ],
      [
        "bổ",
        -9.206219296213671
      ],
      [
        "iến",
        -9.207837601243437
      ],
      [
        "lơ",
        -9.209466659078242
      ],
      [
        "nhạ",
        -9.215038212377591
      ],
      [
        "chặn",
        -9.216283335168729
      ],
      [
        "nga",
        -9.220270263754042
      ],
      [
        "tá",
        -9.223975580489025
      ],
      [
        "́n",
        -9.227896413586135
      ],
      [
        "rậ",
        -9.229210258374584
      ],
      [
        "̂̉",
        -9.230931187351501
      ],
      [
        "thuê",
        -9.23104252170599
      ],
      [
        "kí",
        -9.235971248335602
      ],
      [
        "̂́",
        -9.2454111956646
      ],
      [
        "ngủ",
        -9.25319403111223
      ],
      [
        "̂n",
        -9.25454703401242
      ],
      [
        "phiê",
        -9.25555189806558
      ],
      [
        "nặn",
        -9.264948623471733
      ],
      [
        "lu",
        -9.269679654948341
      ],
      [
        "bư",
        -9.271705918838535
      ],
      [
        "ong",
        -9.27600082455355
      ],
      [
        "hòn",
        -9.276825126567736
      ],
      [
        "quê",
        -9.278086007005651
      ],
      [
        "hờ",
        -9.2788198785439
      ],
      [
        "cha",
        -9.281494154249863
      ],
      [
        "dư",
        -9.285121776107092
      ],
      [
        "lũ",
        -9.291900621548923
      ],
      [
        "ì",
        -9.306441001615447
      ],
      [
        "ngạ",
        -9.308557284781516
      ],
      [
        "hôn",
        -9.319436342680632
      ],
      [
        "%",
        -9.322787440164484
      ],
      [
        "!",
        -9.322787440164484
      ],
      [
        "chó",
        -9.323750084053465
      ],
      [
        "hè",
        -9.326983494800912
      ],
      [
        "nỗ",
        -9.336565900063642
      ],
      [
        "trù",
        -9.341018392433321
      ],
      [
        "thù",
        -9.343401584224946
      ],
      [
        "giô",
        -9.345576986691466
      ],
      [
        "đọ",
        -9.348935117627107
      ],
      [
        "trán",
        -9.348991806745754
      ],
      [
        "khuyế",
        -9.355437045024438
      ],
      [
        "iễ",
        -9.356632654157142
      ],
      [
        "nhị",
        -9.35717165859159
      ],
      [
        "̣̂",
        -9.358289708636672
      ],
      [
        "ghi",
        -9.36282589160182
      ],
      [
        "ard",
        -9.363364151049664
      ],
      [
        "thoả",
        -9.364392670331886
      ],
      [
        "hi",
        -9.37346197703658
      ],
      [
        "thác",
        -9.381615492160496
      ],
      [
        "trô",
        -9.38217657041099
      ],
      [
        "dâ",
        -9.38783749056985
      ],
      [
        "lụ",
        -9.388691701779704
      ],
      [
        "đí",
        -9.392119325324622
      ],
      [
        "j",
        -9.393580580481862
      ],
      [
        "sợ",
        -9.397903366507528
      ],
      [
        "dê",
        -9.402780894591936
      ],
      [
        "ngắ",
        -9.411281259542609
      ],
      [
        "tôn",
        -9.411742844651936
      ],
      [
        "gấ",
        -9.412889754561956
      ],
      [
        "oán",
        -9.426183151492378
      ],
      [
        "mạc",
        -9.426458395927433
      ],
      [
        "ngâ",
        -9.437635896289986
      ],
      [
        "em",
        -9.437767546170964
      ],
      [
        "hu",
        -9.440479585930778
      ],
      [
        "star",
        -9.440820392989847
      ],
      [
        "tầ",
        -9.445930173139237
      ],
      [
        "khơ",
        -9.448384368439879
      ],
      [
        "mu",
        -9.449120653579081
      ],
      [
        "đắ",
        -9.44916968686615
      ],
      [
        "rú",
        -9.450397824033718
      ],
      [
        "̣̂n",
        -9.452618213663095
      ],
      [
        "hãn",
        -9.458919857518154
      ],
      [
        "ja",
        -9.460960984393218
      ],
      [
        "hổ",
        -9.461406099333397
      ],
      [
        "nê",
        -9.462624739403845
      ],
      [
        ".”",
        -9.463422994757721
      ],
      [
        "thắ",
        -9.464360565863426
      ],
      [
        "sạ",
        -9.470246901238788
      ],
      [
        "mo",
        -9.471378729680044
      ],
      [
        "nhắ",
        -9.485584519086268
      ],
      [
        "lan",
        -9.48641149674675
      ],
      [
        "chữ",
        -9.487258533705015
      ],
      [
        "wa",
        -9.491686888824612
      ],
      [
        "ràn",
        -9.501253245353896
      ],
      [
        "rố",
        -9.510152788213409
      ],
      [
        "af",
        -9.51159694116897
      ],
      [
        "bâ",
        -9.51514971713305
      ],
      [
        "khuâ",
        -9.52282371982111
      ],
      [
        "sup",
        -9.524756355664366
      ],
      [
        "nada",
        -9.536151103621933
      ],
      [
        "hiê",
        -9.539750495391422
      ],
      [
        "há",
        -9.549755748060768
      ],
      [
        "cạn",
        -9.551206905270162
      ],
      [
        "–",
        -9.552298104079181
      ],
      [
        "’",
        -9.552298104079181
      ],
      [
        "ú",
        -9.555613846200881
      ],
      [
        "metro",
        -9.558305206304368
      ],
      [
        "bề",
        -9.56571171474091
      ],
      [
        "luô",
        -9.56854840533857
      ],
      [
        "lưỡ",
        -9.568788524513053
      ],
      [
        "north",
        -9.568974365820363
      ],
      [
        "zon",
        -9.573519930415712
      ],
      [
        "ụ",
        -9.573984067514784
      ],
      [
        "net",
        -9.582313811780839
      ],
      [
        "hang",
        -9.588963110710848
      ],
      [
        "quậ",
        -9.591195295877881
      ],
      [
        "chuye",
        -9.592145253663444
      ],
      [
        "lắ",
        -9.592712050313567
      ],
      [
        "vuô",
        -9.593280087495108
      ],
      [
        "trầ",
        -9.593289637947649
      ],
      [
        "all",
        -9.600707937067803
      ],
      [
        "đón",
        -9.61193816498571
      ],
      [
        "to",
        -9.615461531191706
      ],
      [
        "'",
        -9.618964770745857
      ],
      [
        "tù",
        -9.62188801560254
      ],
      [
        "sàn",
        -9.622652332983229
      ],
      [
        "thoá",
        -9.630551039413465
      ],
      [
        "ation",
        -9.631678997984286
      ],
      [
        "lin",
        -9.631968169829985
      ],
      [
        "unda",
        -9.64302540702
      ],
      [
        "chia",
        -9.65166475454445
      ],
      [
        "nú",
        -9.654449287524814
      ],
      [
        "mé",
        -9.66484623643762
      ],
      [
        "charl",
        -9.665288728834998
      ],
      [
        "cướ",
        -9.672478202384035
      ],
      [
        "kiê",
        -9.672942794874121
      ],
      [
        "rich",
        -9.674791297438833
      ],
      [
        "del",
        -9.675657115078964
      ],
      [
        "dừ",
        -9.67575561551604
      ],
      [
        "zi",
        -9.67659523451859
      ],
      [
        "ori",
        -9.678138127732748
      ],
      [
        "hạc",
        -9.680656367944044
      ],
      [
        "̂́c",
        -9.681462416154858
      ],
      [
        "der",
        -9.685541997810406
      ],
      [
        "vo",
        -9.686679603964933
      ],
      [
        "phậ",
        -9.688183040114046
      ],
      [
        "sing",
        -9.68819688410446
      ],
      [
        "?",
        -9.690393342174447
      ],
      [
        "hằ",
        -9.704761263653214
      ],
      [
        "tu",
        -9.706800295526865
      ],
      [
        "giản",
        -9.707678214469066
      ],
      [
        "xó",
        -9.709256558299973
      ],
      [
        "hĩ",
        -9.714670427005817
      ],
      [
        "trà",
        -9.719627411613935
      ],
      [
        "me",
        -9.71978865434928
      ],
      [
        "san",
        -9.734155958340724
      ],
      [
        "be",
        -9.738318587958197
      ],
      [
        "bọ",
        -9.742754889124177
      ],
      [
        "ví",
        -9.743096056364294
      ],
      [
        "cưỡ",
        -9.747097056596191
      ],
      [
        "in",
        -9.754143551100569
      ],
      [
        "\"\".",
        -9.758724249107903
      ],
      [
        "ste",
        -9.763594245530113
      ],
      [
        "am",
        -9.764125505396876
      ],
      [
        "‘",
        -9.767316419097567
      ],
      [
        "rắn",
        -9.768462765817404
      ],
      [
        "iza",
        -9.779996726251307
      ],
      [
        "ber",
        -9.782747639074103
      ],
      [
        "̂́n",
        -9.789019068660991
      ],
      [
        "mania",
        -9.789166349784217
      ],
      [
        "fe",
        -9.790346957526637
      ],
      [
        "huế",
        -9.791073276334721
      ],
      [
        "tiề",
        -9.802966862702522
      ],
      [
        "huố",
        -9.803187591677895
      ],
      [
        "vươ",
        -9.805777765889339
      ],
      [
        "nhu",
        -9.810224583238647
      ],
      [
        "bạc",
        -9.812820375730444
      ],
      [
        "khă",
        -9.816177703181
      ],
      [
        "đẹ",
        -9.81895393241927
      ],
      [
        "hoản",
        -9.819215443017624
      ],
      [
        "ne",
        -9.819866761276792
      ],
      [
        "xấ",
        -9.819873787653142
      ],
      [
        "nho",
        -9.826404750710125
      ],
      [
        "ũ",
        -9.828552333235058
      ],
      [
        "ngo",
        -9.828788496744504
      ],
      [
        "jo",
        -9.831225538529072
      ],
      [
        "hoan",
        -9.8430126034627
      ],
      [
        "jan",
        -9.84641563595957
      ],
      [
        "giâ",
        -9.848372311326381
      ],
      [
        "đu",
        -9.850024934475858
      ],
      [
        ">",
        -9.850649752431003
      ],
      [
        "<",
        -9.850649752431003
      ],
      [
        "black",
        -9.85137422278851
      ],
      [
        "rock",
        -9.854310289541658
      ],
      [
        "dro",
        -9.855156553412971
      ],
      [
        "us",
        -9.856052867074675
      ],
      [
        "grand",
        -9.856850640700955
      ],
      [
        "alif",
        -9.86354246099426
      ],
      [
        "las",
        -9.865642298894015
      ],
      [
        "í",
        -9.86695234097797
      ],
      [
        "on",
        -9.868447332326642
      ],
      [
        "hẩ",
        -9.872730336045285
      ],
      [
        "orl",
        -9.87299220039943
      ],
      [
        "liề",
        -9.874440320475152
      ],
      [
        "tour",
        -9.875025103304557
      ],
      [
        "trộ",
        -9.87873354192501
      ],
      [
        "đè",
        -9.891460710130023
      ],
      [
        "bu",
        -9.895789883853928
      ],
      [
        "chậ",
        -9.895804637112558
      ],
      [
        "fi",
        -9.896071209290213
      ],
      [
        "orni",
        -9.898123962665846
      ],
      [
        "jam",
        -9.899981954471233
      ],
      [
        "khố",
        -9.905352010125354
      ],
      [
        "lướ",
        -9.907418579626677
      ],
      [
        "trốn",
        -9.911110608139605
      ],
      [
        "axi",
        -9.920467097200731
      ],
      [
        "aris",
        -9.921675154482214
      ],
      [
        "old",
        -9.928179644198755
      ],
      [
        "awa",
        -9.941907319073344
      ],
      [
        "đợ",
        -9.948054459853969
      ],
      [
        "đă",
        -9.957130652964201
      ],
      [
        "đuô",
        -9.961790789609372
      ],
      [
        "rã",
        -9.962708671410693
      ],
      [
        "ster",
        -9.963523811518467
      ],
      [
        "jar",
        -9.964199509076305
      ],
      [
        "chuô",
        -9.974255939166248
      ],
      [
        "ston",
        -9.977746328723795
      ],
      [
        "prot",
        -9.97874948272495
      ],
      [
        "runn",
        -9.98103697129729
      ],
      [
        "khiê",
        -9.9850755123738
      ],
      [
        "ff",
        -9.988554296011916
      ],
      [
        "blo",
        -9.989001901746837
      ],
      [
        "app",
        -9.990619100161693
      ],
      [
        "bậ",
        -9.992035215623591
      ],
      [
        "how",
        -9.992360077463204
      ],
      [
        "wal",
        -9.994443080468358
      ],
      [
        "ver",
        -10.002700415985403
      ],
      [
        "xá",
        -10.005013755597373
      ],
      [
        "han",
        -10.012968715555443
      ],
      [
        "uy",
        -10.015170202114485
      ],
      [
        "dani",
        -10.022020184051371
      ],
      [
        "ù",
        -10.029426961631788
      ],
      [
        "saf",
        -10.029683630254542
      ],
      [
        "arme",
        -10.036878218237883
      ],
      [
        "ecuado",
        -10.041570893873477
      ],
      [
        "austral",
        -10.042971006323143
      ],
      [
        "man",
        -10.043174052767958
      ],
      [
        "ross",
        -10.046144975337327
      ],
      [
        "for",
        -10.046584990008187
      ],
      [
        "xỉ",
        -10.047696703016022
      ],
      [
        "bour",
        -10.050204303175466
      ],
      [
        "atlant",
        -10.050904514138484
      ],
      [
        "đớ",
        -10.051026061410747
      ],
      [
        "rom",
        -10.051596649403866
      ],
      [
        "mậ",
        -10.053234805040358
      ],
      [
        "dán",
        -10.054789303379671
      ],
      [
        "chặ",
        -10.056413941099354
      ],
      [
        "electr",
        -10.0565504637288
      ],
      [
        "sú",
        -10.05918921224695
      ],
      [
        "tă",
        -10.063895280404065
      ],
      [
        "gố",
        -10.065663889137152
      ],
      [
        "catal",
        -10.066953514786437
      ],
      [
        "lake",
        -10.068478173964888
      ],
      [
        "nes",
        -10.071018457276427
      ],
      [
        "ore",
        -10.081639185630173
      ],
      [
        "port",
        -10.087661416448661
      ],
      [
        "shing",
        -10.105764395567023
      ],
      [
        "vắ",
        -10.107459200499987
      ],
      [
        "đú",
        -10.11159092331771
      ],
      [
        "thỏ",
        -10.111826129613052
      ],
      [
        "cẩ",
        -10.125766985300627
      ],
      [
        "ira",
        -10.126392849867585
      ],
      [
        "thạ",
        -10.133510577918184
      ],
      [
        "kẹ",
        -10.134397142052189
      ],
      [
        "ỉn",
        -10.136882314512524
      ],
      [
        "huâ",
        -10.138837279991542
      ],
      [
        "rban",
        -10.14279259370398
      ],
      [
        "họn",
        -10.144342634987712
      ],
      [
        "rô",
        -10.14462130942658
      ],
      [
        "ru",
        -10.148725927370215
      ],
      [
        "son",
        -10.14925405901366
      ],
      [
        "đậ",
        -10.151454202842164
      ],
      [
        "francis",
        -10.152777171743406
      ],
      [
        "peter",
        -10.152831348686798
      ],
      [
        "ổn",
        -10.153404417452363
      ],
      [
        "war",
        -10.154408404756905
      ],
      [
        "ter",
        -10.155002343483051
      ],
      [
        "tả",
        -10.1606008346619
      ],
      [
        "otte",
        -10.164116389446564
      ],
      [
        "trừ",
        -10.168367594020992
      ],
      [
        "hồn",
        -10.175362741555638
      ],
      [
        "ers",
        -10.178848195555453
      ],
      [
        "tion",
        -10.188619575435307
      ],
      [
        "̛̉",
        -10.193110123677581
      ],
      [
        "rò",
        -10.194242238494487
      ],
      [
        "bar",
        -10.198642877078797
      ],
      [
        "uấ",
        -10.200524478264878
      ],
      [
        "lí",
        -10.202470400348409
      ],
      [
        "tồ",
        -10.203071444575416
      ],
      [
        "vợ",
        -10.205898153457452
      ],
      [
        "casa",
        -10.21058723266124
      ],
      [
        "tell",
        -10.211438812450512
      ],
      [
        "pago",
        -10.21244234544384
      ],
      [
        "huấ",
        -10.22681651738558
      ],
      [
        "ell",
        -10.22913954133095
      ],
      [
        "exa",
        -10.232945754860593
      ],
      [
        "bé",
        -10.233092826092365
      ],
      [
        "vati",
        -10.23459806986604
      ],
      [
        "ớn",
        -10.237345535639387
      ],
      [
        "ern",
        -10.246631843623614
      ],
      [
        "ton",
        -10.255759612001514
      ],
      [
        "stan",
        -10.26056620032767
      ],
      [
        "hùn",
        -10.261248541317341
      ],
      [
        "mar",
        -10.261269573969624
      ],
      [
        "thiể",
        -10.26447381691373
      ],
      [
        "ượn",
        -10.266816036110672
      ],
      [
        "hoá",
        -10.267473281311704
      ],
      [
        "oá",
        -10.270138976334874
      ],
      [
        "own",
        -10.274320020570581
      ],
      [
        "aria",
        -10.274650866776447
      ],
      [
        "chồ",
        -10.276525743912567
      ],
      [
        "elizabeth",
        -10.277669955436215
      ],
      [
        "virgin",
        -10.277705468187992
      ],
      [
        "berlin",
        -10.278151650103851
      ],
      [
        "chá",
        -10.278263086779777
      ],
      [
        "dồ",
        -10.279190091564448
      ],
      [
        "rỉ",
        -10.279591431669846
      ],
      [
        "khuyê",
        -10.279640069201534
      ],
      [
        "lươ",
        -10.280976493660415
      ],
      [
        "happa",
        -10.284314254287624
      ],
      [
        "alex",
        -10.284582660762391
      ],
      [
        "bal",
        -10.284968764509049
      ],
      [
        "rà",
        -10.287527798416155
      ],
      [
        "bel",
        -10.289289374934606
      ],
      [
        "ngừ",
        -10.290973367727807
      ],
      [
        "lồ",
        -10.291201737208944
      ],
      [
        "je",
        -10.293543741262138
      ],
      [
        "prov",
        -10.299669031536103
      ],
      [
        "ĩ",
        -10.304123080783041
      ],
      [
        "mỏ",
        -10.305631016737134
      ],
      [
        "flo",
        -10.306760734466172
      ],
      [
        "chă",
        -10.307333468861621
      ],
      [
        "azi",
        -10.307660639060131
      ],
      [
        "par",
        -10.308879958825951
      ],
      [
        "ran",
        -10.309535109457887
      ],
      [
        "jer",
        -10.314030237280157
      ],
      [
        "dun",
        -10.314595589530942
      ],
      [
        "soa",
        -10.314960808466841
      ],
      [
        "ski",
        -10.31792410780897
      ],
      [
        "kland",
        -10.320727885326468
      ],
      [
        "pitt",
        -10.323030960223322
      ],
      [
        "rida",
        -10.32405080177165
      ],
      [
        "roton",
        -10.330286434461259
      ],
      [
        "chăn",
        -10.331051224405517
      ],
      [
        "ken",
        -10.332471280808226
      ],
      [
        "lask",
        -10.333703814053964
      ],
      [
        "hở",
        -10.334922473628648
      ],
      [
        "hé",
        -10.342420113235526
      ],
      [
        "santa",
        -10.343579438346586
      ],
      [
        "miê",
        -10.344355601708092
      ],
      [
        "ari",
        -10.345697789933967
      ],
      [
        "gate",
        -10.348589386849527
      ],
      [
        "gô",
        -10.348792075085097
      ],
      [
        "bow",
        -10.349952303948964
      ],
      [
        "dust",
        -10.353448719555463
      ],
      [
        "dậ",
        -10.354173649730813
      ],
      [
        "vịn",
        -10.355844634380174
      ],
      [
        "sburg",
        -10.357604246209833
      ],
      [
        "ai",
        -10.35781926468327
      ],
      [
        "el",
        -10.360204799922096
      ],
      [
        "al",
        -10.36132766437641
      ],
      [
        "ed",
        -10.365254627707234
      ],
      [
        "angel",
        -10.371445436279394
      ],
      [
        "za",
        -10.37410351793271
      ],
      [
        "lọ",
        -10.374411276650193
      ],
      [
        "por",
        -10.374627237243049
      ],
      [
        "ar",
        -10.380244650790875
      ],
      [
        "hê",
        -10.383339931826386
      ],
      [
        "uý",
        -10.38411437850412
      ],
      [
        "off",
        -10.386296090428958
      ],
      [
        "xi",
        -10.389018506058429
      ],
      [
        "sai",
        -10.409245034835859
      ],
      [
        "̂̀",
        -10.412006392542477
      ],
      [
        "gắ",
        -10.413176399390306
      ],
      [
        "huyê",
        -10.414289224044408
      ],
      [
        "$",
        -10.42052709736093
      ],
      [
        "gó",
        -10.420531507313754
      ],
      [
        "khâ",
        -10.421895246208187
      ],
      [
        "gậ",
        -10.425749437972195
      ],
      [
        "ire",
        -10.428913336546762
      ],
      [
        "rge",
        -10.432840070594189
      ],
      [
        "chne",
        -10.433261452292868
      ],
      [
        "xứ",
        -10.43735959553692
      ],
      [
        "bồ",
        -10.442159751971845
      ],
      [
        "mâ",
        -10.443916933068383
      ],
      [
        "ria",
        -10.456904594159436
      ],
      [
        "ia",
        -10.461982349452022
      ],
      [
        "lon",
        -10.46849752203636
      ],
      [
        "cope",
        -10.472210314180229
      ],
      [
        "monte",
        -10.47522323004601
      ],
      [
        "of",
        -10.478195730972416
      ],
      [
        "huôn",
        -10.486060968771792
      ],
      [
        "̛́",
        -10.486090298629646
      ],
      [
        "him",
        -10.49812106123631
      ],
      [
        "lem",
        -10.498184192387068
      ],
      [
        "kir",
        -10.500295763445338
      ],
      [
        "bra",
        -10.500937771466925
      ],
      [
        "is",
        -10.507439034633753
      ],
      [
        "ezu",
        -10.508619739737142
      ],
      [
        "ron",
        -10.51161007183214
      ],
      [
        "nhượ",
        -10.513706142735623
      ],
      [
        "burg",
        -10.519140730642183
      ],
      [
        "ven",
        -10.526496653552819
      ],
      [
        "thua",
        -10.53075591363821
      ],
      [
        "endo",
        -10.540251552414372
      ],
      [
        "̣n",
        -10.544304196584887
      ],
      [
        "apol",
        -10.554663255388366
      ],
      [
        "dar",
        -10.555035840289406
      ],
      [
        "ón",
        -10.55567463635294
      ],
      [
        "nhì",
        -10.555773603215007
      ],
      [
        "nzan",
        -10.556138354437554
      ],
      [
        "we",
        -10.558943493417193
      ],
      [
        "nness",
        -10.560883195840466
      ],
      [
        "chô",
        -10.575342428193746
      ],
      [
        "khổ",
        -10.587080048531725
      ],
      [
        "fernand",
        -10.587194444853887
      ],
      [
        "harappa",
        -10.58720248760174
      ],
      [
        "falkland",
        -10.587223804429875
      ],
      [
        "zambi",
        -10.58726138885197
      ],
      [
        "robert",
        -10.587705171836106
      ],
      [
        "west",
        -10.587764194385255
      ],
      [
        "fair",
        -10.587996080668322
      ],
      [
        "jour",
        -10.588207699747716
      ],
      [
        "massa",
        -10.588770340682002
      ],
      [
        "carib",
        -10.588796763269508
      ],
      [
        "feli",
        -10.588839870785634
      ],
      [
        "azer",
        -10.59060633488201
      ],
      [
        "sie",
        -10.590727282124774
      ],
      [
        "é",
        -10.591266620462868
      ],
      [
        "mille",
        -10.591875466027721
      ],
      [
        "đan",
        -10.59244130828892
      ],
      [
        "park",
        -10.595197246798302
      ],
      [
        "fal",
        -10.59570456665916
      ],
      [
        "tệ",
        -10.601672770207468
      ],
      [
        "tho",
        -10.602187778038711
      ],
      [
        "ald",
        -10.603793740074039
      ],
      [
        "nố",
        -10.60505757466294
      ],
      [
        "oãn",
        -10.60761536007038
      ],
      [
        "muô",
        -10.609316278540392
      ],
      [
        "hán",
        -10.611418891310665
      ],
      [
        "oạ",
        -10.616047190454955
      ],
      [
        "go",
        -10.61857380257839
      ],
      [
        "hí",
        -10.621259099658152
      ],
      [
        "cà",
        -10.62485078676869
      ],
      [
        "rus",
        -10.627366106611714
      ],
      [
        "shar",
        -10.627610544636166
      ],
      [
        "ju",
        -10.628702141590042
      ],
      [
        "hungar",
        -10.632415729865144
      ],
      [
        "zha",
        -10.633727858531127
      ],
      [
        "ray",
        -10.633905172191604
      ],
      [
        "har",
        -10.634412492166085
      ],
      [
        "lome",
        -10.635205215108892
      ],
      [
        "sof",
        -10.637696860494769
      ],
      [
        "hẻ",
        -10.639321595451447
      ],
      [
        "foo",
        -10.640256850596124
      ],
      [
        "mi",
        -10.644390010640189
      ],
      [
        "hớ",
        -10.646574147526483
      ],
      [
        "ngeti",
        -10.647388885480243
      ],
      [
        "rác",
        -10.653287979695484
      ],
      [
        "mẹ",
        -10.654130727444253
      ],
      [
        "hắn",
        -10.65578076309116
      ],
      [
        "dru",
        -10.656197065887653
      ],
      [
        "les",
        -10.657407668359383
      ],
      [
        "omer",
        -10.658196695506815
      ],
      [
        "back",
        -10.65948005785884
      ],
      [
        "mor",
        -10.660043345094497
      ],
      [
        "ò",
        -10.663019998335159
      ],
      [
        "my",
        -10.668829812068726
      ],
      [
        "alle",
        -10.674934295516826
      ],
      [
        "ry",
        -10.676828066937649
      ],
      [
        "dín",
        -10.677970083922096
      ],
      [
        "kham",
        -10.678748827948228
      ],
      [
        "thơ",
        -10.679108222520105
      ],
      [
        "kar",
        -10.680384288182983
      ],
      [
        "pri",
        -10.687403801964223
      ],
      [
        "lamin",
        -10.69649300867997
      ],
      [
        "hỉ",
        -10.701715043265375
      ],
      [
        "ẻ",
        -10.701860420397908
      ],
      [
        "harv",
        -10.70224995360052
      ],
      [
        "fla",
        -10.7028378420139
      ],
      [
        "nned",
        -10.705694684515334
      ],
      [
        "bert",
        -10.706555738280787
      ],
      [
        "jon",
        -10.709281201613148
      ],
      [
        "arte",
        -10.713220423635832
      ],
      [
        "ound",
        -10.713453758611472
      ],
      [
        "wi",
        -10.713809776587533
      ],
      [
        "vẹ",
        -10.71959360668034
      ],
      [
        "ngọ",
        -10.721035469800205
      ],
      [
        "enz",
        -10.72135982382249
      ],
      [
        "tai",
        -10.722951075628792
      ],
      [
        "tần",
        -10.728324641160942
      ],
      [
        "gur",
        -10.729162481483359
      ],
      [
        "ice",
        -10.73205604341136
      ],
      [
        "dde",
        -10.732774490581745
      ],
      [
        "or",
        -10.736749912215851
      ],
      [
        "pale",
        -10.745621766240875
      ],
      [
        "lặ",
        -10.748484190670023
      ],
      [
        "ỏ",
        -10.750463338074413
      ],
      [
        "sara",
        -10.750650518292165
      ],
      [
        "gran",
        -10.750863297611168
      ],
      [
        "khán",
        -10.759904153085493
      ],
      [
        "sky",
        -10.763499123080754
      ],
      [
        "ger",
        -10.763953621080312
      ],
      [
        "kì",
        -10.7655546586011
      ],
      [
        "lak",
        -10.767045851645506
      ],
      [
        "pati",
        -10.76772339156847
      ],
      [
        "fr",
        -10.768274607084088
      ],
      [
        "̂̃",
        -10.769922883702767
      ],
      [
        "vư",
        -10.773512255727612
      ],
      [
        "bre",
        -10.777659115652355
      ],
      [
        "akis",
        -10.778000660081663
      ],
      [
        "phẫ",
        -10.779301541467854
      ],
      [
        "mờ",
        -10.781277879194914
      ],
      [
        "ashi",
        -10.782000576884458
      ],
      [
        "fa",
        -10.782594610903057
      ],
      [
        "khuy",
        -10.78496267930566
      ],
      [
        "civi",
        -10.788909140108913
      ],
      [
        "uệ",
        -10.798543227111422
      ],
      [
        "cher",
        -10.805746880599926
      ],
      [
        "carol",
        -10.806942249321825
      ],
      [
        "dam",
        -10.808164064112054
      ],
      [
        "iwa",
        -10.82532223872131
      ],
      [
        "lăn",
        -10.826218126022487
      ],
      [
        "apuch",
        -10.826683984888227
      ],
      [
        "esia",
        -10.827416724513014
      ],
      [
        "chợ",
        -10.827595229565247
      ],
      [
        "scot",
        -10.828913595497719
      ],
      [
        "alo",
        -10.829020394193128
      ],
      [
        "cell",
        -10.834480190395263
      ],
      [
        "huậ",
        -10.834505336812637
      ],
      [
        "ejon",
        -10.837651297876816
      ],
      [
        "mari",
        -10.846847029202353
      ],
      [
        "pal",
        -10.846893432445649
      ],
      [
        "eid",
        -10.847802320943043
      ],
      [
        "no",
        -10.851167140109244
      ],
      [
        "win",
        -10.854645271380706
      ],
      [
        "res",
        -10.85993440666607
      ],
      [
        "bó",
        -10.86141505619496
      ],
      [
        "rid",
        -10.862293395445768
      ],
      [
        "riga",
        -10.868210039475613
      ],
      [
        "lặn",
        -10.87487339141091
      ],
      [
        "ssy",
        -10.876307233058519
      ],
      [
        "mer",
        -10.883982360302104
      ],
      [
        "nấ",
        -10.891159864396318
      ],
      [
        "saki",
        -10.897065284589631
      ],
      [
        "hoà",
        -10.897080443978766
      ],
      [
        "rade",
        -10.91407525925424
      ],
      [
        "camb",
        -10.919727235772331
      ],
      [
        "kri",
        -10.92047475087141
      ],
      [
        "fen",
        -10.92190557716578
      ],
      [
        "ga",
        -10.923790571846927
      ],
      [
        "phư",
        -10.929747241049347
      ],
      [
        "rộ",
        -10.934863770296715
      ],
      [
        "audi",
        -10.94848560934672
      ],
      [
        "bul",
        -10.949874094544828
      ],
      [
        "ắn",
        -10.950430739414195
      ],
      [
        "wai",
        -10.950442809695765
      ],
      [
        "dal",
        -10.958924740243688
      ],
      [
        "rướ",
        -10.965264994511129
      ],
      [
        "ín",
        -10.967925212738082
      ],
      [
        "ghé",
        -10.971284806711788
      ],
      [
        "lă",
        -10.971529212025743
      ],
      [
        "rago",
        -10.972798823755998
      ],
      [
        "mề",
        -10.983161521162828
      ],
      [
        "nôn",
        -11.000856250497735
      ],
      [
        "chở",
        -11.009330947983791
      ],
      [
        "gen",
        -11.012479889793303
      ],
      [
        "uyê",
        -11.013642678976572
      ],
      [
        "nề",
        -11.014353204391373
      ],
      [
        "tuta",
        -11.015815606030738
      ],
      [
        "toá",
        -11.022060847197958
      ],
      [
        "̆̀n",
        -11.023464034658375
      ],
      [
        "ow",
        -11.024002160738231
      ],
      [
        "lán",
        -11.029976942587938
      ],
      [
        "edin",
        -11.034502922613653
      ],
      [
        "]",
        -11.037193764027597
      ],
      [
        "̧",
        -11.037193764027597
      ],
      [
        "[",
        -11.037193764027597
      ],
      [
        "°",
        -11.037193764027597
      ],
      [
        "²",
        -11.037193764027597
      ],
      [
        "+",
        -11.037193764027597
      ],
      [
        "—",
        -11.037193764027597
      ],
      [
        "scaffold",
        -11.037193858249202
      ],
      [
        "punjab",
        -11.037195297024411
      ],
      [
        "simpson",
        -11.037195339451834
      ],
      [
        "versaille",
        -11.037195675057793
      ],
      [
        "kalaall",
        -11.03726116909276
      ],
      [
        "jakar",
        -11.037301669496337
      ],
      [
        "dominica",
        -11.037323598903233
      ],
      [
        "galile",
        -11.03741479601333
      ],
      [
        "prince",
        -11.037485645263143
      ],
      [
        "white",
        -11.037486050013875
      ],
      [
        "animal",
        -11.037608502842009
      ],
      [
        "dream",
        -11.037731088046678
      ],
      [
        "ocelot",
        -11.037904171986819
      ],
      [
        "expo",
        -11.037942499589272
      ],
      [
        "wild",
        -11.038109856586562
      ],
      [
        "cacbon",
        -11.038256858551787
      ],
      [
        "waz",
        -11.039984426161109
      ],
      [
        "ür",
        -11.040173338756437
      ],
      [
        "jeff",
        -11.041908625087514
      ],
      [
        "shika",
        -11.04209047691495
      ],
      [
        "ty",
        -11.044892976043515
      ],
      [
        "ephes",
        -11.047551242421005
      ],
      [
        "üm",
        -11.047815828805225
      ],
      [
        "namgy",
        -11.047914989543957
      ],
      [
        "shi",
        -11.049425048525698
      ],
      [
        "santor",
        -11.052441511337879
      ],
      [
        "brew",
        -11.05293528394528
      ],
      [
        "ssar",
        -11.056072781940532
      ],
      [
        "slov",
        -11.059277015649899
      ],
      [
        "rain",
        -11.05971930370654
      ],
      [
        "asso",
        -11.06184160018358
      ],
      [
        "ristoph",
        -11.064090965648328
      ],
      [
        "rese",
        -11.06823891101147
      ],
      [
        "ardia",
        -11.0748523525292
      ],
      [
        "kito",
        -11.07495245630078
      ],
      [
        "tàn",
        -11.077526456239251
      ],
      [
        "đoa",
        -11.079640354092483
      ],
      [
        "palm",
        -11.08056757416316
      ],
      [
        "arine",
        -11.083091586956085
      ],
      [
        "ther",
        -11.083724594932626
      ],
      [
        "may",
        -11.083917194471528
      ],
      [
        "mart",
        -11.084435040833199
      ],
      [
        "ulka",
        -11.085204860778333
      ],
      [
        "tơ",
        -11.087214790921122
      ],
      [
        "affi",
        -11.091596864746442
      ],
      [
        "ngộ",
        -11.093543131610048
      ],
      [
        "dys",
        -11.094953246763838
      ],
      [
        "rcel",
        -11.095029746290438
      ],
      [
        "shor",
        -11.096913737905728
      ],
      [
        "eigh",
        -11.10073221640873
      ],
      [
        "miss",
        -11.104019536907016
      ],
      [
        "zo",
        -11.106118379165036
      ],
      [
        "sahe",
        -11.107226036901434
      ],
      [
        "ws",
        -11.107571078639708
      ],
      [
        "erde",
        -11.107860187687628
      ],
      [
        "bab",
        -11.109849898758805
      ],
      [
        "mario",
        -11.111398483774265
      ],
      [
        "picc",
        -11.114420822419767
      ],
      [
        "india",
        -11.116901230552664
      ],
      [
        "robi",
        -11.118082872757903
      ],
      [
        "para",
        -11.120659033680058
      ],
      [
        "stin",
        -11.12371971463539
      ],
      [
        "swa",
        -11.132256745548025
      ],
      [
        "lã",
        -11.132574672003486
      ],
      [
        "bổn",
        -11.133670231490436
      ],
      [
        "indi",
        -11.135695283179617
      ],
      [
        "nhi",
        -11.135717358297754
      ],
      [
        "ey",
        -11.146292960112634
      ],
      [
        "eo",
        -11.146568057598065
      ],
      [
        "eros",
        -11.150244391873105
      ],
      [
        "tỉ",
        -11.153550596500278
      ],
      [
        "hị",
        -11.157294445404007
      ],
      [
        "tonga",
        -11.159480382706263
      ],
      [
        "tú",
        -11.16049223050837
      ],
      [
        "illa",
        -11.163835909603822
      ],
      [
        "arman",
        -11.166307522974671
      ],
      [
        "ọn",
        -11.167377542725404
      ],
      [
        "gine",
        -11.168107173275429
      ],
      [
        "bank",
        -11.170814293520467
      ],
      [
        "xo",
        -11.172090384034574
      ],
      [
        "ngoro",
        -11.178285753830266
      ],
      [
        "ish",
        -11.179643405438066
      ],
      [
        "laf",
        -11.182281114896925
      ],
      [
        "te",
        -11.184563345749694
      ],
      [
        "ruộ",
        -11.189287900111896
      ],
      [
        "ania",
        -11.19091787580698
      ],
      [
        "mir",
        -11.191366768633003
      ],
      [
        "lở",
        -11.193304848908799
      ],
      [
        "guay",
        -11.194266894738073
      ],
      [
        "chuộ",
        -11.195736721015155
      ],
      [
        "chus",
        -11.204008008408811
      ],
      [
        "chell",
        -11.206018329405968
      ],
      [
        "chiê",
        -11.206674369863517
      ],
      [
        "erat",
        -11.207452368093634
      ],
      [
        "chù",
        -11.208649873750243
      ],
      [
        "hers",
        -11.209671570263893
      ],
      [
        "nắ",
        -11.21147568736159
      ],
      [
        "tuâ",
        -11.21478008383523
      ],
      [
        "toru",
        -11.215016967264855
      ],
      [
        "napol",
        -11.215251674622055
      ],
      [
        "pod",
        -11.216515094929338
      ],
      [
        "cọ",
        -11.220760390535983
      ],
      [
        "rủ",
        -11.221099740070379
      ],
      [
        "fl",
        -11.22340873048443
      ],
      [
        "ragu",
        -11.223704503203807
      ],
      [
        "olyn",
        -11.230930365336263
      ],
      [
        "nder",
        -11.234052852286727
      ],
      [
        "sche",
        -11.235672582212208
      ],
      [
        "en",
        -11.240774990287397
      ],
      [
        "ịn",
        -11.24600841693572
      ],
      [
        "ters",
        -11.248180944050343
      ],
      [
        "giê",
        -11.252289973215252
      ],
      [
        "wo",
        -11.252535492940027
      ],
      [
        "ile",
        -11.25539322616956
      ],
      [
        "awan",
        -11.256969060263476
      ],
      [
        "ellin",
        -11.259055509139039
      ],
      [
        "zm",
        -11.26248035522989
      ],
      [
        "bin",
        -11.263721474552943
      ],
      [
        "ji",
        -11.263902465265529
      ],
      [
        "azz",
        -11.270377335627192
      ],
      [
        "ush",
        -11.271098249960076
      ],
      [
        "barc",
        -11.273653292498519
      ],
      [
        "bie",
        -11.278021643669444
      ],
      [
        "rì",
        -11.281338387015062
      ],
      [
        "ales",
        -11.283576339467091
      ],
      [
        "rắ",
        -11.28540888217686
      ],
      [
        "over",
        -11.288680959637043
      ],
      [
        "̣̆",
        -11.2941561778675
      ],
      [
        "line",
        -11.299419640440743
      ],
      [
        "bor",
        -11.304535648135172
      ],
      [
        "mont",
        -11.309185504661619
      ],
      [
        "ayat",
        -11.31514647868777
      ],
      [
        "lar",
        -11.316017323834595
      ],
      [
        "hề",
        -11.31984003251915
      ],
      [
        "kara",
        -11.324083928852646
      ],
      [
        "tê",
        -11.326111457468578
      ],
      [
        "kor",
        -11.326555924061156
      ],
      [
        "iver",
        -11.335399860357109
      ],
      [
        "dian",
        -11.343837210683892
      ],
      [
        "ital",
        -11.345849335457787
      ],
      [
        "inte",
        -11.347865757016615
      ],
      [
        "kyo",
        -11.353580702548932
      ],
      [
        "tem",
        -11.355348138249292
      ],
      [
        "gord",
        -11.35587150522904
      ],
      [
        "exi",
        -11.357111729219497
      ],
      [
        "sh",
        -11.358701863655895
      ],
      [
        "rệ",
        -11.359323815040721
      ],
      [
        "mus",
        -11.361345015349825
      ],
      [
        "stra",
        -11.363315833427349
      ],
      [
        "zan",
        -11.36363551714249
      ],
      [
        "buồn",
        -11.366652323715831
      ],
      [
        "rill",
        -11.367403707674411
      ],
      [
        "¥",
        -11.37052709736093
      ],
      [
        "chandra",
        -11.370634507165816
      ],
      [
        "frank",
        -11.370820120625332
      ],
      [
        "zagr",
        -11.37672121048314
      ],
      [
        "ö",
        -11.37896194751525
      ],
      [
        "ruk",
        -11.379088502864304
      ],
      [
        "kru",
        -11.382867035275645
      ],
      [
        "roy",
        -11.391097994680962
      ],
      [
        "sack",
        -11.392674992610536
      ],
      [
        "law",
        -11.394798179244582
      ],
      [
        "jud",
        -11.397615133161858
      ],
      [
        "fati",
        -11.407278985770004
      ],
      [
        "mada",
        -11.408469002265674
      ],
      [
        "jor",
        -11.413376321025204
      ],
      [
        "ail",
        -11.413919414035556
      ],
      [
        "cap",
        -11.419151025981497
      ],
      [
        "thiê",
        -11.427927121683203
      ],
      [
        "vượn",
        -11.427959345746297
      ],
      [
        "way",
        -11.434178338201797
      ],
      [
        "leon",
        -11.437546214309434
      ],
      [
        "pen",
        -11.438195623399208
      ],
      [
        "lege",
        -11.439532576953379
      ],
      [
        "low",
        -11.441867074861047
      ],
      [
        "cana",
        -11.44990804989469
      ],
      [
        "st",
        -11.449915736481142
      ],
      [
        "rman",
        -11.451396270374117
      ],
      [
        "ua",
        -11.451580932692009
      ],
      [
        "tend",
        -11.454049386145662
      ],
      [
        "mê",
        -11.456601690319681
      ],
      [
        "xinh",
        -11.456739262297168
      ],
      [
        "khan",
        -11.457293339522645
      ],
      [
        "rạ",
        -11.45742905073176
      ],
      [
        "doa",
        -11.458455879915066
      ],
      [
        "dr",
        -11.458899383886544
      ],
      [
        "lou",
        -11.459262629216902
      ],
      [
        "mãn",
        -11.461100487297877
      ],
      [
        "sol",
        -11.46287325925871
      ],
      [
        "puchi",
        -11.464042193831673
      ],
      [
        "ngụ",
        -11.464482602685937
      ],
      [
        "sch",
        -11.467844799513419
      ],
      [
        "pe",
        -11.470532572242162
      ],
      [
        "ft",
        -11.472314599402727
      ],
      [
        "uyế",
        -11.475272752894515
      ],
      [
        "scott",
        -11.481415373535981
      ],
      [
        "opi",
        -11.481435561920577
      ],
      [
        "gala",
        -11.482836312753705
      ],
      [
        "rem",
        -11.484165952555816
      ],
      [
        "̛̣",
        -11.486808852628336
      ],
      [
        "car",
        -11.490933489743357
      ],
      [
        "zz",
        -11.493209902715579
      ],
      [
        "ing",
        -11.496532774698622
      ],
      [
        "ere",
        -11.49869372166554
      ],
      [
        "bob",
        -11.507474171866532
      ],
      [
        "ric",
        -11.509112142153818
      ],
      [
        "ring",
        -11.509567656923004
      ],
      [
        "irlin",
        -11.509644226217786
      ],
      [
        "gư",
        -11.51004120381955
      ],
      [
        "dus",
        -11.515751065816822
      ],
      [
        "vis",
        -11.51716925481752
      ],
      [
        "bí",
        -11.523740394621244
      ],
      [
        "ex",
        -11.526542901808734
      ],
      [
        "khoe",
        -11.530927877964404
      ],
      [
        "rive",
        -11.533136816218803
      ],
      [
        "..",
        -11.534689210096598
      ],
      [
        "br",
        -11.537423632539102
      ],
      [
        "oll",
        -11.5383206768909
      ],
      [
        "alp",
        -11.541360540422236
      ],
      [
        "nhă",
        -11.542199224374546
      ],
      [
        "char",
        -11.542237776216744
      ],
      [
        "born",
        -11.543552879263194
      ],
      [
        "bran",
        -11.543840892030946
      ],
      [
        "kis",
        -11.544239685142934
      ],
      [
        "xí",
        -11.545438272259451
      ],
      [
        "cheng",
        -11.55166015884556
      ],
      [
        "sans",
        -11.558561118126233
      ],
      [
        "gươ",
        -11.559426380024636
      ],
      [
        "air",
        -11.559593448702529
      ],
      [
        "as",
        -11.560694257301249
      ],
      [
        "men",
        -11.562463855290984
      ],
      [
        "rea",
        -11.562739619140302
      ],
      [
        "ick",
        -11.567949952967012
      ],
      [
        "lap",
        -11.56829787628592
      ],
      [
        "arya",
        -11.569281484644037
      ],
      [
        "thra",
        -11.577251119437872
      ],
      [
        "nez",
        -11.582188349163856
      ],
      [
        "gà",
        -11.58912048020911
      ],
      [
        "inet",
        -11.592090960524487
      ],
      [
        "eze",
        -11.595539297878695
      ],
      [
        "ipp",
        -11.602082626476214
      ],
      [
        "ide",
        -11.602724464669267
      ],
      [
        "cro",
        -11.604046745750793
      ],
      [
        "colo",
        -11.611205048964475
      ],
      [
        "nô",
        -11.611732795907564
      ],
      [
        "uôn",
        -11.612830036090317
      ],
      [
        "ez",
        -11.613733109710507
      ],
      [
        "hắ",
        -11.615095080458604
      ],
      [
        "whi",
        -11.615160195208263
      ],
      [
        "bod",
        -11.617180433358916
      ],
      [
        "pro",
        -11.617493441760546
      ],
      [
        "ord",
        -11.621468925472646
      ],
      [
        "cam",
        -11.625334626803063
      ],
      [
        "alb",
        -11.625896925694072
      ],
      [
        "khoá",
        -11.632066476154407
      ],
      [
        "olo",
        -11.636510082548154
      ],
      [
        "roe",
        -11.636917685351367
      ],
      [
        "bhut",
        -11.637101794407691
      ],
      [
        "ill",
        -11.640189501419561
      ],
      [
        "nhơ",
        -11.645491680694574
      ],
      [
        "ova",
        -11.646514585876423
      ],
      [
        "ẹ",
        -11.648460227447055
      ],
      [
        "tral",
        -11.650131865346474
      ],
      [
        "ela",
        -11.651577468905813
      ],
      [
        "ãn",
        -11.654695503862387
      ],
      [
        "xiê",
        -11.656024974330313
      ],
      [
        "ichel",
        -11.663435679032146
      ],
      [
        "rwa",
        -11.664492830573392
      ],
      [
        "ngu",
        -11.665095210213218
      ],
      [
        "hannes",
        -11.665218535347798
      ],
      [
        "lom",
        -11.666438625079984
      ],
      [
        "van",
        -11.671440818831323
      ],
      [
        "vill",
        -11.676304980421069
      ],
      [
        "kow",
        -11.6778039758069
      ],
      [
        "ngă",
        -11.685640224136055
      ],
      [
        "oa",
        -11.688860377486334
      ],
      [
        "vish",
        -11.689444254506267
      ],
      [
        "mệ",
        -11.690482209953933
      ],
      [
        "hẫ",
        -11.692029834015585
      ],
      [
        "arti",
        -11.696466573292074
      ],
      [
        "alli",
        -11.696541725756763
      ],
      [
        "lle",
        -11.699016634893244
      ],
      [
        "vall",
        -11.701445134544182
      ],
      [
        "anda",
        -11.703503946683941
      ],
      [
        "lib",
        -11.704968038968794
      ],
      [
        "ique",
        -11.707980197251043
      ],
      [
        "soci",
        -11.708431560481522
      ],
      [
        "sla",
        -11.70921012779026
      ],
      [
        "spr",
        -11.71251648249599
      ],
      [
        "run",
        -11.713235463527813
      ],
      [
        "ned",
        -11.717514162366333
      ],
      [
        "sco",
        -11.719785007204262
      ],
      [
        "azo",
        -11.72672910002017
      ],
      [
        "̛ờn",
        -11.729844453562897
      ],
      [
        "ousi",
        -11.730794764483427
      ],
      [
        "phượ",
        -11.732479595353597
      ],
      [
        "bro",
        -11.737902445155953
      ],
      [
        "udd",
        -11.739108332793236
      ],
      [
        "ook",
        -11.739680086835714
      ],
      [
        "ạc",
        -11.742633081440779
      ],
      [
        "fin",
        -11.747136277363094
      ],
      [
        "ưỡ",
        -11.748996280140712
      ],
      [
        "gree",
        -11.751651227912726
      ],
      [
        "pl",
        -11.758272097646737
      ],
      [
        "thuâ",
        -11.766098049977439
      ],
      [
        "hous",
        -11.76875750946464
      ],
      [
        "ses",
        -11.79445214196157
      ],
      [
        "sun",
        -11.798658276809459
      ],
      [
        "tỏ",
        -11.801519773952172
      ],
      [
        "fo",
        -11.803607067836607
      ],
      [
        "kan",
        -11.805199667084544
      ],
      [
        "nburg",
        -11.805280300756234
      ],
      [
        "emm",
        -11.8089652423274
      ],
      [
        "liê",
        -11.809306627913433
      ],
      [
        "elect",
        -11.814121120919765
      ],
      [
        "aren",
        -11.821354573913963
      ],
      [
        "eos",
        -11.823110605231593
      ],
      [
        "ine",
        -11.823728246406354
      ],
      [
        "lis",
        -11.824031286044216
      ],
      [
        "christ",
        -11.826909128207618
      ],
      [
        "chán",
        -11.8287341803629
      ],
      [
        "trin",
        -11.832550695797991
      ],
      [
        "won",
        -11.839600609319849
      ],
      [
        "fir",
        -11.842911858574663
      ],
      [
        "chin",
        -11.844719357086875
      ],
      [
        "ü",
        -11.847653508368854
      ],
      [
        "bum",
        -11.850042581716576
      ],
      [
        "agor",
        -11.857902139743253
      ],
      [
        "lẻ",
        -11.85990869172746
      ],
      [
        "ffer",
        -11.863813089135244
      ],
      [
        "&",
        -11.870527097360931
      ],
      [
        "~",
        -11.870527097360931
      ],
      [
        "onal",
        -11.871446406887438
      ],
      [
        "brook",
        -11.872090204843909
      ],
      [
        "mì",
        -11.873118758607514
      ],
      [
        "lun",
        -11.873474795475934
      ],
      [
        "tank",
        -11.873606356278042
      ],
      [
        "stof",
        -11.874685822455508
      ],
      [
        "franc",
        -11.875441088433188
      ],
      [
        "asma",
        -11.879025850386801
      ],
      [
        "irk",
        -11.881558397281681
      ],
      [
        "our",
        -11.882507906188001
      ],
      [
        "thoa",
        -11.885015865741462
      ],
      [
        "maki",
        -11.885579115530478
      ],
      [
        "ome",
        -11.887907004354593
      ],
      [
        "kings",
        -11.889613073331017
      ],
      [
        "nạ",
        -11.891892026581019
      ],
      [
        "arz",
        -11.89286321826959
      ],
      [
        "rze",
        -11.895138181222432
      ],
      [
        "os",
        -11.907267151324776
      ],
      [
        "tori",
        -11.91678524373149
      ],
      [
        "alde",
        -11.920549955199125
      ],
      [
        "xan",
        -11.921740385534878
      ],
      [
        "risto",
        -11.921879894624174
      ],
      [
        "atol",
        -11.923904796789344
      ],
      [
        "hes",
        -11.925601177123651
      ],
      [
        "domin",
        -11.930670663652524
      ],
      [
        "tọ",
        -11.934080228261978
      ],
      [
        "olds",
        -11.934758922495696
      ],
      [
        "die",
        -11.93506609015217
      ],
      [
        "xươ",
        -11.935430682774573
      ],
      [
        "et",
        -11.935775726500987
      ],
      [
        "rum",
        -11.937674449722557
      ],
      [
        "rik",
        -11.938191890188804
      ],
      [
        "versa",
        -11.943357257037098
      ],
      [
        "nia",
        -11.9466546041828
      ],
      [
        "điê",
        -11.949545905264838
      ],
      [
        "viking",
        -11.954242293713397
      ],
      [
        "ons",
        -11.961894656199481
      ],
      [
        "rie",
        -11.963435683724994
      ],
      [
        "ary",
        -11.966103966863722
      ],
      [
        "elli",
        -11.966542723430562
      ],
      [
        "santo",
        -11.97214452229098
      ],
      [
        "ame",
        -11.977673679083303
      ],
      [
        "rle",
        -11.977753759707369
      ],
      [
        "nặ",
        -11.979149595637981
      ],
      [
        "ras",
        -11.979550230472892
      ],
      [
        "beth",
        -11.985077476589844
      ],
      [
        "tim",
        -11.98519153097344
      ],
      [
        "ghẹ",
        -11.988354690660138
      ],
      [
        "pa",
        -11.989711786551144
      ],
      [
        "ens",
        -11.990729778129479
      ],
      [
        "pla",
        -11.995982132723865
      ],
      [
        "uâ",
        -11.997069466374999
      ],
      [
        "ld",
        -12.00303995496413
      ],
      [
        "râ",
        -12.009568425786775
      ],
      [
        "tie",
        -12.011724846393431
      ],
      [
        "ounc",
        -12.01506045653604
      ],
      [
        "ol",
        -12.017184869373352
      ],
      [
        "buồ",
        -12.018538654072291
      ],
      [
        "ungar",
        -12.021798814977686
      ],
      [
        "̆n",
        -12.031303336508893
      ],
      [
        "arlo",
        -12.036105553822027
      ],
      [
        "capu",
        -12.037165200939828
      ],
      [
        "gũ",
        -12.042310260206051
      ],
      [
        "lanta",
        -12.042553596691867
      ],
      [
        "cú",
        -12.04413305677492
      ],
      [
        "oạc",
        -12.044154111205476
      ],
      [
        "mal",
        -12.046333335830841
      ],
      [
        "̛̀",
        -12.046340084190952
      ],
      [
        "lam",
        -12.054251901362887
      ],
      [
        "aj",
        -12.065268482265168
      ],
      [
        "uval",
        -12.068356645164606
      ],
      [
        "̣̂c",
        -12.069648749185243
      ],
      [
        "sim",
        -12.072914380799231
      ],
      [
        "pli",
        -12.075540193505887
      ],
      [
        "cus",
        -12.076481975968395
      ],
      [
        "log",
        -12.078853240668787
      ],
      [
        "ris",
        -12.079556141292658
      ],
      [
        "gán",
        -12.08147096326829
      ],
      [
        "din",
        -12.085194932704502
      ],
      [
        "gar",
        -12.08548403345256
      ],
      [
        "bea",
        -12.085553694377204
      ],
      [
        "ass",
        -12.086008196020627
      ],
      [
        "chte",
        -12.090299019547281
      ],
      [
        "vá",
        -12.091519043930663
      ],
      [
        "rả",
        -12.098305939962898
      ],
      [
        "tản",
        -12.107954069503057
      ],
      [
        "trans",
        -12.108734307184669
      ],
      [
        "lev",
        -12.111805020394238
      ],
      [
        "sul",
        -12.111955434302489
      ],
      [
        "xê",
        -12.122467554885075
      ],
      [
        "rcia",
        -12.123860352905794
      ],
      [
        "il",
        -12.124292158479124
      ],
      [
        "rvic",
        -12.128950855572253
      ],
      [
        "can",
        -12.129818131586125
      ],
      [
        "urd",
        -12.13668476529157
      ],
      [
        "dil",
        -12.137964251751912
      ],
      [
        "met",
        -12.141969446758608
      ],
      [
        "eor",
        -12.144589756911083
      ],
      [
        "sw",
        -12.145632443744098
      ],
      [
        "lip",
        -12.147197701707983
      ],
      [
        "alas",
        -12.147696349271513
      ],
      [
        "lườ",
        -12.151534881636241
      ],
      [
        "add",
        -12.15500248142637
      ],
      [
        "atal",
        -12.155648550042502
      ],
      [
        "wer",
        -12.157480351927505
      ],
      [
        "lata",
        -12.170071171823476
      ],
      [
        "hă",
        -12.171119699359455
      ],
      [
        "ian",
        -12.176492694566182
      ],
      [
        "rad",
        -12.17763731568511
      ],
      [
        "col",
        -12.181110873789637
      ],
      [
        "̛̃",
        -12.187377198319668
      ],
      [
        "võ",
        -12.189264807466774
      ],
      [
        "ndon",
        -12.189605681000906
      ],
      [
        "ur",
        -12.189608035929991
      ],
      [
        "ling",
        -12.192593239220889
      ],
      [
        "rmin",
        -12.193889792856957
      ],
      [
        "rline",
        -12.194156836440733
      ],
      [
        "mad",
        -12.204089574894226
      ],
      [
        "aki",
        -12.205145295519236
      ],
      [
        "rden",
        -12.205566086711118
      ],
      [
        "ert",
        -12.213934985247196
      ],
      [
        "mon",
        -12.235342543334738
      ],
      [
        "esp",
        -12.24256424967541
      ],
      [
        "anam",
        -12.24298675589166
      ],
      [
        "fat",
        -12.249581052537058
      ],
      [
        "owe",
        -12.250036255493892
      ],
      [
        "vie",
        -12.254851604778608
      ],
      [
        "ngơ",
        -12.256864184874145
      ],
      [
        "khe",
        -12.261193745814607
      ],
      [
        "ker",
        -12.264212347136139
      ],
      [
        "amin",
        -12.267141928723929
      ],
      [
        "fra",
        -12.27729390561252
      ],
      [
        "fic",
        -12.287542700180005
      ],
      [
        "trie",
        -12.31307439732296
      ],
      [
        "rốn",
        -12.31336889410893
      ],
      [
        "iz",
        -12.315661137188917
      ],
      [
        "bol",
        -12.322301928691994
      ],
      [
        "isi",
        -12.337486868651695
      ],
      [
        "khư",
        -12.339962171423632
      ],
      [
        "aff",
        -12.340290825603285
      ],
      [
        "rent",
        -12.347364280798228
      ],
      [
        "nsk",
        -12.351062196357674
      ],
      [
        "cạ",
        -12.356934475928014
      ],
      [
        "ara",
        -12.363551128364852
      ],
      [
        "enst",
        -12.36529486932367
      ],
      [
        "ree",
        -12.369061219722091
      ],
      [
        "ir",
        -12.369463598220582
      ],
      [
        "ie",
        -12.376531559650294
      ],
      [
        "bur",
        -12.376836831400661
      ],
      [
        "ros",
        -12.387304730019867
      ],
      [
        "ps",
        -12.390115876697994
      ],
      [
        "anto",
        -12.403361893604888
      ],
      [
        "anco",
        -12.403694011881583
      ],
      [
        "rist",
        -12.40386548430252
      ],
      [
        "thuy",
        -12.405975779172852
      ],
      [
        "ada",
        -12.40854341457402
      ],
      [
        "ele",
        -12.412105458392677
      ],
      [
        "vann",
        -12.412369861272573
      ],
      [
        "sant",
        -12.412726250851243
      ],
      [
        "làn",
        -12.413232483686667
      ],
      [
        "lia",
        -12.416131387394602
      ],
      [
        "chà",
        -12.443202198154165
      ],
      [
        "̛ờ",
        -12.444768241832527
      ],
      [
        "ion",
        -12.453874022254691
      ],
      [
        "rev",
        -12.454418839381933
      ],
      [
        "dri",
        -12.460270779677284
      ],
      [
        "geo",
        -12.462743451138
      ],
      [
        "sal",
        -12.466721631852215
      ],
      [
        "ll",
        -12.469780420101394
      ],
      [
        "mó",
        -12.471180845301852
      ],
      [
        "rani",
        -12.478735471315469
      ],
      [
        "lor",
        -12.484343812741287
      ],
      [
        "tier",
        -12.494744130231368
      ],
      [
        "đự",
        -12.494972123970545
      ],
      [
        "eri",
        -12.506899140927183
      ],
      [
        "bụ",
        -12.512530278872305
      ],
      [
        "ansa",
        -12.519544004641526
      ],
      [
        "dina",
        -12.526116133424454
      ],
      [
        "ej",
        -12.528694801251891
      ],
      [
        "hù",
        -12.531839625202888
      ],
      [
        "nghê",
        -12.535756382873707
      ],
      [
        "bli",
        -12.537289562703247
      ],
      [
        "king",
        -12.541288997343086
      ],
      [
        "vee",
        -12.541565189837518
      ],
      [
        "lie",
        -12.545135274126938
      ],
      [
        "lyn",
        -12.550302442651041
      ],
      [
        "bế",
        -12.55404111669256
      ],
      [
        "rne",
        -12.555977922962404
      ],
      [
        "ove",
        -12.556270720959123
      ],
      [
        "gas",
        -12.559360299031855
      ],
      [
        "rio",
        -12.570033937331564
      ],
      [
        "vers",
        -12.570550012217467
      ],
      [
        "ao",
        -12.57462915350432
      ],
      [
        "gẫ",
        -12.580051591819695
      ],
      [
        "nint",
        -12.584926826844912
      ],
      [
        "ẳn",
        -12.585454469875636
      ],
      [
        "celo",
        -12.586801875691753
      ],
      [
        "lgar",
        -12.598664614418876
      ],
      [
        "dav",
        -12.59917901575368
      ],
      [
        "dra",
        -12.602569375705112
      ],
      [
        "boni",
        -12.603636513784753
      ],
      [
        "mol",
        -12.617039207519717
      ],
      [
        "̛ợ",
        -12.624775235950484
      ],
      [
        "mur",
        -12.629809499688715
      ],
      [
        "gol",
        -12.632624472546414
      ],
      [
        "shan",
        -12.659084049987333
      ],
      [
        "gos",
        -12.673053515740875
      ],
      [
        "cor",
        -12.676511047231177
      ],
      [
        "omm",
        -12.67929963402743
      ],
      [
        "rep",
        -12.681781238158676
      ],
      [
        "spi",
        -12.682130268074612
      ],
      [
        "graf",
        -12.683717997716931
      ],
      [
        "gã",
        -12.684398184200639
      ],
      [
        "rk",
        -12.684461452163434
      ],
      [
        "eren",
        -12.686049133365591
      ],
      [
        "ephe",
        -12.690399007012573
      ],
      [
        "eva",
        -12.6910708500189
      ],
      [
        "eli",
        -12.691796842102313
      ],
      [
        "ụn",
        -12.69718495030929
      ],
      [
        "hượ",
        -12.697807455171457
      ],
      [
        "sit",
        -12.704572864035415
      ],
      [
        "rd",
        -12.705037500753349
      ],
      [
        "gor",
        -12.708380423938944
      ],
      [
        "gaz",
        -12.709338304120571
      ],
      [
        "hoả",
        -12.713277139146218
      ],
      [
        "hne",
        -12.719483230022234
      ],
      [
        "ead",
        -12.720459489244515
      ],
      [
        "kou",
        -12.722575284572205
      ],
      [
        "ylan",
        -12.72441312139146
      ],
      [
        "rola",
        -12.726940937704319
      ],
      [
        "rê",
        -12.729447207385467
      ],
      [
        "rmo",
        -12.730818497447725
      ],
      [
        "lympic",
        -12.735446580995221
      ],
      [
        "acks",
        -12.74831324359676
      ],
      [
        "ast",
        -12.74942046296573
      ],
      [
        "bri",
        -12.772616340494327
      ],
      [
        "ler",
        -12.790882401230526
      ],
      [
        "anf",
        -12.792369839355539
      ],
      [
        "toa",
        -12.809246381412361
      ],
      [
        "by",
        -12.815531836549871
      ],
      [
        "erd",
        -12.825443122733605
      ],
      [
        "că",
        -12.826078692707414
      ],
      [
        "ren",
        -12.829151676901235
      ],
      [
        "ặn",
        -12.840579411998482
      ],
      [
        "tric",
        -12.843625858497658
      ],
      [
        "obe",
        -12.845160105282215
      ],
      [
        "gom",
        -12.853029554872869
      ],
      [
        "au",
        -12.866512396075837
      ],
      [
        "rug",
        -12.869404874216055
      ],
      [
        "½",
        -12.87052709736093
      ],
      [
        "¾",
        -12.87052709736093
      ],
      [
        "ans",
        -12.871303382649554
      ],
      [
        "ange",
        -12.881512754232277
      ],
      [
        "ió",
        -12.88379705973922
      ],
      [
        "vad",
        -12.886941287635853
      ],
      [
        "umb",
        -12.892614809705126
      ],
      [
        "az",
        -12.894699824814069
      ],
      [
        "mant",
        -12.894846279339042
      ],
      [
        "emi",
        -12.899668690691444
      ],
      [
        "mani",
        -12.901891262488896
      ],
      [
        "pre",
        -12.91038553544056
      ],
      [
        "vic",
        -12.912913948979465
      ],
      [
        "ope",
        -12.913315168932389
      ],
      [
        "orde",
        -12.916849740737431
      ],
      [
        "ew",
        -12.916997705698394
      ],
      [
        "aol",
        -12.927814770836878
      ],
      [
        "ko",
        -12.934825739693387
      ],
      [
        "ak",
        -12.943233529285033
      ],
      [
        "enti",
        -12.944986303019851
      ],
      [
        "rai",
        -12.95726285660637
      ],
      [
        "mela",
        -12.968849741274159
      ],
      [
        "ave",
        -12.972422322097032
      ],
      [
        "mos",
        -12.973839291033105
      ],
      [
        "vâ",
        -12.975508663010475
      ],
      [
        "med",
        -12.981944048394361
      ],
      [
        "reni",
        -12.987256567087679
      ],
      [
        "chì",
        -12.99114311958215
      ],
      [
        "ben",
        -12.993495317937798
      ],
      [
        "pin",
        -12.997693950611053
      ],
      [
        "roma",
        -13.003279880867014
      ],
      [
        "hen",
        -13.003311928017588
      ],
      [
        "wil",
        -13.011966995173445
      ],
      [
        "rao",
        -13.0148474331185
      ],
      [
        "bla",
        -13.015229859311546
      ],
      [
        "ebo",
        -13.022053466084861
      ],
      [
        "rate",
        -13.025939723658418
      ],
      [
        "vàn",
        -13.032204395769668
      ],
      [
        "ama",
        -13.044273996580655
      ],
      [
        "fer",
        -13.045292054752139
      ],
      [
        "rư",
        -13.050791622434575
      ],
      [
        "nos",
        -13.051157486681738
      ],
      [
        "von",
        -13.054188224074327
      ],
      [
        "top",
        -13.056703631128121
      ],
      [
        "one",
        -13.064580982601917
      ],
      [
        "nàn",
        -13.065133399942672
      ],
      [
        "ỉ",
        -13.065953808860053
      ],
      [
        "sli",
        -13.069633359566934
      ],
      [
        "iti",
        -13.073038986474835
      ],
      [
        "kal",
        -13.07460469385215
      ],
      [
        "wh",
        -13.07793970226046
      ],
      [
        "spa",
        -13.095259096913312
      ],
      [
        "arbo",
        -13.103930977120118
      ],
      [
        "taf",
        -13.105942240657145
      ],
      [
        "ckla",
        -13.106528591471042
      ],
      [
        "quạ",
        -13.114523063986306
      ],
      [
        "sha",
        -13.115815306863277
      ],
      [
        "ema",
        -13.11592667601265
      ],
      [
        "ad",
        -13.133608120943865
      ],
      [
        "mas",
        -13.135536375241227
      ],
      [
        "ylo",
        -13.135884642393332
      ],
      [
        "ka",
        -13.14382678088292
      ],
      [
        "ami",
        -13.144271862339508
      ],
      [
        "utan",
        -13.146222862779364
      ],
      [
        "uri",
        -13.148017129270006
      ],
      [
        "sho",
        -13.151750483789277
      ],
      [
        "om",
        -13.155373326648789
      ],
      [
        "mbu",
        -13.157651752487704
      ],
      [
        "ite",
        -13.158385419776053
      ],
      [
        "sso",
        -13.158544734225504
      ],
      [
        "tan",
        -13.167479829406034
      ],
      [
        "ichte",
        -13.167826248411592
      ],
      [
        "stro",
        -13.17475497531538
      ],
      [
        "mino",
        -13.18023178300458
      ],
      [
        "sam",
        -13.192212264381691
      ],
      [
        "oms",
        -13.19286807020172
      ],
      [
        "oma",
        -13.201825892004084
      ],
      [
        "her",
        -13.203245052401124
      ],
      [
        "nồ",
        -13.204117821946857
      ],
      [
        "anal",
        -13.20433523963146
      ],
      [
        "rap",
        -13.205340530022232
      ],
      [
        "apto",
        -13.217910603645104
      ],
      [
        "trat",
        -13.226061333052625
      ],
      [
        "amp",
        -13.22808348364913
      ],
      [
        "loe",
        -13.236312234687901
      ],
      [
        "ctor",
        -13.24123654515777
      ],
      [
        "ge",
        -13.246650429676052
      ],
      [
        "ndro",
        -13.24884938257497
      ],
      [
        "vang",
        -13.25491140940682
      ],
      [
        "imb",
        -13.255884765491938
      ],
      [
        "hur",
        -13.258315693455515
      ],
      [
        "pia",
        -13.278478165126648
      ],
      [
        "tom",
        -13.279988560115955
      ],
      [
        "ash",
        -13.285459061324731
      ],
      [
        "ethe",
        -13.28776140856436
      ],
      [
        "cas",
        -13.292307293746044
      ],
      [
        "mana",
        -13.30096111098629
      ],
      [
        "ranc",
        -13.315064766922829
      ],
      [
        "è",
        -13.320444573648187
      ],
      [
        "hane",
        -13.322519731767088
      ],
      [
        "rươ",
        -13.328256635616723
      ],
      [
        "art",
        -13.341622552384699
      ],
      [
        "hăn",
        -13.344012943847774
      ],
      [
        "ks",
        -13.350362706415693
      ],
      [
        "xon",
        -13.356467035066004
      ],
      [
        "fan",
        -13.364655557796617
      ],
      [
        "sé",
        -13.365586384593877
      ],
      [
        "afi",
        -13.367893403495275
      ],
      [
        "tte",
        -13.371360026089384
      ],
      [
        "mit",
        -13.372166367120794
      ],
      [
        "hụ",
        -13.372336357493104
      ],
      [
        "buo",
        -13.389866086215386
      ],
      [
        "ola",
        -13.401896032595783
      ],
      [
        "ral",
        -13.402208385290724
      ],
      [
        "prin",
        -13.418842349045104
      ],
      [
        "elo",
        -13.424961597825577
      ],
      [
        "err",
        -13.426037696948887
      ],
      [
        "oke",
        -13.444330149935181
      ],
      [
        "vil",
        -13.447961534158141
      ],
      [
        "itut",
        -13.450618055611343
      ],
      [
        "oron",
        -13.451425960174127
      ],
      [
        "tam",
        -13.452559995192743
      ],
      [
        "ún",
        -13.456871024337941
      ],
      [
        "set",
        -13.460676318979388
      ],
      [
        "ings",
        -13.478759114055014
      ],
      [
        "mis",
        -13.493037142530234
      ],
      [
        "ngh",
        -13.510453123536152
      ],
      [
        "ser",
        -13.529699087999525
      ],
      [
        "rig",
        -13.532385572643985
      ],
      [
        "pr",
        -13.542691493020214
      ],
      [
        "ican",
        -13.545859593748991
      ],
      [
        "oton",
        -13.56607093778077
      ],
      [
        "rau",
        -13.57090898260435
      ],
      [
        "né",
        -13.574223607574684
      ],
      [
        "sl",
        -13.579739903302718
      ],
      [
        "pat",
        -13.594635095573373
      ],
      [
        "rdo",
        -13.598382194010176
      ],
      [
        "gạ",
        -13.598440136793839
      ],
      [
        "cong",
        -13.625492536874546
      ],
      [
        "pou",
        -13.642971554324474
      ],
      [
        "õ",
        -13.643323921206655
      ],
      [
        "gừ",
        -13.651268968690584
      ],
      [
        "ille",
        -13.652034672137766
      ],
      [
        "nguye",
        -13.654603571016425
      ],
      [
        "mai",
        -13.657922942485524
      ],
      [
        "phà",
        -13.660788060772317
      ],
      [
        "mich",
        -13.666073007585481
      ],
      [
        "uf",
        -13.681030564238325
      ],
      [
        "sto",
        -13.685151527601683
      ],
      [
        "inne",
        -13.686851066297725
      ],
      [
        "hal",
        -13.706626906936059
      ],
      [
        "gle",
        -13.727950899489398
      ],
      [
        "anne",
        -13.755126524337959
      ],
      [
        "ờn",
        -13.757687629297662
      ],
      [
        "amb",
        -13.76142694977559
      ],
      [
        "uru",
        -13.766169785859317
      ],
      [
        "wy",
        -13.781590970148281
      ],
      [
        "unci",
        -13.792130004371973
      ],
      [
        "zen",
        -13.798753659773988
      ],
      [
        "yể",
        -13.804542822850369
      ],
      [
        "tas",
        -13.805484869283848
      ],
      [
        "est",
        -13.81039024533423
      ],
      [
        "uer",
        -13.816558571367548
      ],
      [
        "ns",
        -13.84895197017197
      ],
      [
        "rop",
        -13.851904990523243
      ],
      [
        "issi",
        -13.853164645590091
      ],
      [
        "joh",
        -13.871401299013478
      ],
      [
        "uche",
        -13.873164652875136
      ],
      [
        "lat",
        -13.873252059846994
      ],
      [
        "hẽ",
        -13.87630471356971
      ],
      [
        "ya",
        -13.880572742677705
      ],
      [
        "ló",
        -13.8860301999731
      ],
      [
        "mp",
        -13.899474451104478
      ],
      [
        "aud",
        -13.914085835751262
      ],
      [
        "rya",
        -13.921200933800078
      ],
      [
        "sar",
        -13.949019016216363
      ],
      [
        "imon",
        -13.952587653499341
      ],
      [
        "dai",
        -13.956912870394028
      ],
      [
        "kra",
        -13.97484579954521
      ],
      [
        "eni",
        -13.978390645355198
      ],
      [
        "̛́n",
        -13.999563222636402
      ],
      [
        "liv",
        -14.008968494125279
      ],
      [
        "sy",
        -14.01008542424495
      ],
      [
        "ars",
        -14.033373434518886
      ],
      [
        "hừ",
        -14.034919865468451
      ],
      [
        "rs",
        -14.037400656707932
      ],
      [
        "naz",
        -14.043668237060915
      ],
      [
        "and",
        -14.043724434669414
      ],
      [
        "aust",
        -14.052131766489355
      ],
      [
        "hua",
        -14.053355969267857
      ],
      [
        "ati",
        -14.055475834043207
      ],
      [
        "asu",
        -14.060185361633348
      ],
      [
        "vel",
        -14.065460900397166
      ],
      [
        "ege",
        -14.090464712814663
      ],
      [
        "sp",
        -14.109465288593157
      ],
      [
        "airo",
        -14.110186353288718
      ],
      [
        "vec",
        -14.113558917052345
      ],
      [
        "enin",
        -14.127948657647314
      ],
      [
        "llo",
        -14.140930723102066
      ],
      [
        "kla",
        -14.148917816846293
      ],
      [
        "roto",
        -14.148963536842713
      ],
      [
        "mps",
        -14.151479129923652
      ],
      [
        "kr",
        -14.162817010567592
      ],
      [
        "arol",
        -14.164385261072114
      ],
      [
        "eth",
        -14.165360017551384
      ],
      [
        "bs",
        -14.16554964643892
      ],
      [
        "po",
        -14.174265501988893
      ],
      [
        "eba",
        -14.188523446742312
      ],
      [
        "un",
        -14.208899762357166
      ],
      [
        "ròn",
        -14.218913286490276
      ],
      [
        "apo",
        -14.231726985917717
      ],
      [
        "arl",
        -14.236181933388352
      ],
      [
        "huô",
        -14.236375945710611
      ],
      [
        "esc",
        -14.238296544111254
      ],
      [
        "ust",
        -14.242988717822554
      ],
      [
        "len",
        -14.24468527219075
      ],
      [
        "llin",
        -14.245038723820292
      ],
      [
        "̈",
        -14.249178090382648
      ],
      [
        "ervi",
        -14.249178090382648
      ]
    ]
  }
}