{
  "version": "1.0",
  "truncation": null,
  "padding": null,
  "added_tokens": [
    {
      "id": 0,
      "content": "<BLANK>",
      "single_word": false,
      "lstrip": false,
      "rstrip": false,
      "normalized": false,
      "special": true
    },
    {
      "id": 1,
      "content": "<S>",
      "single_word": false,
      "lstrip": false,
      "rstrip": false,
      "normalized": false,
      "special": true
    },
    {
      "id": 2,
      "content": "<UNK>",
      "single_word": false,
      "lstrip": false,
      "rstrip": false,
      "normalized": false,
      "special": true
    }
  ],
  "normalizer": {
    "type": "Sequence",
    "normalizers": [
      {
        "type": "NFD"
      },
      {
        "type": "Lowercase"
      }
    ]
  },
  "pre_tokenizer": {
    "type": "Sequence",
    "pretokenizers": [
      {
        "type": "Whitespace"
      },
      {
        "type": "Digits",
        "individual_digits": false
      }
    ]
  },
  "post_processor": null,
  "decoder": null,
  "model": {
    "type": "WordPiece",
    "unk_token": "[UNK]",
    "continuing_subword_prefix": "##",
    "max_input_chars_per_word": 100,
    "vocab": {
      "<BLANK>": 0,
      "<S>": 1,
      "<UNK>": 2,
      "!": 3,
      "\"": 4,
      "$": 5,
      "%": 6,
      "&": 7,
      "'": 8,
      "(": 9,
      ")": 10,
      "+": 11,
      ",": 12,
      "-": 13,
      ".": 14,
      "/": 15,
      "0": 16,
      "1": 17,
      "2": 18,
      "3": 19,
      "4": 20,
      "5": 21,
      "6": 22,
      "7": 23,
      "8": 24,
      "9": 25,
      ":": 26,
      ";": 27,
      "<": 28,
      ">": 29,
      "?": 30,
      "[": 31,
      "]": 32,
      "a": 33,
      "b": 34,
      "c": 35,
      "d": 36,
      "e": 37,
      "f": 38,
      "g": 39,
      "h": 40,
      "i": 41,
      "j": 42,
      "k": 43,
      "l": 44,
      "m": 45,
      "n": 46,
      "o": 47,
      "p": 48,
      "q": 49,
      "r": 50,
      "s": 51,
      "t": 52,
      "u": 53,
      "v": 54,
      "w": 55,
      "x": 56,
      "y": 57,
      "z": 58,
      "~": 59,
      "¥": 60,
      "°": 61,
      "²": 62,
      "½": 63,
      "¾": 64,
      "đ": 65,
      "̀": 66,
      "́": 67,
      "̂": 68,
      "̃": 69,
      "̆": 70,
      "̈": 71,
      "̉": 72,
      "̛": 73,
      "̣": 74,
      "̧": 75,
      "–": 76,
      "—": 77,
      "‘": 78,
      "’": 79,
      "“": 80,
      "”": 81,
      "##o": 82,
      "##́": 83,
      "##p": 84,
      "##l": 85,
      "##c": 86,
      "##a": 87,
      "##u": 88,
      "##s": 89,
      "##i": 90,
      "##h": 91,
      "##̀": 92,
      "##m": 93,
      "##̂": 94,
      "##t": 95,
      "##\"": 96,
      "##j": 97,
      "##n": 98,
      "##g": 99,
      "##e": 100,
      "##̉": 101,
      "##̣": 102,
      "##r": 103,
      "##̛": 104,
      "##f": 105,
      "##y": 106,
      "##d": 107,
      "##̆": 108,
      "##b": 109,
      "##w": 110,
      "##̃": 111,
      "##v": 112,
      "##8": 113,
      "##k": 114,
      "##0": 115,
      "##x": 116,
      "##2": 117,
      "##z": 118,
      "##9": 119,
      "##6": 120,
      "##3": 121,
      "##5": 122,
      "##7": 123,
      "##.": 124,
      "##q": 125,
      "##̈": 126,
      "##1": 127,
      "##4": 128,
      "##”": 129,
      "##̧": 130,
      "##(": 131,
      "##,": 132,
      "##-": 133,
      "##/": 134,
      "##:": 135,
      "##)": 136,
      "##;": 137,
      "##“": 138,
      "##ng": 139,
      "##ư": 140,
      "##ê": 141,
      "##ơ": 142,
      "##à": 143,
      "##̣̂": 144,
      "##ô": 145,
      "th": 146,
      "##â": 147,
      "##á": 148,
      "##ươ": 149,
      "tr": 150,
      "##iê": 151,
      "ch": 152,
      "##ạ": 153,
      "nh": 154,
      "##nh": 155,
      "kh": 156,
      "##ộ": 157,
      "##ó": 158,
      "##́t": 159,
      "ng": 160,
      "##̣c": 161,
      "và": 162,
      "##ă": 163,
      "##́c": 164,
      "ph": 165,
      "cu": 166,
      "##ác": 167,
      "##ả": 168,
      "##ệ": 169,
      "##̀ng": 170,
      "gi": 171,
      "##́n": 172,
      "##́i": 173,
      "qu": 174,
      "##iệ": 175,
      "##ông": 176,
      "##̉a": 177,
      "là": 178,
      "##̀n": 179,
      "như": 180,
      "##̀i": 181,
      "có": 182,
      "##ể": 183,
      "##ậ": 184,
      "của": 185,
      "ho": 186,
      "##̀u": 187,
      "##́ng": 188,
      "các": 189,
      "đươ": 190,
      "##̃ng": 191,
      "##ột": 192,
      "một": 193,
      "##ã": 194,
      "##an": 195,
      "##ị": 196,
      "##ì": 197,
      "##ất": 198,
      "##ong": 199,
      "##uy": 200,
      "được": 201,
      "##ên": 202,
      "##ại": 203,
      "##ới": 204,
      "trong": 205,
      "##ặ": 206,
      "những": 207,
      "##ười": 208,
      "##í": 209,
      "##ày": 210,
      "tư": 211,
      "đã": 212,
      "đê": 213,
      "người": 214,
      "##́p": 215,
      "##iể": 216,
      "du": 217,
      "sư": 218,
      "##iên": 219,
      "độ": 220,
      "##ay": 221,
      "##ế": 222,
      "ơ": 223,
      "cho": 224,
      "ở": 225,
      "thể": 226,
      "##ân": 227,
      "không": 228,
      "##ình": 229,
      "##ố": 230,
      "##ầu": 231,
      "##ần": 232,
      "##ổ": 233,
      "##̣ng": 234,
      "thư": 235,
      "##iện": 236,
      "##ạn": 237,
      "##ành": 238,
      "với": 239,
      "này": 240,
      "##iều": 241,
      "chu": 242,
      "nă": 243,
      "thu": 244,
      "tiê": 245,
      "##ang": 246,
      "khi": 247,
      "##ước": 248,
      "vào": 249,
      "hơ": 250,
      "##ải": 251,
      "bă": 252,
      "##ặc": 253,
      "khác": 254,
      "để": 255,
      "##on": 256,
      "##ai": 257,
      "ngh": 258,
      "##ết": 259,
      "##ường": 260,
      "##ận": 261,
      "##ài": 262,
      "phá": 263,
      "##ây": 264,
      "đến": 265,
      "##ao": 266,
      "##ữ": 267,
      "##ương": 268,
      "từ": 269,
      "##ống": 270,
      "##ốc": 271,
      "##inh": 272,
      "##au": 273,
      "##ề": 274,
      "##ật": 275,
      "bị": 276,
      "##ính": 277,
      "##ở": 278,
      "vu": 279,
      "ra": 280,
      "đô": 281,
      "sự": 282,
      "##ẽ": 283,
      "chi": 284,
      "đị": 285,
      "##ời": 286,
      "đó": 287,
      "##ấ": 288,
      "bạn": 289,
      "cư": 290,
      "##eo": 291,
      "về": 292,
      "năm": 293,
      "##am": 294,
      "lo": 295,
      "động": 296,
      "cả": 297,
      "##in": 298,
      "##àng": 299,
      "sẽ": 300,
      "##̃n": 301,
      "##iến": 302,
      "##iệc": 303,
      "số": 304,
      "trên": 305,
      "##ản": 306,
      "việc": 307,
      "##ộc": 308,
      "##ập": 309,
      "ky": 310,
      "##áo": 311,
      "##ỏ": 312,
      "##àn": 313,
      "nhiều": 314,
      "hơn": 315,
      "##̀m": 316,
      "nó": 317,
      "##er": 318,
      "công": 319,
      "đầu": 320,
      "##ar": 321,
      "##̉ng": 322,
      "đi": 323,
      "##iết": 324,
      "tuy": 325,
      "nhất": 326,
      "thành": 327,
      "##iểm": 328,
      "tại": 329,
      "gia": 330,
      "theo": 331,
      "##áng": 332,
      "##anh": 333,
      "hoặc": 334,
      "khu": 335,
      "##ền": 336,
      "nước": 337,
      "##ơi": 338,
      "nhà": 339,
      "##ức": 340,
      "##̣ch": 341,
      "##̣i": 342,
      "##ực": 343,
      "hiện": 344,
      "mu": 345,
      "quốc": 346,
      "tô": 347,
      "xe": 348,
      "thường": 349,
      "cũng": 350,
      "â": 351,
      "sau": 352,
      "##ịch": 353,
      "##ái": 354,
      "quan": 355,
      "do": 356,
      "lu": 357,
      "##ăn": 358,
      "tru": 359,
      "chỉ": 360,
      "ô": 361,
      "##al": 362,
      "thế": 363,
      "tu": 364,
      "họ": 365,
      "phải": 366,
      "##̀a": 367,
      "phu": 368,
      "##en": 369,
      "chính": 370,
      "kho": 371,
      "chúng": 372,
      "dụng": 373,
      "##ấp": 374,
      "lại": 375,
      "cách": 376,
      "chuy": 377,
      "##ĩ": 378,
      "học": 379,
      "##ặt": 380,
      "##̣p": 381,
      "to": 382,
      "##âu": 383,
      "ră": 384,
      "##iểu": 385,
      "xu": 386,
      "thông": 387,
      "##́ch": 388,
      "##ổi": 389,
      "trước": 390,
      "quy": 391,
      "lơ": 392,
      "co": 393,
      "##00": 394,
      "##ọi": 395,
      "##ối": 396,
      "qua": 397,
      "phát": 398,
      "thời": 399,
      "##ạt": 400,
      "##ảng": 401,
      "rằng": 402,
      "con": 403,
      "##ôn": 404,
      "địa": 405,
      "nên": 406,
      "##́m": 407,
      "##ảo": 408,
      "##iển": 409,
      "hai": 410,
      "##ạng": 411,
      "nhưng": 412,
      "sử": 413,
      "vâ": 414,
      "##ạo": 415,
      "##ào": 416,
      "##ỗ": 417,
      "thực": 418,
      "ngày": 419,
      "\"\"": 420,
      "##ch": 421,
      "rất": 422,
      "##iệt": 423,
      "điều": 424,
      "##ánh": 425,
      "hàng": 426,
      "lươ": 427,
      "##ẩ": 428,
      "##át": 429,
      "làm": 430,
      "vì": 431,
      "##ội": 432,
      "mà": 433,
      "điểm": 434,
      "cơ": 435,
      "vật": 436,
      "đường": 437,
      "phí": 438,
      "hình": 439,
      "đại": 440,
      "định": 441,
      "viên": 442,
      "##ờ": 443,
      "bản": 444,
      "bằng": 445,
      "cuộc": 446,
      "##ếu": 447,
      "##̉nh": 448,
      "##ia": 449,
      "##óa": 450,
      "##or": 451,
      "thứ": 452,
      "hành": 453,
      "nơi": 454,
      "dư": 455,
      "##ẻ": 456,
      "##̣t": 457,
      "ngo": 458,
      "##ấy": 459,
      "##ưởng": 460,
      "vụ": 461,
      "trình": 462,
      "hợp": 463,
      "bộ": 464,
      "pháp": 465,
      "trường": 466,
      "tiếng": 467,
      "nhận": 468,
      "trung": 469,
      "##óng": 470,
      "hay": 471,
      "giới": 472,
      "##ấu": 473,
      "##iệu": 474,
      "lớn": 475,
      "kết": 476,
      "ta": 477,
      "đang": 478,
      "hóa": 479,
      "kỳ": 480,
      "lịch": 481,
      "bắt": 482,
      "##ích": 483,
      "dân": 484,
      "đo": 485,
      "##ữa": 486,
      "nói": 487,
      "biết": 488,
      "liên": 489,
      "##ưa": 490,
      "tro": 491,
      "nhân": 492,
      "ông": 493,
      "##áy": 494,
      "thức": 495,
      "nào": 496,
      "tiếp": 497,
      "##́u": 498,
      "trở": 499,
      "tự": 500,
      "tổ": 501,
      "##is": 502,
      "hô": 503,
      "văn": 504,
      "##el": 505,
      "nguy": 506,
      "##ởi": 507,
      "ly": 508,
      "mặt": 509,
      "chiến": 510,
      "tạo": 511,
      "##ắc": 512,
      "dù": 513,
      "khách": 514,
      "ảnh": 515,
      "vực": 516,
      "tháng": 517,
      "##uyền": 518,
      "đu": 519,
      "##ôi": 520,
      "báo": 521,
      "giải": 522,
      "phía": 523,
      "anh": 524,
      "cấp": 525,
      "##ốn": 526,
      "khoảng": 527,
      "đây": 528,
      "phần": 529,
      "##es": 530,
      "##ộng": 531,
      "so": 532,
      "##âm": 533,
      "lý": 534,
      "cần": 535,
      "nam": 536,
      "nếu": 537,
      "vi": 538,
      "ý": 539,
      "chiê": 540,
      "nhiên": 541,
      "ba": 542,
      "##ến": 543,
      "##ển": 544,
      "năng": 545,
      "còn": 546,
      "##et": 547,
      "vùng": 548,
      "gọi": 549,
      "mới": 550,
      "##at": 551,
      "nhau": 552,
      "đồng": 553,
      "đối": 554,
      "lượng": 555,
      "##as": 556,
      "cùng": 557,
      "bay": 558,
      "đất": 559,
      "##àu": 560,
      "ro": 561,
      "tin": 562,
      "##̣a": 563,
      "gian": 564,
      "##and": 565,
      "thă": 566,
      "##ạm": 567,
      "##ệnh": 568,
      "đề": 569,
      "cầu": 570,
      "lên": 571,
      "sinh": 572,
      "tế": 573,
      "di": 574,
      "lư": 575,
      "##ứng": 576,
      "chức": 577,
      "xuất": 578,
      "mặc": 579,
      "##án": 580,
      "##iệm": 581,
      "##ượt": 582,
      "bu": 583,
      "ư": 584,
      "đông": 585,
      "phi": 586,
      "##ìm": 587,
      "hệ": 588,
      "##ách": 589,
      ".\"": 590,
      "phương": 591,
      "đều": 592,
      "19": 593,
      "ban": 594,
      "bởi": 595,
      "gần": 596,
      "máy": 597,
      "tình": 598,
      "##ễ": 599,
      "##iễn": 600,
      "quân": 601,
      "thủ": 602,
      "nghĩ": 603,
      "vẫn": 604,
      "hội": 605,
      "tiên": 606,
      "phố": 607,
      "loài": 608,
      "tìm": 609,
      "hầu": 610,
      "nay": 611,
      "thống": 612,
      "toàn": 613,
      "sát": 614,
      "tàu": 615,
      "giáo": 616,
      "ngoài": 617,
      "lập": 618,
      "chuyển": 619,
      "tới": 620,
      "##ầm": 621,
      "gô": 622,
      "hết": 623,
      "tính": 624,
      "loại": 625,
      "vị": 626,
      "thị": 627,
      "bao": 628,
      "biệt": 629,
      "su": 630,
      "thấy": 631,
      "nhỏ": 632,
      "cảnh": 633,
      "hu": 634,
      "##ic": 635,
      "##ăng": 636,
      "hoạt": 637,
      "##ẩn": 638,
      "bệnh": 639,
      "đặc": 640,
      "##é": 641,
      "tho": 642,
      "##ạc": 643,
      "trọng": 644,
      "gồm": 645,
      "cao": 646,
      "tây": 647,
      "truyền": 648,
      "chất": 649,
      "giá": 650,
      "##ỗi": 651,
      "biến": 652,
      "mình": 653,
      "vận": 654,
      "##ro": 655,
      "##iệp": 656,
      "mùa": 657,
      "đội": 658,
      "minh": 659,
      "##ướng": 660,
      "##ảm": 661,
      "##ảy": 662,
      "lực": 663,
      "châu": 664,
      "##ạnh": 665,
      "##ãy": 666,
      "lần": 667,
      "giu": 668,
      "giữa": 669,
      "bắc": 670,
      "biển": 671,
      "tất": 672,
      "thiết": 673,
      "ă": 674,
      "mọi": 675,
      "nu": 676,
      "sống": 677,
      "tập": 678,
      "thương": 679,
      "giúp": 680,
      "ăn": 681,
      "mang": 682,
      "sáng": 683,
      "tác": 684,
      "##it": 685,
      "kỷ": 686,
      "##le": 687,
      "##us": 688,
      "giống": 689,
      "thuộc": 690,
      "tham": 691,
      "quyền": 692,
      "ty": 693,
      "trượt": 694,
      "khỏ": 695,
      "dươ": 696,
      "##è": 697,
      "##ẫn": 698,
      "##óm": 699,
      "nghĩa": 700,
      "điện": 701,
      "##òng": 702,
      "ngữ": 703,
      "diễn": 704,
      "ít": 705,
      "đảo": 706,
      "hoa": 707,
      "chủ": 708,
      "tuyết": 709,
      "chiếc": 710,
      "dịch": 711,
      "hãy": 712,
      "##ing": 713,
      ").": 714,
      "dài": 715,
      "##ol": 716,
      "thì": 717,
      "##ắt": 718,
      "giờ": 719,
      "kiện": 720,
      "##ur": 721,
      "##ép": 722,
      "chương": 723,
      "cử": 724,
      "vấn": 725,
      "giao": 726,
      "nguyên": 727,
      "bất": 728,
      "bên": 729,
      "bảo": 730,
      "đổi": 731,
      "##im": 732,
      "##ấn": 733,
      "ngu": 734,
      "tốt": 735,
      "cố": 736,
      "tay": 737,
      "##ợ": 738,
      "bình": 739,
      "cáo": 740,
      "in": 741,
      "##̣n": 742,
      "##êu": 743,
      "trí": 744,
      "##iêng": 745,
      "nhóm": 746,
      "cung": 747,
      "xác": 748,
      "đưa": 749,
      "##ám": 750,
      "ngôn": 751,
      "##ậy": 752,
      "cứu": 753,
      "gây": 754,
      "##ừng": 755,
      "bầu": 756,
      "quá": 757,
      "hưởng": 758,
      "##̀y": 759,
      "khoa": 760,
      "kinh": 761,
      "tương": 762,
      "tiêu": 763,
      "cộng": 764,
      "##ap": 765,
      "##ạch": 766,
      "hiểu": 767,
      "yêu": 768,
      "đặt": 769,
      "đánh": 770,
      "##lo": 771,
      "##̉i": 772,
      "thay": 773,
      "khả": 774,
      "khỏi": 775,
      "biểu": 776,
      "##́y": 777,
      "tranh": 778,
      "chứng": 779,
      "băng": 780,
      "ấn": 781,
      "dưới": 782,
      "##ad": 783,
      "##ak": 784,
      "triển": 785,
      "##iền": 786,
      "quả": 787,
      "tử": 788,
      "chuyến": 789,
      "ai": 790,
      "bã": 791,
      "bỏ": 792,
      "kế": 793,
      "đơ": 794,
      "luật": 795,
      "kiến": 796,
      "ne": 797,
      "phép": 798,
      "nghi": 799,
      "an": 800,
      "em": 801,
      "kể": 802,
      "kiểm": 803,
      "đức": 804,
      "##re": 805,
      "trẻ": 806,
      "##ạy": 807,
      "khó": 808,
      "khí": 809,
      "dùng": 810,
      "ấy": 811,
      "200": 812,
      "cổ": 813,
      "tên": 814,
      "##ri": 815,
      "##ồi": 816,
      "##ượng": 817,
      "núi": 818,
      "dễ": 819,
      "##ồn": 820,
      "chuẩn": 821,
      "20": 822,
      "##ắm": 823,
      "##ặm": 824,
      "tôi": 825,
      "âu": 826,
      "duy": 827,
      "mười": 828,
      "mỗi": 829,
      "nữ": 830,
      "sao": 831,
      "vậy": 832,
      "##ỹ": 833,
      "##ứ": 834,
      "bóng": 835,
      "tích": 836,
      "##hi": 837,
      "##ter": 838,
      "##ra": 839,
      "thích": 840,
      "trái": 841,
      "nghiệm": 842,
      "dự": 843,
      "căn": 844,
      "hướng": 845,
      "mức": 846,
      "mỹ": 847,
      "tâm": 848,
      "đấu": 849,
      "thần": 850,
      "##ắng": 851,
      "##ện": 852,
      "độc": 853,
      "xem": 854,
      "phủ": 855,
      "dành": 856,
      "hạn": 857,
      "kính": 858,
      "tinh": 859,
      "thân": 860,
      "trang": 861,
      "gì": 862,
      "sĩ": 863,
      "quanh": 864,
      "##ấm": 865,
      "bố": 866,
      "dẫn": 867,
      "dặm": 868,
      "rộng": 869,
      "st": 870,
      "giữ": 871,
      "phụ": 872,
      "đua": 873,
      "lưu": 874,
      "á": 875,
      "tốc": 876,
      "viện": 877,
      "đài": 878,
      "##ne": 879,
      "triệu": 880,
      "cuối": 881,
      "giảm": 882,
      "hòa": 883,
      "tiết": 884,
      "tiền": 885,
      "xuống": 886,
      "10": 887,
      "bang": 888,
      "la": 889,
      "mạng": 890,
      "sách": 891,
      "xa": 892,
      "##ạp": 893,
      "ngôi": 894,
      "phong": 895,
      "hoang": 896,
      "nghiên": 897,
      "hiểm": 898,
      "ru": 899,
      "đe": 900,
      "##om": 901,
      "tra": 902,
      "trận": 903,
      "chơi": 904,
      "ngay": 905,
      "##ắp": 906,
      "phổ": 907,
      "cụ": 908,
      "từng": 909,
      "tuyên": 910,
      "tối": 911,
      "##ẩm": 912,
      "lâu": 913,
      "riêng": 914,
      "sở": 915,
      "sản": 916,
      "vô": 917,
      "##ầy": 918,
      "ngư": 919,
      "11": 920,
      "cái": 921,
      "nền": 922,
      "sơ": 923,
      "viết": 924,
      "##ìn": 925,
      "##th": 926,
      "##iếm": 927,
      "nhật": 928,
      "nhiệt": 929,
      "phòng": 930,
      "danh": 931,
      "hiệu": 932,
      "tài": 933,
      "vệ": 934,
      "đáng": 935,
      "trị": 936,
      "trạng": 937,
      "nhiê": 938,
      "phân": 939,
      "hoàn": 940,
      "##ặp": 941,
      "tuổi": 942,
      "ứng": 943,
      "al": 944,
      "cây": 945,
      "tiểu": 946,
      "xây": 947,
      "yếu": 948,
      "trời": 949,
      "##iếu": 950,
      "chạy": 951,
      "nhanh": 952,
      "nhìn": 953,
      "chọn": 954,
      "nằm": 955,
      "thuật": 956,
      "cửa": 957,
      "hạng": 958,
      "##ck": 959,
      "##il": 960,
      "##ta": 961,
      "chế": 962,
      "##ắn": 963,
      "tiến": 964,
      "quyết": 965,
      "##éo": 966,
      "thoại": 967,
      "diện": 968,
      "km": 969,
      "nhập": 970,
      "quần": 971,
      "cứ": 972,
      "mục": 973,
      "ống": 974,
      "phục": 975,
      "hôm": 976,
      "ươ": 977,
      "##èo": 978,
      "mở": 979,
      "nội": 980,
      "sông": 981,
      "ti": 982,
      "đa": 983,
      "##̉y": 984,
      "vài": 985,
      "sức": 986,
      "nghiệp": 987,
      "đồ": 988,
      "muốn": 989,
      "dựng": 990,
      "tổng": 991,
      "thắng": 992,
      "câu": 993,
      "nổi": 994,
      "tố": 995,
      "vo": 996,
      "đá": 997,
      "trợ": 998,
      "lúc": 999,
      "##ist": 1000,
      "dã": 1001,
      "gắng": 1002,
      "lời": 1003,
      "liệu": 1004,
      "môn": 1005,
      "##eb": 1006,
      "thái": 1007,
      "trưởng": 1008,
      "đêm": 1009,
      "đôi": 1010,
      "cực": 1011,
      "âm": 1012,
      "nguồn": 1013,
      "lái": 1014,
      "mã": 1015,
      "mạnh": 1016,
      "nạn": 1017,
      "sân": 1018,
      "##ag": 1019,
      "##ốt": 1020,
      "thanh": 1021,
      "chung": 1022,
      "khủng": 1023,
      "ngựa": 1024,
      "000": 1025,
      "hạt": 1026,
      "jo": 1027,
      "##ton": 1028,
      "##̃i": 1029,
      "##̃m": 1030,
      "trải": 1031,
      "chân": 1032,
      "chưa": 1033,
      "##uyên": 1034,
      "đền": 1035,
      "tuần": 1036,
      "đơn": 1037,
      "ca": 1038,
      "hy": 1039,
      "lễ": 1040,
      "tai": 1041,
      "xảy": 1042,
      "##land": 1043,
      "vua": 1044,
      "dòng": 1045,
      "luận": 1046,
      "trò": 1047,
      "dương": 1048,
      "gặp": 1049,
      "hiệp": 1050,
      "kéo": 1051,
      "đạt": 1052,
      "đạo": 1053,
      "##ly": 1054,
      "##ran": 1055,
      "##êm": 1056,
      "thêm": 1057,
      "##áu": 1058,
      "chỗ": 1059,
      "quay": 1060,
      "kỹ": 1061,
      "rõ": 1062,
      "new": 1063,
      "án": 1064,
      "ha": 1065,
      "tăng": 1066,
      "”.": 1067,
      "##os": 1068,
      "##id": 1069,
      "chị": 1070,
      "##uyết": 1071,
      "##ặng": 1072,
      "thúc": 1073,
      "ký": 1074,
      "tòa": 1075,
      "16": 1076,
      "ar": 1077,
      "dạng": 1078,
      "ke": 1079,
      "mất": 1080,
      "tưởng": 1081,
      "vé": 1082,
      "đứng": 1083,
      "##te": 1084,
      "khá": 1085,
      "##ậm": 1086,
      "tục": 1087,
      "lợi": 1088,
      "đoạn": 1089,
      "15": 1090,
      "hộ": 1091,
      "môi": 1092,
      "ri": 1093,
      "##co": 1094,
      "thổ": 1095,
      "##ệt": 1096,
      "hơi": 1097,
      "thăm": 1098,
      ".\"\"": 1099,
      "bốn": 1100,
      "kim": 1101,
      "lệ": 1102,
      "lan": 1103,
      "re": 1104,
      "tượng": 1105,
      "xin": 1106,
      "đình": 1107,
      "##ion": 1108,
      "thi": 1109,
      "trực": 1110,
      "nha": 1111,
      "khiến": 1112,
      "phạm": 1113,
      "##ứa": 1114,
      "nhiễm": 1115,
      "),": 1116,
      "bàn": 1117,
      "càng": 1118,
      "dấu": 1119,
      "miền": 1120,
      "só": 1121,
      "##iêm": 1122,
      "phản": 1123,
      "dụ": 1124,
      "đích": 1125,
      "hồ": 1126,
      "phim": 1127,
      "bão": 1128,
      "201": 1129,
      "bo": 1130,
      "cá": 1131,
      "hải": 1132,
      "lạc": 1133,
      "rừng": 1134,
      "sạn": 1135,
      "sóng": 1136,
      "web": 1137,
      "xuyên": 1138,
      "##un": 1139,
      "##mp": 1140,
      "##net": 1141,
      "giả": 1142,
      "dục": 1143,
      "cảm": 1144,
      "##ard": 1145,
      "buộc": 1146,
      "inter": 1147,
      "internet": 1148,
      "100": 1149,
      "ghi": 1150,
      "san": 1151,
      "sang": 1152,
      "tộc": 1153,
      "xư": 1154,
      "##tr": 1155,
      "##ff": 1156,
      "thấp": 1157,
      "thuyết": 1158,
      "chống": 1159,
      "phẩm": 1160,
      "quản": 1161,
      "hoàng": 1162,
      "nóng": 1163,
      "tuyến": 1164,
      "đoàn": 1165,
      "đủ": 1166,
      "chịu": 1167,
      "bánh": 1168,
      "cươ": 1169,
      "cắm": 1170,
      "dàng": 1171,
      "gư": 1172,
      "lông": 1173,
      "ma": 1174,
      "rơi": 1175,
      "sa": 1176,
      "sh": 1177,
      "xê": 1178,
      "##la": 1179,
      "trại": 1180,
      "trăng": 1181,
      "dung": 1182,
      "chú": 1183,
      "vũ": 1184,
      "đóng": 1185,
      "tôn": 1186,
      "tồn": 1187,
      "ước": 1188,
      "vọng": 1189,
      "biên": 1190,
      "să": 1191,
      "vòng": 1192,
      "đảm": 1193,
      "##ir": 1194,
      "nhu": 1195,
      "##ón": 1196,
      "ngân": 1197,
      "##ẳng": 1198,
      "chim": 1199,
      "cơn": 1200,
      "hồi": 1201,
      "buổi": 1202,
      "hãng": 1203,
      "sẵn": 1204,
      "18": 1205,
      "cô": 1206,
      "cận": 1207,
      "me": 1208,
      "nữa": 1209,
      "tắc": 1210,
      "##gh": 1211,
      "hỏi": 1212,
      "thú": 1213,
      "mua": 1214,
      "phút": 1215,
      "ngoại": 1216,
      "soát": 1217,
      "bãi": 1218,
      "gửi": 1219,
      "xếp": 1220,
      "bài": 1221,
      "can": 1222,
      "gó": 1223,
      "kiếm": 1224,
      "lã": 1225,
      "úc": 1226,
      "thật": 1227,
      "thuyền": 1228,
      "##iêu": 1229,
      "nhạc": 1230,
      "phóng": 1231,
      "##ậu": 1232,
      "##ặn": 1233,
      "thử": 1234,
      "chụp": 1235,
      "nghệ": 1236,
      "hút": 1237,
      "##istan": 1238,
      "xử": 1239,
      "bảng": 1240,
      "cánh": 1241,
      "hạ": 1242,
      "huy": 1243,
      "long": 1244,
      "leo": 1245,
      "mối": 1246,
      "nặng": 1247,
      "par": 1248,
      "tạm": 1249,
      "uống": 1250,
      "xo": 1251,
      "xâm": 1252,
      "đời": 1253,
      "##ha": 1254,
      "##̉n": 1255,
      "thiên": 1256,
      "thao": 1257,
      "thờ": 1258,
      "chí": 1259,
      "nhiệm": 1260,
      "giấy": 1261,
      "tức": 1262,
      "xét": 1263,
      "chuyên": 1264,
      "tỷ": 1265,
      "joh": 1266,
      "áp": 1267,
      "bức": 1268,
      "hữ": 1269,
      "lộ": 1270,
      "mươ": 1271,
      "sắc": 1272,
      "tướng": 1273,
      "vượt": 1274,
      "##ồng": 1275,
      "chữ": 1276,
      "giác": 1277,
      "thụ": 1278,
      "nghiêm": 1279,
      "lựa": 1280,
      "hữu": 1281,
      "ả": 1282,
      "bổ": 1283,
      "bán": 1284,
      "he": 1285,
      "hè": 1286,
      "kiểu": 1287,
      "mar": 1288,
      "mưa": 1289,
      "mèo": 1290,
      "nổ": 1291,
      "vốn": 1292,
      "##ian": 1293,
      "##to": 1294,
      "##em": 1295,
      "##za": 1296,
      "ngươ": 1297,
      "ngành": 1298,
      "##ăm": 1299,
      "phê": 1300,
      "giai": 1301,
      "thuế": 1302,
      "nghị": 1303,
      "tuyệt": 1304,
      "dọc": 1305,
      "sup": 1306,
      "john": 1307,
      "bảy": 1308,
      "cạnh": 1309,
      "pro": 1310,
      "suy": 1311,
      "tiện": 1312,
      "vai": 1313,
      "##ca": 1314,
      "##̣u": 1315,
      "##áp": 1316,
      "khởi": 1317,
      "khắp": 1318,
      "phiếu": 1319,
      "chuyện": 1320,
      "##mpic": 1321,
      "17": 1322,
      "cập": 1323,
      "gre": 1324,
      "hà": 1325,
      "hang": 1326,
      "ki": 1327,
      "nối": 1328,
      "oly": 1329,
      "tấn": 1330,
      "ủy": 1331,
      "ví": 1332,
      "đám": 1333,
      "đầy": 1334,
      "##ma": 1335,
      "thất": 1336,
      "##ẫ": 1337,
      "nhĩ": 1338,
      "giành": 1339,
      "hoạch": 1340,
      "##ers": 1341,
      "##aland": 1342,
      "dựa": 1343,
      "lãnh": 1344,
      "olympic": 1345,
      "bi": 1346,
      "binh": 1347,
      "bữa": 1348,
      "kích": 1349,
      "mộ": 1350,
      "tầm": 1351,
      "xã": 1352,
      "##do": 1353,
      "##bo": 1354,
      "##ỡ": 1355,
      "thập": 1356,
      "tháp": 1357,
      "trì": 1358,
      "chấp": 1359,
      "ngầm": 1360,
      "gió": 1361,
      "thuận": 1362,
      "xung": 1363,
      "mươi": 1364,
      "14": 1365,
      "30": 1366,
      "de": 1367,
      "lối": 1368,
      "mắc": 1369,
      "mắt": 1370,
      "ze": 1371,
      "##lan": 1372,
      "##ue": 1373,
      "##so": 1374,
      "##man": 1375,
      "tránh": 1376,
      "giản": 1377,
      "quán": 1378,
      "##ern": 1379,
      "lục": 1380,
      "trú": 1381,
      "phù": 1382,
      "lược": 1383,
      "vid": 1384,
      "chiếm": 1385,
      "ngủ": 1386,
      "áo": 1387,
      "sớm": 1388,
      "zealand": 1389,
      "bại": 1390,
      "cà": 1391,
      "gấp": 1392,
      "linh": 1393,
      "lấy": 1394,
      "nông": 1395,
      "rời": 1396,
      "ràng": 1397,
      "đột": 1398,
      "đàn": 1399,
      "##st": 1400,
      "trả": 1401,
      "triều": 1402,
      "chẳng": 1403,
      "nhị": 1404,
      "khuy": 1405,
      "khai": 1406,
      "ngại": 1407,
      "chia": 1408,
      "đọc": 1409,
      "đoán": 1410,
      "197": 1411,
      "green": 1412,
      "as": 1413,
      "da": 1414,
      "dầu": 1415,
      "gh": 1416,
      "hỗ": 1417,
      "hậu": 1418,
      "lẽ": 1419,
      "mô": 1420,
      "met": 1421,
      "món": 1422,
      "sáu": 1423,
      "vư": 1424,
      "vong": 1425,
      "yên": 1426,
      "##og": 1427,
      "##ph": 1428,
      "##li": 1429,
      "##cel": 1430,
      "thiếu": 1431,
      "trao": 1432,
      "chóng": 1433,
      "chảy": 1434,
      "chứa": 1435,
      "quen": 1436,
      "##ãi": 1437,
      "chín": 1438,
      "##ina": 1439,
      "trụ": 1440,
      "\"\".": 1441,
      "thẳng": 1442,
      "199": 1443,
      "ngược": 1444,
      "24": 1445,
      "500": 1446,
      "cân": 1447,
      "car": 1448,
      "dốc": 1449,
      "sai": 1450,
      "săn": 1451,
      "tái": 1452,
      "tạp": 1453,
      "xô": 1454,
      "đổ": 1455,
      "đăng": 1456,
      "##ti": 1457,
      "##ớ": 1458,
      "thiện": 1459,
      "trư": 1460,
      "nhớ": 1461,
      "ngàn": 1462,
      "##ãn": 1463,
      "thừa": 1464,
      "nghe": 1465,
      "khuôn": 1466,
      "hủy": 1467,
      "giám": 1468,
      "ánh": 1469,
      "sót": 1470,
      "bày": 1471,
      "bơi": 1472,
      "cam": 1473,
      "cầm": 1474,
      "hiếm": 1475,
      "mại": 1476,
      "mái": 1477,
      "rẻ": 1478,
      "se": 1479,
      "vẻ": 1480,
      "##pp": 1481,
      "##ul": 1482,
      "##son": 1483,
      "##if": 1484,
      "##ẹ": 1485,
      "##va": 1486,
      "##ve": 1487,
      "the": 1488,
      "trông": 1489,
      "chết": 1490,
      "nhă": 1491,
      "nhờ": 1492,
      "hỏa": 1493,
      "đế": 1494,
      "chủng": 1495,
      "địch": 1496,
      "tù": 1497,
      "coi": 1498,
      "##ẩy": 1499,
      "chiếu": 1500,
      "lửa": 1501,
      "thủy": 1502,
      "##ada": 1503,
      "nghỉ": 1504,
      "tỉnh": 1505,
      "##ẫu": 1506,
      "greenland": 1507,
      "nhằm": 1508,
      ".”": 1509,
      "af": 1510,
      "bào": 1511,
      "ích": 1512,
      "lạnh": 1513,
      "ni": 1514,
      "niệm": 1515,
      "sâu": 1516,
      "sợ": 1517,
      "tội": 1518,
      "##lin": 1519,
      "##na": 1520,
      "##nes": 1521,
      "##ya": 1522,
      "##ber": 1523,
      "##kh": 1524,
      "thiệt": 1525,
      "thẩm": 1526,
      "##ườn": 1527,
      "trạm": 1528,
      "trách": 1529,
      "trấn": 1530,
      "chiều": 1531,
      "khảo": 1532,
      "ngồi": 1533,
      "ngắn": 1534,
      "quê": 1535,
      "hòn": 1536,
      "bắn": 1537,
      "lòng": 1538,
      "##ine": 1539,
      "tùy": 1540,
      "##ore": 1541,
      "rút": 1542,
      ".\"\"\"": 1543,
      "thụy": 1544,
      "80": 1545,
      "bác": 1546,
      "bar": 1547,
      "bờ": 1548,
      "cải": 1549,
      "cấu": 1550,
      "gu": 1551,
      "gốc": 1552,
      "hại": 1553,
      "har": 1554,
      "lây": 1555,
      "lệnh": 1556,
      "lạp": 1557,
      "mo": 1558,
      "mồi": 1559,
      "niên": 1560,
      "nor": 1561,
      "rập": 1562,
      "điển": 1563,
      "đẩy": 1564,
      "##ld": 1565,
      "##sa": 1566,
      "##ie": 1567,
      "##ry": 1568,
      "##ba": 1569,
      "##bur": 1570,
      "##ka": 1571,
      "thảo": 1572,
      "thậm": 1573,
      "trăm": 1574,
      "chặn": 1575,
      "nhẹ": 1576,
      "##ỏi": 1577,
      "đỉnh": 1578,
      "luôn": 1579,
      "lớp": 1580,
      "\"\",": 1581,
      "##ẩu": 1582,
      "hồng": 1583,
      "sung": 1584,
      "suốt": 1585,
      "thoải": 1586,
      "khỏe": 1587,
      "dưỡng": 1588,
      "##app": 1589,
      "##ney": 1590,
      "ảo": 1591,
      "video": 1592,
      "bề": 1593,
      "cai": 1594,
      "hương": 1595,
      "nã": 1596,
      "sing": 1597,
      "tám": 1598,
      "đới": 1599,
      "đốc": 1600,
      "đen": 1601,
      "đừng": 1602,
      "##oo": 1603,
      "##ce": 1604,
      "##ru": 1605,
      "##vid": 1606,
      "##..": 1607,
      "thạch": 1608,
      "truy": 1609,
      "chắc": 1610,
      "chạm": 1611,
      "chắn": 1612,
      "khiển": 1613,
      "thuốc": 1614,
      "##all": 1615,
      "đúng": 1616,
      "tín": 1617,
      "não": 1618,
      "25": 1619,
      "bạc": 1620,
      "cắt": 1621,
      "hôn": 1622,
      "hát": 1623,
      "lá": 1624,
      "luy": 1625,
      "lâm": 1626,
      "mm": 1627,
      "mẫu": 1628,
      "pak": 1629,
      "sàng": 1630,
      "vời": 1631,
      "vĩ": 1632,
      "vỡ": 1633,
      "đắt": 1634,
      "”,": 1635,
      "##op": 1636,
      "##iv": 1637,
      "##ts": 1638,
      "##nn": 1639,
      "##ban": 1640,
      "##ver": 1641,
      "##20": 1642,
      "thẻ": 1643,
      "thượng": 1644,
      "##âng": 1645,
      "##ấc": 1646,
      "tri": 1647,
      "chối": 1648,
      "chấm": 1649,
      "nga": 1650,
      "phạt": 1651,
      "giày": 1652,
      "thùng": 1653,
      "##ail": 1654,
      "vuông": 1655,
      "loan": 1656,
      "trúc": 1657,
      "ổn": 1658,
      "màu": 1659,
      "##ori": 1660,
      "đòi": 1661,
      "nuôi": 1662,
      "cướp": 1663,
      "canada": 1664,
      "xoay": 1665,
      "khuyến": 1666,
      "north": 1667,
      "luyện": 1668,
      "pakistan": 1669,
      "blo": 1670,
      "bom": 1671,
      "iran": 1672,
      "kia": 1673,
      "kẻ": 1674,
      "lao": 1675,
      "lẫn": 1676,
      "miễn": 1677,
      "nỗ": 1678,
      "sch": 1679,
      "sánh": 1680,
      "tách": 1681,
      "vương": 1682,
      "##rg": 1683,
      "##ke": 1684,
      "##ợi": 1685,
      "thí": 1686,
      "char": 1687,
      "chờ": 1688,
      "nhắc": 1689,
      "phức": 1690,
      "giàu": 1691,
      "quận": 1692,
      "quảng": 1693,
      "##anistan": 1694,
      "##ona": 1695,
      "##ĩnh": 1696,
      "##orn": 1697,
      "đẹp": 1698,
      "##tron": 1699,
      "##ghanistan": 1700,
      "afghanistan": 1701,
      "35": 1702,
      "buy": 1703,
      "bal": 1704,
      "bạo": 1705,
      "côn": 1706,
      "cas": 1707,
      "cap": 1708,
      "dan": 1709,
      "fl": 1710,
      "fran": 1711,
      "hạm": 1712,
      "is": 1713,
      "kịch": 1714,
      "lô": 1715,
      "lai": 1716,
      "lỗ": 1717,
      "man": 1718,
      "mol": 1719,
      "máu": 1720,
      "nư": 1721,
      "nai": 1722,
      "po": 1723,
      "rươ": 1724,
      "viễn": 1725,
      "đảng": 1726,
      "##tor": 1727,
      "##rand": 1728,
      "##bi": 1729,
      "##wa": 1730,
      "##zan": 1731,
      "##que": 1732,
      "thải": 1733,
      "thách": 1734,
      "khối": 1735,
      "khẩu": 1736,
      "giấc": 1737,
      "hoảng": 1738,
      "sừng": 1739,
      "đồi": 1740,
      "lò": 1741,
      "##ỏng": 1742,
      "ẩ": 1743,
      "dò": 1744,
      "dọa": 1745,
      "trùng": 1746,
      "##enia": 1747,
      "cỡ": 1748,
      "##ort": 1749,
      "##ord": 1750,
      "##orld": 1751,
      "dứt": 1752,
      "nguyện": 1753,
      "##ash": 1754,
      "196": 1755,
      "ste": 1756,
      "star": 1757,
      "đèn": 1758,
      "##tral": 1759,
      "mét": 1760,
      "xoáy": 1761,
      "super": 1762,
      "bỉ": 1763,
      "metro": 1764,
      "vừa": 1765,
      "buýt": 1766,
      "rượu": 1767,
      "...": 1768,
      "au": 1769,
      "bà": 1770,
      "bước": 1771,
      "bầy": 1772,
      "cấm": 1773,
      "ga": 1774,
      "hư": 1775,
      "lạ": 1776,
      "liền": 1777,
      "mơ": 1778,
      "mong": 1779,
      "mạch": 1780,
      "rồi": 1781,
      "tệ": 1782,
      "tịch": 1783,
      "xi": 1784,
      "đào": 1785,
      "##les": 1786,
      "##nd": 1787,
      "##̃a": 1788,
      "##ks": 1789,
      "##xi": 1790,
      "thô": 1791,
      "thả": 1792,
      "trộ": 1793,
      "khăn": 1794,
      "khám": 1795,
      "ngăn": 1796,
      "ngắm": 1797,
      "pho": 1798,
      "pha": 1799,
      "sửa": 1800,
      "phán": 1801,
      "loạn": 1802,
      "tuyển": 1803,
      "khuẩn": 1804,
      "lưới": 1805,
      "dừng": 1806,
      "air": 1807,
      "kèm": 1808,
      "trưng": 1809,
      "blog": 1810,
      "00": 1811,
      "12": 1812,
      "21": 1813,
      "34": 1814,
      "40": 1815,
      "60": 1816,
      "am": 1817,
      "ber": 1818,
      "bối": 1819,
      "bra": 1820,
      "bla": 1821,
      "cal": 1822,
      "cát": 1823,
      "ele": 1824,
      "fe": 1825,
      "grand": 1826,
      "hiến": 1827,
      "hiển": 1828,
      "jam": 1829,
      "kông": 1830,
      "ken": 1831,
      "lí": 1832,
      "lốc": 1833,
      "lat": 1834,
      "lỗi": 1835,
      "lak": 1836,
      "lĩnh": 1837,
      "màn": 1838,
      "nấu": 1839,
      "pal": 1840,
      "rãi": 1841,
      "sổ": 1842,
      "sẻ": 1843,
      "siêu": 1844,
      "te": 1845,
      "tim": 1846,
      "tấm": 1847,
      "ủng": 1848,
      "va": 1849,
      "ven": 1850,
      "vườn": 1851,
      "world": 1852,
      "xạ": 1853,
      "đứa": 1854,
      "##ow": 1855,
      "##pe": 1856,
      "##uch": 1857,
      "##ss": 1858,
      "##sh": 1859,
      "##sy": 1860,
      "##jan": 1861,
      "##ey": 1862,
      "##ez": 1863,
      "##da": 1864,
      "##bu": 1865,
      "##by": 1866,
      "##zil": 1867,
      "thác": 1868,
      "thiểu": 1869,
      "thánh": 1870,
      "thám": 1871,
      "trữ": 1872,
      "trầm": 1873,
      "##iềm": 1874,
      "chó": 1875,
      "cháy": 1876,
      "chậm": 1877,
      "chồng": 1878,
      "khổ": 1879,
      "khóa": 1880,
      "cuốn": 1881,
      "giây": 1882,
      "thua": 1883,
      "thung": 1884,
      "khích": 1885,
      "vui": 1886,
      "cứng": 1887,
      "##ary": 1888,
      "khúc": 1889,
      "dõi": 1890,
      "lũng": 1891,
      "##alo": 1892,
      "túi": 1893,
      "họp": 1894,
      "khoản": 1895,
      "tour": 1896,
      "haiti": 1897,
      "lượt": 1898,
      "##ish": 1899,
      "đuổi": 1900,
      "##est": 1901,
      "##atal": 1902,
      "##ation": 1903,
      "rò": 1904,
      "ưu": 1905,
      "198": 1906,
      "194": 1907,
      "súng": 1908,
      "hùng": 1909,
      "thỏa": 1910,
      "thoát": 1911,
      "##ite": 1912,
      "##ley": 1913,
      "nghìn": 1914,
      "runn": 1915,
      "nhiếp": 1916,
      "all": 1917,
      "arm": 1918,
      "2010": 1919,
      "##und": 1920,
      "cưỡi": 1921,
      "kín": 1922,
      "northern": 1923,
      "dani": 1924,
      "ẩm": 1925,
      "brazil": 1926,
      "black": 1927,
      "elec": 1928,
      "13": 1929,
      "bư": 1930,
      "ed": 1931,
      "go": 1932,
      "giê": 1933,
      "geo": 1934,
      "giết": 1935,
      "gal": 1936,
      "kê": 1937,
      "may": 1938,
      "mật": 1939,
      "no": 1940,
      "pet": 1941,
      "rối": 1942,
      "sim": 1943,
      "tạng": 1944,
      "tờ": 1945,
      "đau": 1946,
      "đỏ": 1947,
      "##ou": 1948,
      "##ps": 1949,
      "##hu": 1950,
      "##eg": 1951,
      "##eng": 1952,
      "##di": 1953,
      "##dro": 1954,
      "thận": 1955,
      "thưởng": 1956,
      "chứ": 1957,
      "vàng": 1958,
      "hoá": 1959,
      "thuê": 1960,
      "chile": 1961,
      "cựu": 1962,
      "khung": 1963,
      "mùi": 1964,
      "doanh": 1965,
      "trùm": 1966,
      "chỉnh": 1967,
      "họa": 1968,
      "tọa": 1969,
      "quý": 1970,
      "##eth": 1971,
      "rom": 1972,
      "195": 1973,
      "thịt": 1974,
      "suất": 1975,
      "huống": 1976,
      "huấn": 1977,
      "##apore": 1978,
      "đỡ": 1979,
      "nhịp": 1980,
      "##oga": 1981,
      "singapore": 1982,
      "franc": 1983,
      "bưu": 1984,
      "56": 1985,
      "800": 1986,
      "at": 1987,
      "ad": 1988,
      "ang": 1989,
      "aus": 1990,
      "bì": 1991,
      "biện": 1992,
      "catal": 1993,
      "dày": 1994,
      "dữ": 1995,
      "dáng": 1996,
      "dis": 1997,
      "del": 1998,
      "dạy": 1999,
      "ec": 2000,
      "es": 2001,
      "gom": 2002,
      "gợi": 2003,
      "ira": 2004,
      "icel": 2005,
      "li": 2006,
      "lắp": 2007,
      "mi": 2008,
      "mao": 2009,
      "móng": 2010,
      "mạc": 2011,
      "nỗi": 2012,
      "niềm": 2013,
      "of": 2014,
      "pl": 2015,
      "si": 2016,
      "sk": 2017,
      "sco": 2018,
      "tơ": 2019,
      "tả": 2020,
      "tan": 2021,
      "tải": 2022,
      "tam": 2023,
      "tiệc": 2024,
      "tàn": 2025,
      "tắt": 2026,
      "van": 2027,
      "vết": 2028,
      "xấu": 2029,
      "yoga": 2030,
      "đệ": 2031,
      "đai": 2032,
      "đáo": 2033,
      "##port": 2034,
      "##ab": 2035,
      "##uad": 2036,
      "##tion": 2037,
      "##ria": 2038,
      "##yal": 2039,
      "##̃y": 2040,
      "##xas": 2041,
      "##qu": 2042,
      "tràn": 2043,
      "trốn": 2044,
      "##iếp": 2045,
      "che": 2046,
      "chinh": 2047,
      "nhẫn": 2048,
      "khẩn": 2049,
      "khứ": 2050,
      "phiên": 2051,
      "phật": 2052,
      "##ảnh": 2053,
      "gio": 2054,
      "giãn": 2055,
      "giỏi": 2056,
      "làng": 2057,
      "hỏng": 2058,
      "chút": 2059,
      "thù": 2060,
      "nghiêng": 2061,
      "##ềm": 2062,
      "cự": 2063,
      "cảng": 2064,
      "##ino": 2065,
      "##ini": 2066,
      "##ari": 2067,
      "##arban": 2068,
      "muỗi": 2069,
      "ấm": 2070,
      "lũ": 2071,
      "toán": 2072,
      "rắn": 2073,
      "xúc": 2074,
      "vẫy": 2075,
      "lưỡi": 2076,
      "ngọt": 2077,
      "tổn": 2078,
      "##ata": 2079,
      "##ati": 2080,
      "rock": 2081,
      "vịnh": 2082,
      "sund": 2083,
      "hung": 2084,
      "##ican": 2085,
      "##ity": 2086,
      "##ust": 2087,
      "##ington": 2088,
      "##ola": 2089,
      "2008": 2090,
      "##rich": 2091,
      "##rag": 2092,
      "hydro": 2093,
      "kém": 2094,
      "rỉ": 2095,
      "góc": 2096,
      "paris": 2097,
      "##dova": 2098,
      "##bour": 2099,
      "##mania": 2100,
      "\"\".\"": 2101,
      "##iforn": 2102,
      "802": 2103,
      "moldova": 2104,
      "nửa": 2105,
      "californ": 2106,
      "texas": 2107,
      "running": 2108,
      "armenia": 2109,
      "atlan": 2110,
      "austral": 2111,
      "disney": 2112,
      "ecuad": 2113,
      "iraq": 2114,
      "iceland": 2115,
      "sikh": 2116,
      "##arbans": 2117,
      "sundarbans": 2118,
      "california": 2119,
      "29": 2120,
      "bật": 2121,
      "bé": 2122,
      "cẩn": 2123,
      "dao": 2124,
      "dãy": 2125,
      "hàn": 2126,
      "kiệm": 2127,
      "liệt": 2128,
      "mon": 2129,
      "mực": 2130,
      "mas": 2131,
      "nộ": 2132,
      "nề": 2133,
      "song": 2134,
      "tân": 2135,
      "tán": 2136,
      "đâm": 2137,
      "đạp": 2138,
      "##tt": 2139,
      "##tan": 2140,
      "##tte": 2141,
      "##\"\"": 2142,
      "##ét": 2143,
      "##wn": 2144,
      "##van": 2145,
      "thang": 2146,
      "chặt": 2147,
      "chèo": 2148,
      "ngang": 2149,
      "giam": 2150,
      "quang": 2151,
      "hoãn": 2152,
      "nắm": 2153,
      "loạt": 2154,
      "##ines": 2155,
      "phun": 2156,
      "lưng": 2157,
      "ind": 2158,
      "khía": 2159,
      "góp": 2160,
      "proton": 2161,
      "mòn": 2162,
      "##burg": 2163,
      "charles": 2164,
      "francis": 2165,
      "36": 2166,
      "300": 2167,
      "46": 2168,
      "400": 2169,
      "50": 2170,
      "64": 2171,
      "76": 2172,
      "ac": 2173,
      "ale": 2174,
      "ama": 2175,
      "app": 2176,
      "bí": 2177,
      "bè": 2178,
      "bre": 2179,
      "bha": 2180,
      "cỏ": 2181,
      "cro": 2182,
      "cồn": 2183,
      "cắp": 2184,
      "dải": 2185,
      "dàn": 2186,
      "dâng": 2187,
      "et": 2188,
      "eli": 2189,
      "fal": 2190,
      "gái": 2191,
      "gôn": 2192,
      "gỗ": 2193,
      "gấu": 2194,
      "gầm": 2195,
      "gur": 2196,
      "giêng": 2197,
      "gắn": 2198,
      "ham": 2199,
      "hấp": 2200,
      "hẻ": 2201,
      "il": 2202,
      "ja": 2203,
      "jer": 2204,
      "kr": 2205,
      "kiên": 2206,
      "kêu": 2207,
      "lữ": 2208,
      "lương": 2209,
      "lam": 2210,
      "láng": 2211,
      "las": 2212,
      "lấn": 2213,
      "mê": 2214,
      "mây": 2215,
      "mẽ": 2216,
      "mừng": 2217,
      "mori": 2218,
      "mềm": 2219,
      "na": 2220,
      "ninh": 2221,
      "nồng": 2222,
      "nâng": 2223,
      "per": 2224,
      "pat": 2225,
      "pit": 2226,
      "ray": 2227,
      "rào": 2228,
      "sốc": 2229,
      "sar": 2230,
      "sắt": 2231,
      "sạch": 2232,
      "sắm": 2233,
      "sắp": 2234,
      "tần": 2235,
      "ton": 2236,
      "tường": 2237,
      "uy": 2238,
      "vỏ": 2239,
      "vắc": 2240,
      "ván": 2241,
      "vợ": 2242,
      "wh": 2243,
      "wash": 2244,
      "xanh": 2245,
      "xóa": 2246,
      "đư": 2247,
      "##oc": 2248,
      "##ok": 2249,
      "##pl": 2250,
      "##uis": 2251,
      "##ig": 2252,
      "##ham": 2253,
      "##hne": 2254,
      "##my": 2255,
      "##min": 2256,
      "##tu": 2257,
      "##tic": 2258,
      "##gar": 2259,
      "##ek": 2260,
      "##ean": 2261,
      "##yi": 2262,
      "##yan": 2263,
      "##beth": 2264,
      "##wai": 2265,
      "##ward": 2266,
      "##ven": 2267,
      "##xit": 2268,
      "##xem": 2269,
      "##zon": 2270,
      "##30": 2271,
      "##39": 2272,
      "##ngrich": 2273,
      "##ơn": 2274,
      "thảm": 2275,
      "##ầng": 2276,
      "trào": 2277,
      "trơn": 2278,
      "chh": 2279,
      "chăn": 2280,
      "chấn": 2281,
      "nhấn": 2282,
      "nhượng": 2283,
      "khô": 2284,
      "khơi": 2285,
      "khấu": 2286,
      "khắc": 2287,
      "khán": 2288,
      "khuyên": 2289,
      "##óc": 2290,
      "##ói": 2291,
      "ngừng": 2292,
      "phe": 2293,
      "phạn": 2294,
      "phỏng": 2295,
      "cúm": 2296,
      "gìn": 2297,
      "giường": 2298,
      "gingrich": 2299,
      "đương": 2300,
      "dun": 2301,
      "##one": 2302,
      "##onso": 2303,
      "##ain": 2304,
      "pháo": 2305,
      "vuốt": 2306,
      "##ami": 2307,
      "lọc": 2308,
      "lỏng": 2309,
      "louis": 2310,
      "cản": 2311,
      "##int": 2312,
      "kỵ": 2313,
      "đĩa": 2314,
      "khuất": 2315,
      "mù": 2316,
      "luân": 2317,
      "luna": 2318,
      "luxem": 2319,
      "##ala": 2320,
      "##ald": 2321,
      "tuệ": 2322,
      "##endo": 2323,
      "quyển": 2324,
      "##ias": 2325,
      "ngoái": 2326,
      "##iss": 2327,
      "##ela": 2328,
      "##elly": 2329,
      "sòng": 2330,
      "virg": 2331,
      "ross": 2332,
      "bùng": 2333,
      "buff": 2334,
      "bush": 2335,
      "##ick": 2336,
      "inch": 2337,
      "##aki": 2338,
      "đợi": 2339,
      "email": 2340,
      "2009": 2341,
      "2005": 2342,
      "##rig": 2343,
      "##rael": 2344,
      "stan": 2345,
      "##ned": 2346,
      "đem": 2347,
      "alonso": 2348,
      "ương": 2349,
      "hawai": 2350,
      "##tein": 2351,
      "reid": 2352,
      "sóc": 2353,
      "sói": 2354,
      "saf": 2355,
      "mẹ": 2356,
      "gót": 2357,
      "protein": 2358,
      "##soc": 2359,
      "1970": 2360,
      "trừ": 2361,
      "##bert": 2362,
      "##appan": 2363,
      "cape": 2364,
      "israel": 2365,
      "lồ": 2366,
      "metropl": 2367,
      "trộm": 2368,
      "photon": 2369,
      "berlin": 2370,
      "feet": 2371,
      "james": 2372,
      "kenya": 2373,
      "latinh": 2374,
      "khổng": 2375,
      "tours": 2376,
      "electron": 2377,
      "giềng": 2378,
      "catalan": 2379,
      "goma": 2380,
      "maori": 2381,
      "giọng": 2382,
      "##bourg": 2383,
      "atlanta": 2384,
      "ecuador": 2385,
      "francisco": 2386,
      "amazon": 2387,
      "apple": 2388,
      "bhajan": 2389,
      "eliza": 2390,
      "moriori": 2391,
      "washington": 2392,
      "luxembourg": 2393,
      "virgin": 2394,
      "buffalo": 2395,
      "hawaii": 2396,
      "metroplus": 2397,
      ",\"\"": 2398,
      "90": 2399,
      "bơ": 2400,
      "bể": 2401,
      "cối": 2402,
      "dị": 2403,
      "dar": 2404,
      "dối": 2405,
      "dậy": 2406,
      "eb": 2407,
      "gran": 2408,
      "hãi": 2409,
      "kan": 2410,
      "kar": 2411,
      "lang": 2412,
      "lính": 2413,
      "lở": 2414,
      "lạm": 2415,
      "sườn": 2416,
      "tỏ": 2417,
      "us": 2418,
      "ung": 2419,
      "đâu": 2420,
      "##ci": 2421,
      "##sp": 2422,
      "##ger": 2423,
      "##ed": 2424,
      "##rk": 2425,
      "##bon": 2426,
      "##ợt": 2427,
      "thơ": 2428,
      "thở": 2429,
      "trắng": 2430,
      "chở": 2431,
      "chôn": 2432,
      "chẩn": 2433,
      "khái": 2434,
      "##ộn": 2435,
      "giza": 2436,
      "chục": 2437,
      "chuỗi": 2438,
      "tồi": 2439,
      "tụ": 2440,
      "cor": 2441,
      "taxi": 2442,
      "soạn": 2443,
      "thịnh": 2444,
      "##ings": 2445,
      "##old": 2446,
      "kẹt": 2447,
      "hộp": 2448,
      "hẹp": 2449,
      "khuynh": 2450,
      "david": 2451,
      "##burgh": 2452,
      "##ood": 2453,
      "##rge": 2454,
      "george": 2455,
      "nộp": 2456,
      ",”": 2457,
      "26": 2458,
      "32": 2459,
      "31": 2460,
      "48": 2461,
      "45": 2462,
      "600": 2463,
      "70": 2464,
      "</": 2465,
      "az": 2466,
      "aol": 2467,
      "ari": 2468,
      "axit": 2469,
      "bl": 2470,
      "bh": 2471,
      "be": 2472,
      "bê": 2473,
      "bậ": 2474,
      "bền": 2475,
      "bia": 2476,
      "bish": 2477,
      "cl": 2478,
      "cr": 2479,
      "cong": 2480,
      "cỗ": 2481,
      "cặp": 2482,
      "cốt": 2483,
      "cậu": 2484,
      "civ": 2485,
      "dại": 2486,
      "dần": 2487,
      "dâm": 2488,
      "dồi": 2489,
      "ép": 2490,
      "fai": 2491,
      "fel": 2492,
      "fern": 2493,
      "fbi": 2494,
      "gà": 2495,
      "gập": 2496,
      "gậy": 2497,
      "gặm": 2498,
      "gra": 2499,
      "gỡ": 2500,
      "gps": 2501,
      "hi": 2502,
      "hươ": 2503,
      "han": 2504,
      "hố": 2505,
      "hài": 2506,
      "hề": 2507,
      "hối": 2508,
      "huyền": 2509,
      "ii": 2510,
      "jr": 2511,
      "kì": 2512,
      "kiệt": 2513,
      "kat": 2514,
      "kép": 2515,
      "kir": 2516,
      "kund": 2517,
      "liều": 2518,
      "len": 2519,
      "lấp": 2520,
      "lội": 2521,
      "lầy": 2522,
      "mời": 2523,
      "mỏ": 2524,
      "mào": 2525,
      "mát": 2526,
      "mầm": 2527,
      "mri": 2528,
      "mil": 2529,
      "miêu": 2530,
      "mỏng": 2531,
      "non": 2532,
      "nàng": 2533,
      "nàn": 2534,
      "one": 2535,
      "pu": 2536,
      "pao": 2537,
      "pic": 2538,
      "pri": 2539,
      "pun": 2540,
      "rác": 2541,
      "rổ": 2542,
      "rốc": 2543,
      "rẽ": 2544,
      "sl": 2545,
      "say": 2546,
      "sập": 2547,
      "ser": 2548,
      "sốt": 2549,
      "sỏi": 2550,
      "tv": 2551,
      "tá": 2552,
      "tang": 2553,
      "tống": 2554,
      "tàng": 2555,
      "táo": 2556,
      "tảng": 2557,
      "tảo": 2558,
      "tầng": 2559,
      "ut": 2560,
      "uta": 2561,
      "unes": 2562,
      "vinh": 2563,
      "vở": 2564,
      "việt": 2565,
      "vat": 2566,
      "vách": 2567,
      "vers": 2568,
      "wal": 2569,
      "wif": 2570,
      "west": 2571,
      "xơ": 2572,
      "xưa": 2573,
      "xôi": 2574,
      "xám": 2575,
      "đà": 2576,
      "đam": 2577,
      "đáy": 2578,
      "đầm": 2579,
      "điền": 2580,
      "đậm": 2581,
      "”)": 2582,
      "##ov": 2583,
      "##pr": 2584,
      "##per": 2585,
      "##pol": 2586,
      "##ll": 2587,
      "##ler": 2588,
      "##ling": 2589,
      "##lap": 2590,
      "##ua": 2591,
      "##uma": 2592,
      "##uver": 2593,
      "##uela": 2594,
      "##sl": 2595,
      "##sk": 2596,
      "##ib": 2597,
      "##igh": 2598,
      "##he": 2599,
      "##mo": 2600,
      "##mon": 2601,
      "##mer": 2602,
      "##ty": 2603,
      "##telly": 2604,
      "##ja": 2605,
      "##ju": 2606,
      "##ns": 2607,
      "##ni": 2608,
      "##gen": 2609,
      "##gyal": 2610,
      "##ray": 2611,
      "##ft": 2612,
      "##yd": 2613,
      "##ych": 2614,
      "##dp": 2615,
      "##dd": 2616,
      "##bs": 2617,
      "##bai": 2618,
      "##ws": 2619,
      "##we": 2620,
      "##vard": 2621,
      "##kland": 2622,
      "##kha": 2623,
      "##xy": 2624,
      "##zona": 2625,
      "thai": 2626,
      "thấu": 2627,
      "thiệp": 2628,
      "thói": 2629,
      "##ẫm": 2630,
      "trà": 2631,
      "trích": 2632,
      "chẽ": 2633,
      "chép": 2634,
      "chợ": 2635,
      "chặng": 2636,
      "chăm": 2637,
      "nho": 2638,
      "nhánh": 2639,
      "nhạy": 2640,
      "nhấm": 2641,
      "##nhag": 2642,
      "khâu": 2643,
      "khiêu": 2644,
      "ngộ": 2645,
      "ngã": 2646,
      "ngon": 2647,
      "ngờ": 2648,
      "vành": 2649,
      "phận": 2650,
      "phàn": 2651,
      "phar": 2652,
      "phối": 2653,
      "phẳng": 2654,
      "cục": 2655,
      "quét": 2656,
      "hoại": 2657,
      "howard": 2658,
      "##ans": 2659,
      "##anian": 2660,
      "##ìa": 2661,
      "đãi": 2662,
      "sứ": 2663,
      "##ốm": 2664,
      "bắp": 2665,
      "phái": 2666,
      "##aoh": 2667,
      "đôn": 2668,
      "đốt": 2669,
      "đón": 2670,
      "cưng": 2671,
      "##ama": 2672,
      "##amun": 2673,
      "los": 2674,
      "##inc": 2675,
      "##inet": 2676,
      "ổ": 2677,
      "##alom": 2678,
      "##alem": 2679,
      "##alini": 2680,
      "tutan": 2681,
      "khoang": 2682,
      "toa": 2683,
      "tom": 2684,
      "tỏa": 2685,
      "lợn": 2686,
      "col": 2687,
      "cọp": 2688,
      "cost": 2689,
      "cope": 2690,
      "\"\"\"": 2691,
      "##che": 2692,
      "##chel": 2693,
      "lưỡng": 2694,
      "##orid": 2695,
      "đoan": 2696,
      "hỗn": 2697,
      "##elle": 2698,
      "##ello": 2699,
      "đụng": 2700,
      "##ate": 2701,
      "##ashi": 2702,
      "##aska": 2703,
      "romania": 2704,
      "##anda": 2705,
      "ưa": 2706,
      "phili": 2707,
      "huhne": 2708,
      "##ice": 2709,
      "giáp": 2710,
      "##iti": 2711,
      "##usalem": 2712,
      "##lotte": 2713,
      "##ade": 2714,
      "##red": 2715,
      "2007": 2716,
      "2004": 2717,
      "2020": 2718,
      "##hiop": 2719,
      "##neid": 2720,
      "alaska": 2721,
      "##ckland": 2722,
      "##illa": 2723,
      "ướt": 2724,
      "đáp": 2725,
      "##isto": 2726,
      "jour": 2727,
      "160": 2728,
      "arias": 2729,
      "##couver": 2730,
      "red": 2731,
      "2016": 2732,
      "bob": 2733,
      "cáp": 2734,
      "santa": 2735,
      "chúa": 2736,
      "nhũng": 2737,
      "189": 2738,
      "huỷ": 2739,
      "hét": 2740,
      "mara": 2741,
      "martelly": 2742,
      "ngưỡng": 2743,
      "johnson": 2744,
      "proven": 2745,
      "##ẫy": 2746,
      "149": 2747,
      "##lanca": 2748,
      "1979": 2749,
      "assy": 2750,
      "vững": 2751,
      "##celona": 2752,
      "1995": 2753,
      "carib": 2754,
      "##ppines": 2755,
      "##khamun": 2756,
      "barcelona": 2757,
      "##appa": 2758,
      "singh": 2759,
      "##ruk": 2760,
      "250": 2761,
      "schneid": 2762,
      "##kek": 2763,
      "charlotte": 2764,
      "casab": 2765,
      "florid": 2766,
      "##zano": 2767,
      "stark": 2768,
      "auckland": 2769,
      "xỉn": 2770,
      "lakkha": 2771,
      "venez": 2772,
      "1940": 2773,
      "danielle": 2774,
      "blacks": 2775,
      "kênh": 2776,
      "peter": 2777,
      "simino": 2778,
      "romney": 2779,
      "angel": 2780,
      "sky": 2781,
      "vancouver": 2782,
      "australia": 2783,
      "monte": 2784,
      "massa": 2785,
      "alex": 2786,
      "ethiop": 2787,
      "falkland": 2788,
      "guru": 2789,
      "hẻm": 2790,
      "jerusalem": 2791,
      "perry": 2792,
      "đứt": 2793,
      "chhappan": 2794,
      "dunlap": 2795,
      "safari": 2796,
      "elizabeth": 2797,
      "azer": 2798,
      "arizona": 2799,
      "bhog": 2800,
      "bậc": 2801,
      "bishkek": 2802,
      "fair": 2803,
      "fernand": 2804,
      "hươu": 2805,
      "kundalini": 2806,
      "prix": 2807,
      "slalom": 2808,
      "utc": 2809,
      "utah": 2810,
      "unesco": 2811,
      "vatican": 2812,
      "wifi": 2813,
      "##nhagen": 2814,
      "pharaoh": 2815,
      "tutankhamun": 2816,
      "costello": 2817,
      "copenhagen": 2818,
      "philippines": 2819,
      "provenzano": 2820,
      "assyria": 2821,
      "schneider": 2822,
      "casablanca": 2823,
      "florida": 2824,
      "venezuela": 2825,
      "siminoff": 2826,
      "ethiopia": 2827,
      "28": 2828,
      "39": 2829,
      "bốc": 2830,
      "bến": 2831,
      "bro": 2832,
      "bạch": 2833,
      "báu": 2834,
      "cất": 2835,
      "dạo": 2836,
      "gl": 2837,
      "gen": 2838,
      "hă": 2839,
      "her": 2840,
      "kĩ": 2841,
      "kit": 2842,
      "le": 2843,
      "mad": 2844,
      "nan": 2845,
      "pr": 2846,
      "pag": 2847,
      "rau": 2848,
      "wil": 2849,
      "xế": 2850,
      "xấp": 2851,
      "xách": 2852,
      "xóm": 2853,
      "đan": 2854,
      "đập": 2855,
      "##oke": 2856,
      "##ub": 2857,
      "##utron": 2858,
      "##site": 2859,
      "##jar": 2860,
      "##nt": 2861,
      "##ga": 2862,
      "##ge": 2863,
      "##yo": 2864,
      "##de": 2865,
      "##den": 2866,
      "##win": 2867,
      "##war": 2868,
      "##̃u": 2869,
      "##22": 2870,
      "thước": 2871,
      "thổi": 2872,
      "thắc": 2873,
      "thầy": 2874,
      "trần": 2875,
      "cha": 2876,
      "chai": 2877,
      "chữa": 2878,
      "kháng": 2879,
      "khiếp": 2880,
      "ngạc": 2881,
      "ngợi": 2882,
      "phó": 2883,
      "cũ": 2884,
      "cuba": 2885,
      "sữa": 2886,
      "chua": 2887,
      "nghèo": 2888,
      "##innes": 2889,
      "ẩn": 2890,
      "tuân": 2891,
      "phú": 2892,
      "##ens": 2893,
      "xuân": 2894,
      "quỹ": 2895,
      "cọc": 2896,
      "ngoạn": 2897,
      "tựu": 2898,
      "##ates": 2899,
      "##ast": 2900,
      "##oly": 2901,
      "đợt": 2902,
      "ném": 2903,
      "neutron": 2904,
      "##rid": 2905,
      "duyệt": 2906,
      "lãng": 2907,
      "##ther": 2908,
      "##agos": 2909,
      "rich": 2910,
      "website": 2911,
      "1000": 2912,
      "show": 2913,
      "nhuận": 2914,
      "hẹn": 2915,
      "olympics": 2916,
      "ghế": 2917,
      "1998": 2918,
      "carter": 2919,
      "saint": 2920,
      "guinnes": 2921,
      "xỉ": 2922,
      "trộn": 2923,
      "rome": 2924,
      "scot": 2925,
      "kanjar": 2926,
      "guinness": 2927,
      ".,": 2928,
      "02": 2929,
      "27": 2930,
      "220": 2931,
      "49": 2932,
      "41": 2933,
      "53": 2934,
      "78": 2935,
      "94": 2936,
      ">(": 2937,
      "ác": 2938,
      "ách": 2939,
      "apol": 2940,
      "br": 2941,
      "bô": 2942,
      "bá": 2943,
      "ben": 2944,
      "bel": 2945,
      "bol": 2946,
      "bám": 2947,
      "bồi": 2948,
      "bran": 2949,
      "bón": 2950,
      "bẫy": 2951,
      "cm": 2952,
      "ce": 2953,
      "cước": 2954,
      "cường": 2955,
      "cen": 2956,
      "cel": 2957,
      "cẩu": 2958,
      "city": 2959,
      "cyan": 2960,
      "dv": 2961,
      "dz": 2962,
      "diê": 2963,
      "dường": 2964,
      "dây": 2965,
      "dinh": 2966,
      "dính": 2967,
      "dam": 2968,
      "dắt": 2969,
      "dre": 2970,
      "dồn": 2971,
      "druk": 2972,
      "ex": 2973,
      "eph": 2974,
      "fo": 2975,
      "for": 2976,
      "foo": 2977,
      "fred": 2978,
      "gp": 2979,
      "gm": 2980,
      "gar": 2981,
      "gối": 2982,
      "gánh": 2983,
      "gas": 2984,
      "gấm": 2985,
      "gos": 2986,
      "gore": 2987,
      "gdp": 2988,
      "hs": 2989,
      "hin": 2990,
      "hen": 2991,
      "hes": 2992,
      "hâm": 2993,
      "hứng": 2994,
      "hạnh": 2995,
      "hứa": 2996,
      "hall": 2997,
      "ip": 2998,
      "ir": 2999,
      "iw": 3000,
      "ion": 3001,
      "ist": 3002,
      "je": 3003,
      "jon": 3004,
      "jar": 3005,
      "jak": 3006,
      "kìm": 3007,
      "kom": 3008,
      "kiêm": 3009,
      "kala": 3010,
      "lê": 3011,
      "lay": 3012,
      "lar": 3013,
      "lăn": 3014,
      "lánh": 3015,
      "lẻ": 3016,
      "lóng": 3017,
      "lăng": 3018,
      "liêng": 3019,
      "lắng": 3020,
      "lặp": 3021,
      "léo": 3022,
      "lặn": 3023,
      "lem": 3024,
      "lăm": 3025,
      "mp": 3026,
      "mc": 3027,
      "mác": 3028,
      "mổ": 3029,
      "mận": 3030,
      "min": 3031,
      "mal": 3032,
      "mẻ": 3033,
      "mấy": 3034,
      "mic": 3035,
      "mit": 3036,
      "map": 3037,
      "mắn": 3038,
      "mệt": 3039,
      "mặn": 3040,
      "mảnh": 3041,
      "mendo": 3042,
      "miss": 3043,
      "np": 3044,
      "nở": 3045,
      "nâu": 3046,
      "nướng": 3047,
      "nad": 3048,
      "nấm": 3049,
      "nạp": 3050,
      "nag": 3051,
      "nsa": 3052,
      "nba": 3053,
      "nyi": 3054,
      "nint": 3055,
      "on": 3056,
      "or": 3057,
      "õ": 3058,
      "ore": 3059,
      "ocel": 3060,
      "ove": 3061,
      "old": 3062,
      "orig": 3063,
      "oxy": 3064,
      "pi": 3065,
      "pan": 3066,
      "pin": 3067,
      "pen": 3068,
      "plan": 3069,
      "pry": 3070,
      "prag": 3071,
      "pbs": 3072,
      "poly": 3073,
      "rô": 3074,
      "rã": 3075,
      "rước": 3076,
      "rải": 3077,
      "rống": 3078,
      "ring": 3079,
      "rậm": 3080,
      "rain": 3081,
      "rìa": 3082,
      "sam": 3083,
      "sôi": 3084,
      "sap": 3085,
      "slo": 3086,
      "shi": 3087,
      "sir": 3088,
      "sca": 3089,
      "sport": 3090,
      "sảnh": 3091,
      "spr": 3092,
      "tb": 3093,
      "tông": 3094,
      "tong": 3095,
      "tận": 3096,
      "tật": 3097,
      "ter": 3098,
      "tấp": 3099,
      "tit": 3100,
      "tóm": 3101,
      "ur": 3102,
      "usoc": 3103,
      "ve": 3104,
      "vươ": 3105,
      "vang": 3106,
      "vẽ": 3107,
      "val": 3108,
      "váy": 3109,
      "vel": 3110,
      "vắng": 3111,
      "vợt": 3112,
      "xd": 3113,
      "xả": 3114,
      "xinh": 3115,
      "xứng": 3116,
      "xứ": 3117,
      "yor": 3118,
      "yến": 3119,
      "yard": 3120,
      "zm": 3121,
      "zay": 3122,
      "zam": 3123,
      "zim": 3124,
      "zha": 3125,
      "đeo": 3126,
      "điệu": 3127,
      "đốm": 3128,
      "’,": 3129,
      "##oto": 3130,
      "##pan": 3131,
      "##par": 3132,
      "##pal": 3133,
      "##pson": 3134,
      "##lic": 3135,
      "##lvan": 3136,
      "##ct": 3137,
      "##car": 3138,
      "##cus": 3139,
      "##col": 3140,
      "##ctor": 3141,
      "##cbon": 3142,
      "##aw": 3143,
      "##aan": 3144,
      "##ack": 3145,
      "##ud": 3146,
      "##uz": 3147,
      "##uth": 3148,
      "##uts": 3149,
      "##ution": 3150,
      "##se": 3151,
      "##smania": 3152,
      "##sashi": 3153,
      "##ik": 3154,
      "##iza": 3155,
      "##ho": 3156,
      "##han": 3157,
      "##hche": 3158,
      "##met": 3159,
      "##ming": 3160,
      "##tro": 3161,
      "##tman": 3162,
      "##tina": 3163,
      "##jong": 3164,
      "##ner": 3165,
      "##nom": 3166,
      "##nsy": 3167,
      "##gon": 3168,
      "##gur": 3169,
      "##gne": 3170,
      "##gby": 3171,
      "##ginet": 3172,
      "##eul": 3173,
      "##ron": 3174,
      "##rai": 3175,
      "##ram": 3176,
      "##rit": 3177,
      "##rina": 3178,
      "##fu": 3179,
      "##fan": 3180,
      "##fen": 3181,
      "##fia": 3182,
      "##ford": 3183,
      "##yam": 3184,
      "##dia": 3185,
      "##dru": 3186,
      "##dain": 3187,
      "##bia": 3188,
      "##bel": 3189,
      "##bul": 3190,
      "##bya": 3191,
      "##bwe": 3192,
      "##bdru": 3193,
      "##way": 3194,
      "##wang": 3195,
      "##wer": 3196,
      "##wal": 3197,
      "##vi": 3198,
      "##von": 3199,
      "##vis": 3200,
      "##vada": 3201,
      "##vati": 3202,
      "##vice": 3203,
      "##80": 3204,
      "##kin": 3205,
      "##kar": 3206,
      "##kim": 3207,
      "##ktu": 3208,
      "##xic": 3209,
      "##50": 3210,
      "##55": 3211,
      "##̈m": 3212,
      "##18": 3213,
      "##10": 3214,
      "##44": 3215,
      "##ớp": 3216,
      "##ồm": 3217,
      "than": 3218,
      "thôn": 3219,
      "thiệu": 3220,
      "thiêng": 3221,
      "thiền": 3222,
      "thiếp": 3223,
      "trau": 3224,
      "triết": 3225,
      "trội": 3226,
      "trứng": 3227,
      "tric": 3228,
      "trừng": 3229,
      "trans": 3230,
      "##iếng": 3231,
      "chr": 3232,
      "chư": 3233,
      "châm": 3234,
      "chat": 3235,
      "chừng": 3236,
      "nhầm": 3237,
      "nhảy": 3238,
      "nhắm": 3239,
      "khan": 3240,
      "khố": 3241,
      "khand": 3242,
      "khéo": 3243,
      "khuyết": 3244,
      "##ót": 3245,
      "ngai": 3246,
      "ngập": 3247,
      "ngặt": 3248,
      "ngón": 3249,
      "phế": 3250,
      "phiền": 3251,
      "phiêu": 3252,
      "phẫu": 3253,
      "phnom": 3254,
      "củng": 3255,
      "cudd": 3256,
      "già": 3257,
      "giấu": 3258,
      "gián": 3259,
      "giầy": 3260,
      "##́no": 3261,
      "lành": 3262,
      "họng": 3263,
      "hoạn": 3264,
      "##ant": 3265,
      "##annes": 3266,
      "##anbul": 3267,
      "##ongo": 3268,
      "đếm": 3269,
      "choàng": 3270,
      "chuông": 3271,
      "chuột": 3272,
      "chùa": 3273,
      "chuồn": 3274,
      "thuẫn": 3275,
      "tiếc": 3276,
      "tiềm": 3277,
      "hở": 3278,
      "##ond": 3279,
      "##onia": 3280,
      "##onald": 3281,
      "##onych": 3282,
      "nghề": 3283,
      "##auty": 3284,
      "vú": 3285,
      "radi": 3286,
      "raju": 3287,
      "đồn": 3288,
      "##ame": 3289,
      "##amine": 3290,
      "lòa": 3291,
      "##inn": 3292,
      "kyoto": 3293,
      "##erang": 3294,
      "##erat": 3295,
      "##erto": 3296,
      "##erque": 3297,
      "##aria": 3298,
      "##arns": 3299,
      "khufu": 3300,
      "mũi": 3301,
      "musashi": 3302,
      "domin": 3303,
      "lui": 3304,
      "luồng": 3305,
      "trục": 3306,
      "trump": 3307,
      "ốc": 3308,
      "ồn": 3309,
      "##als": 3310,
      "tung": 3311,
      "túc": 3312,
      "tụng": 3313,
      "túy": 3314,
      "##ena": 3315,
      "##enth": 3316,
      "##enton": 3317,
      "##enos": 3318,
      "chuyền": 3319,
      "town": 3320,
      "toginet": 3321,
      "rắc": 3322,
      "com": 3323,
      "cọ": 3324,
      "covid": 3325,
      "cook": 3326,
      "quãng": 3327,
      "##chu": 3328,
      "##cher": 3329,
      "##ches": 3330,
      "##chman": 3331,
      "##chner": 3332,
      "##chkin": 3333,
      "cờ": 3334,
      "##iation": 3335,
      "tasmania": 3336,
      "đoạt": 3337,
      "trọ": 3338,
      "##eland": 3339,
      "##elwal": 3340,
      "đúc": 3341,
      "đuôi": 3342,
      "##ese": 3343,
      "##esus": 3344,
      "south": 3345,
      "vỉa": 3346,
      "victor": 3347,
      "bachman": 3348,
      "##eti": 3349,
      "##atia": 3350,
      "##atus": 3351,
      "##atol": 3352,
      "##asma": 3353,
      "##asaki": 3354,
      "##asub": 3355,
      "##asvati": 3356,
      "rog": 3357,
      "roe": 3358,
      "rober": 3359,
      "royal": 3360,
      "giant": 3361,
      "##ander": 3362,
      "thăng": 3363,
      "thắt": 3364,
      "thắn": 3365,
      "lừa": 3366,
      "bum": 3367,
      "buenos": 3368,
      "##icia": 3369,
      "thoáng": 3370,
      "##rom": 3371,
      "##roso": 3372,
      "nụ": 3373,
      "##ition": 3374,
      "##ithe": 3375,
      "##ushche": 3376,
      "##ingbo": 3377,
      "##olis": 3378,
      "##olina": 3379,
      "##uric": 3380,
      "ngụ": 3381,
      "inc": 3382,
      "##apolis": 3383,
      "##los": 3384,
      "##lomet": 3385,
      "##ado": 3386,
      "##ading": 3387,
      "##adian": 3388,
      "##ake": 3389,
      "##akis": 3390,
      "nét": 3391,
      "nepal": 3392,
      "nevada": 3393,
      "anim": 3394,
      "anna": 3395,
      "2002": 3396,
      "2006": 3397,
      "duyên": 3398,
      "##ters": 3399,
      "stard": 3400,
      "stone": 3401,
      "104": 3402,
      "rủi": 3403,
      "rugby": 3404,
      "##omerang": 3405,
      "sơn": 3406,
      "##thur": 3407,
      "alp": 3408,
      "albu": 3409,
      "##cks": 3410,
      "##ille": 3411,
      "voi": 3412,
      "vòi": 3413,
      "##eback": 3414,
      "mãi": 3415,
      "##agu": 3416,
      "##tonia": 3417,
      "cacbon": 3418,
      "taíno": 3419,
      "##lando": 3420,
      "##lynn": 3421,
      "newt": 3422,
      "##ostr": 3423,
      "168": 3424,
      "argen": 3425,
      "arthur": 3426,
      "kẹp": 3427,
      "##tem": 3428,
      "150": 3429,
      "rem": 3430,
      "reading": 3431,
      "2013": 3432,
      "2015": 3433,
      "2017": 3434,
      "2011": 3435,
      "bò": 3436,
      "bow": 3437,
      "boat": 3438,
      "boda": 3439,
      "boomerang": 3440,
      "santor": 3441,
      "xưng": 3442,
      "##ffold": 3443,
      "cưới": 3444,
      "mac": 3445,
      "shar": 3446,
      "shoo": 3447,
      "shyam": 3448,
      "mexic": 3449,
      "##ght": 3450,
      "gói": 3451,
      "lãm": 3452,
      "paro": 3453,
      "park": 3454,
      "parti": 3455,
      "parenth": 3456,
      "lộn": 3457,
      "mượn": 3458,
      "bổn": 3459,
      "marie": 3460,
      "##iano": 3461,
      "hàm": 3462,
      "hangi": 3463,
      "hangeul": 3464,
      "kỉ": 3465,
      "kilomet": 3466,
      "big": 3467,
      "##bow": 3468,
      "devon": 3469,
      "vidal": 3470,
      "1977": 3471,
      "asus": 3472,
      "assoc": 3473,
      "dave": 3474,
      "ghz": 3475,
      "meti": 3476,
      "##phen": 3477,
      "1994": 3478,
      "carolina": 3479,
      "sejong": 3480,
      "##pper": 3481,
      "##ifa": 3482,
      "##nesia": 3483,
      "gũi": 3484,
      "harvard": 3485,
      "harappa": 3486,
      "##ieh": 3487,
      "##babwe": 3488,
      "##kawa": 3489,
      "##video": 3490,
      "##opithe": 3491,
      "##tsburgh": 3492,
      "ngawang": 3493,
      "schuma": 3494,
      "baltic": 3495,
      "balasub": 3496,
      "manches": 3497,
      "moll": 3498,
      "nứt": 3499,
      "potro": 3500,
      "##waz": 3501,
      "stewar": 3502,
      "stearns": 3503,
      "stephen": 3504,
      "aud": 3505,
      "aires": 3506,
      "amin": 3507,
      "líp": 3508,
      "lake": 3509,
      "palm": 3510,
      "palest": 3511,
      "timbu": 3512,
      "##uche": 3513,
      "1988": 3514,
      "1981": 3515,
      "1945": 3516,
      "allen": 3517,
      "danius": 3518,
      "1300": 3519,
      "geosp": 3520,
      "nobel": 3521,
      "simpson": 3522,
      "##oulos": 3523,
      "##engeti": 3524,
      "adam": 3525,
      "eskim": 3526,
      "estonia": 3527,
      "libya": 3528,
      "plasma": 3529,
      "##quet": 3530,
      "##querque": 3531,
      "hungary": 3532,
      "##ragongo": 3533,
      "australopithe": 3534,
      "indus": 3535,
      "468": 3536,
      "acta": 3537,
      "croatia": 3538,
      "java": 3539,
      "krushche": 3540,
      "patin": 3541,
      "pittman": 3542,
      "pittsburgh": 3543,
      "sarasvati": 3544,
      "tonle": 3545,
      "white": 3546,
      "rossby": 3547,
      "stanley": 3548,
      "stanford": 3549,
      "virginia": 3550,
      "bơm": 3551,
      "ebay": 3552,
      "grant": 3553,
      "usd": 3554,
      "##geria": 3555,
      "blake": 3556,
      "beauty": 3557,
      "feli": 3558,
      "hít": 3559,
      "katrina": 3560,
      "kirchner": 3561,
      "lenz": 3562,
      "miller": 3563,
      "puerto": 3564,
      "paolo": 3565,
      "piccol": 3566,
      "serengeti": 3567,
      "versail": 3568,
      "wales": 3569,
      "##peronych": 3570,
      "##ski": 3571,
      "##baijan": 3572,
      "tommy": 3573,
      "colbert": 3574,
      "##istoph": 3575,
      "jourdain": 3576,
      "bobek": 3577,
      "1895": 3578,
      "angeles": 3579,
      "montevideo": 3580,
      "alexander": 3581,
      "azerbaijan": 3582,
      "fernando": 3583,
      "brother": 3584,
      "herostr": 3585,
      "princ": 3586,
      "pago": 3587,
      "wild": 3588,
      "apollo": 3589,
      "bồ": 3590,
      "bolonia": 3591,
      "cep": 3592,
      "central": 3593,
      "cyanuric": 3594,
      "dvd": 3595,
      "dzong": 3596,
      "diễu": 3597,
      "damadian": 3598,
      "dream": 3599,
      "drukgyal": 3600,
      "exp": 3601,
      "foot": 3602,
      "gmt": 3603,
      "gosling": 3604,
      "hsieh": 3605,
      "hindi": 3606,
      "henry": 3607,
      "hesperonych": 3608,
      "ireland": 3609,
      "istanbul": 3610,
      "jeff": 3611,
      "jakar": 3612,
      "komen": 3613,
      "layton": 3614,
      "microso": 3615,
      "mapuche": 3616,
      "mendoza": 3617,
      "npws": 3618,
      "nadal": 3619,
      "nyiragongo": 3620,
      "nintendo": 3621,
      "onion": 3622,
      "oregon": 3623,
      "ocelo": 3624,
      "ovechkin": 3625,
      "origami": 3626,
      "piquet": 3627,
      "panama": 3628,
      "pennsy": 3629,
      "planned": 3630,
      "pryce": 3631,
      "prague": 3632,
      "polynesia": 3633,
      "rãnh": 3634,
      "rainbow": 3635,
      "slov": 3636,
      "sirena": 3637,
      "scaffold": 3638,
      "sporting": 3639,
      "springbo": 3640,
      "titan": 3641,
      "vượn": 3642,
      "xdr": 3643,
      "york": 3644,
      "zmapp": 3645,
      "zayat": 3646,
      "zambia": 3647,
      "zimbabwe": 3648,
      "zhabdru": 3649,
      "##lvania": 3650,
      "##ramanian": 3651,
      "tricerat": 3652,
      "chatham": 3653,
      "khandelwal": 3654,
      "cuddeback": 3655,
      "radio": 3656,
      "victoria": 3657,
      "bachmann": 3658,
      "stardust": 3659,
      "albuquerque": 3660,
      "argentina": 3661,
      "shooters": 3662,
      "mexico": 3663,
      "partizan": 3664,
      "parenthood": 3665,
      "devonport": 3666,
      "association": 3667,
      "davey": 3668,
      "schumacher": 3669,
      "balasubramanian": 3670,
      "manchester": 3671,
      "stewart": 3672,
      "palestine": 3673,
      "timbuktu": 3674,
      "geospiza": 3675,
      "eskimo": 3676,
      "australopithecus": 3677,
      "krushchev": 3678,
      "piccolo": 3679,
      "herostratus": 3680,
      "hesperonychus": 3681,
      "microsoft": 3682,
      "pennsylvania": 3683,
      "springboks": 3684,
      "zhabdrung": 3685,
      "triceratop": 3686,
      "by": 3687,
      "bhu": 3688,
      "bóc": 3689,
      "cãi": 3690,
      "dê": 3691,
      "dời": 3692,
      "dna": 3693,
      "eri": 3694,
      "fi": 3695,
      "gan": 3696,
      "gắt": 3697,
      "gord": 3698,
      "hổ": 3699,
      "hạch": 3700,
      "kow": 3701,
      "lột": 3702,
      "lường": 3703,
      "lôi": 3704,
      "lắm": 3705,
      "mạn": 3706,
      "mai": 3707,
      "mor": 3708,
      "pa": 3709,
      "tem": 3710,
      "tĩnh": 3711,
      "tóc": 3712,
      "xá": 3713,
      "xị": 3714,
      "xích": 3715,
      "zag": 3716,
      "đèo": 3717,
      "đậu": 3718,
      "##́a": 3719,
      "##cca": 3720,
      "##ace": 3721,
      "##ú": 3722,
      "##uro": 3723,
      "##ster": 3724,
      "##hr": 3725,
      "##had": 3726,
      "##no": 3727,
      "##gs": 3728,
      "##ee": 3729,
      "##brid": 3730,
      "##kyo": 3731,
      "##zen": 3732,
      "thạo": 3733,
      "thôi": 3734,
      "trai": 3735,
      "trật": 3736,
      "trôi": 3737,
      "chand": 3738,
      "chợt": 3739,
      "củ": 3740,
      "quên": 3741,
      "sưu": 3742,
      "thưa": 3743,
      "nắng": 3744,
      "thuần": 3745,
      "##inburgh": 3746,
      "phúc": 3747,
      "##enst": 3748,
      "tokyo": 3749,
      "##chte": 3750,
      "phím": 3751,
      "dừa": 3752,
      "##esh": 3753,
      "baba": 3754,
      "1922": 3755,
      "sul": 3756,
      "##ros": 3757,
      "ngũ": 3758,
      "##apagos": 3759,
      "2000": 3760,
      "ngừa": 3761,
      "tỉ": 3762,
      "mãn": 3763,
      "##ffiti": 3764,
      "mecca": 3765,
      "paragu": 3766,
      "177": 3767,
      "##ersburg": 3768,
      "ghét": 3769,
      "cambrid": 3770,
      "nigeria": 3771,
      "##lines": 3772,
      "##khar": 3773,
      "scheng": 3774,
      "1960": 3775,
      "airlines": 3776,
      "403": 3777,
      "1989": 3778,
      "edinburgh": 3779,
      "galapagos": 3780,
      "petersburg": 3781,
      "1956": 3782,
      "scott": 3783,
      "bớt": 3784,
      "darwin": 3785,
      "ebola": 3786,
      "usgs": 3787,
      "thớt": 3788,
      "graffiti": 3789,
      "hẳn": 3790,
      "kitô": 3791,
      "richard": 3792,
      "scotland": 3793,
      "gordon": 3794,
      "xịt": 3795,
      "paraguay": 3796,
      "cambridge": 3797,
      "schengen": 3798,
      "!)": 3799,
      "!\"\"": 3800,
      "(“": 3801,
      ");": 3802,
      ",:": 3803,
      ",..": 3804,
      "--": 3805,
      "09": 3806,
      "06": 3807,
      "07": 3808,
      "120": 3809,
      "22": 3810,
      "23": 3811,
      "38": 3812,
      "37": 3813,
      "330": 3814,
      "42": 3815,
      "55": 3816,
      "54": 3817,
      "68": 3818,
      "62": 3819,
      "69": 3820,
      "77": 3821,
      "755": 3822,
      "88": 3823,
      "86": 3824,
      "83": 3825,
      "820": 3826,
      "850": 3827,
      "93": 3828,
      "ag": 3829,
      "ay": 3830,
      "ab": 3831,
      "ám": 3832,
      "ait": 3833,
      "ara": 3834,
      "ath": 3835,
      "aun": 3836,
      "amp": 3837,
      "ave": 3838,
      "aks": 3839,
      "axi": 3840,
      "abu": 3841,
      "aeg": 3842,
      "bs": 3843,
      "bệ": 3844,
      "bế": 3845,
      "bần": 3846,
      "bon": 3847,
      "bây": 3848,
      "bống": 3849,
      "bàng": 3850,
      "bor": 3851,
      "bes": 3852,
      "bẩn": 3853,
      "bit": 3854,
      "bri": 3855,
      "bốt": 3856,
      "bos": 3857,
      "bard": 3858,
      "bir": 3859,
      "beng": 3860,
      "belly": 3861,
      "binn": 3862,
      "cn": 3863,
      "cg": 3864,
      "cột": 3865,
      "cười": 3866,
      "cay": 3867,
      "cạn": 3868,
      "cài": 3869,
      "cống": 3870,
      "cốc": 3871,
      "cin": 3872,
      "canh": 3873,
      "cởi": 3874,
      "câm": 3875,
      "căng": 3876,
      "cậy": 3877,
      "cạp": 3878,
      "cir": 3879,
      "cli": 3880,
      "cru": 3881,
      "cinc": 3882,
      "cct": 3883,
      "dy": 3884,
      "dai": 3885,
      "dập": 3886,
      "der": 3887,
      "dal": 3888,
      "dĩ": 3889,
      "dặt": 3890,
      "dào": 3891,
      "dội": 3892,
      "dẻ": 3893,
      "dấy": 3894,
      "dán": 3895,
      "dro": 3896,
      "dè": 3897,
      "dri": 3898,
      "dra": 3899,
      "dặn": 3900,
      "drag": 3901,
      "dsl": 3902,
      "dẫm": 3903,
      "donald": 3904,
      "eo": 3905,
      "é": 3906,
      "ei": 3907,
      "er": 3908,
      "ev": 3909,
      "ere": 3910,
      "eva": 3911,
      "ehu": 3912,
      "erk": 3913,
      "ell": 3914,
      "eigh": 3915,
      "euro": 3916,
      "eee": 3917,
      "fa": 3918,
      "ft": 3919,
      "fk": 3920,
      "fon": 3921,
      "fin": 3922,
      "fis": 3923,
      "fic": 3924,
      "flo": 3925,
      "fil": 3926,
      "fall": 3927,
      "fort": 3928,
      "fata": 3929,
      "fati": 3930,
      "fray": 3931,
      "fenton": 3932,
      "flynn": 3933,
      "fifa": 3934,
      "gb": 3935,
      "gã": 3936,
      "gang": 3937,
      "gon": 3938,
      "gạt": 3939,
      "gor": 3940,
      "gán": 3941,
      "gãy": 3942,
      "gol": 3943,
      "glo": 3944,
      "gri": 3945,
      "gall": 3946,
      "gold": 3947,
      "gốm": 3948,
      "gama": 3949,
      "gate": 3950,
      "gẫy": 3951,
      "gyo": 3952,
      "gates": 3953,
      "grid": 3954,
      "game": 3955,
      "glynn": 3956,
      "hj": 3957,
      "hk": 3958,
      "hã": 3959,
      "hiên": 3960,
      "hước": 3961,
      "hal": 3962,
      "his": 3963,
      "hel": 3964,
      "hầm": 3965,
      "hăng": 3966,
      "hiền": 3967,
      "hil": 3968,
      "hắn": 3969,
      "heb": 3970,
      "hers": 3971,
      "hiv": 3972,
      "htt": 3973,
      "hast": 3974,
      "im": 3975,
      "it": 3976,
      "iz": 3977,
      "iph": 3978,
      "ida": 3979,
      "ioc": 3980,
      "irk": 3981,
      "jan": 3982,
      "jong": 3983,
      "jai": 3984,
      "jel": 3985,
      "jas": 3986,
      "jim": 3987,
      "jag": 3988,
      "jard": 3989,
      "jul": 3990,
      "jord": 3991,
      "jean": 3992,
      "jud": 3993,
      "jesus": 3994,
      "ko": 3995,
      "ka": 3996,
      "kn": 3997,
      "kg": 3998,
      "kv": 3999,
      "kong": 4000,
      "kay": 4001,
      "kẽ": 4002,
      "ker": 4003,
      "kor": 4004,
      "kes": 4005,
      "kre": 4006,
      "kri": 4007,
      "kiêu": 4008,
      "kph": 4009,
      "kru": 4010,
      "kiềm": 4011,
      "kalo": 4012,
      "kari": 4013,
      "kok": 4014,
      "kiss": 4015,
      "kings": 4016,
      "kashi": 4017,
      "kanda": 4018,
      "krom": 4019,
      "kwaz": 4020,
      "lă": 4021,
      "lười": 4022,
      "lặt": 4023,
      "lát": 4024,
      "les": 4025,
      "lách": 4026,
      "lầm": 4027,
      "lit": 4028,
      "lèo": 4029,
      "lặng": 4030,
      "lion": 4031,
      "lồng": 4032,
      "liv": 4033,
      "lines": 4034,
      "lót": 4035,
      "md": 4036,
      "mb": 4037,
      "mông": 4038,
      "mì": 4039,
      "mí": 4040,
      "mau": 4041,
      "mộc": 4042,
      "mer": 4043,
      "manh": 4044,
      "mền": 4045,
      "men": 4046,
      "mâu": 4047,
      "mạo": 4048,
      "miệt": 4049,
      "mờ": 4050,
      "mis": 4051,
      "mel": 4052,
      "mệnh": 4053,
      "mè": 4054,
      "mép": 4055,
      "mìn": 4056,
      "mos": 4057,
      "mers": 4058,
      "mph": 4059,
      "mỏi": 4060,
      "mail": 4061,
      "mash": 4062,
      "mino": 4063,
      "móc": 4064,
      "mald": 4065,
      "mick": 4066,
      "miếng": 4067,
      "makis": 4068,
      "ns": 4069,
      "nm": 4070,
      "nê": 4071,
      "nâ": 4072,
      "nại": 4073,
      "nới": 4074,
      "nế": 4075,
      "nặc": 4076,
      "nin": 4077,
      "nản": 4078,
      "nập": 4079,
      "nỏ": 4080,
      "nát": 4081,
      "nẻ": 4082,
      "nấy": 4083,
      "nas": 4084,
      "nòng": 4085,
      "nap": 4086,
      "nak": 4087,
      "nồi": 4088,
      "nện": 4089,
      "nốt": 4090,
      "nẩy": 4091,
      "natal": 4092,
      "nation": 4093,
      "nick": 4094,
      "ndp": 4095,
      "oa": 4096,
      "ot": 4097,
      "od": 4098,
      "óc": 4099,
      "our": 4100,
      "oak": 4101,
      "ohi": 4102,
      "ora": 4103,
      "oun": 4104,
      "off": 4105,
      "ola": 4106,
      "oha": 4107,
      "oli": 4108,
      "oban": 4109,
      "ope": 4110,
      "ogar": 4111,
      "pc": 4112,
      "pt": 4113,
      "py": 4114,
      "png": 4115,
      "pur": 4116,
      "pre": 4117,
      "pst": 4118,
      "ped": 4119,
      "pfan": 4120,
      "piano": 4121,
      "qc": 4122,
      "qv": 4123,
      "rw": 4124,
      "rà": 4125,
      "rệ": 4126,
      "ran": 4127,
      "rực": 4128,
      "rạng": 4129,
      "râm": 4130,
      "rễ": 4131,
      "riệp": 4132,
      "rạp": 4133,
      "rệt": 4134,
      "rỡ": 4135,
      "rust": 4136,
      "ryan": 4137,
      "rick": 4138,
      "rsp": 4139,
      "ronald": 4140,
      "rese": 4141,
      "sc": 4142,
      "sm": 4143,
      "sy": 4144,
      "sô": 4145,
      "sên": 4146,
      "sành": 4147,
      "seo": 4148,
      "sàn": 4149,
      "sảng": 4150,
      "ses": 4151,
      "set": 4152,
      "sat": 4153,
      "sas": 4154,
      "sồi": 4155,
      "sỹ": 4156,
      "sấm": 4157,
      "sie": 4158,
      "sver": 4159,
      "smy": 4160,
      "sint": 4161,
      "sci": 4162,
      "syd": 4163,
      "sakis": 4164,
      "tc": 4165,
      "tm": 4166,
      "td": 4167,
      "tươ": 4168,
      "tản": 4169,
      "tal": 4170,
      "ten": 4171,
      "tel": 4172,
      "tiệm": 4173,
      "tắm": 4174,
      "twin": 4175,
      "uc": 4176,
      "un": 4177,
      "uw": 4178,
      "uk": 4179,
      "ü": 4180,
      "út": 4181,
      "uth": 4182,
      "uran": 4183,
      "upp": 4184,
      "usa": 4185,
      "uka": 4186,
      "uigh": 4187,
      "uni": 4188,
      "vp": 4189,
      "vay": 4190,
      "vân": 4191,
      "vải": 4192,
      "ver": 4193,
      "vặt": 4194,
      "vấy": 4195,
      "vis": 4196,
      "vas": 4197,
      "vảy": 4198,
      "viền": 4199,
      "vượng": 4200,
      "viêm": 4201,
      "vern": 4202,
      "veg": 4203,
      "vanda": 4204,
      "viếng": 4205,
      "vót": 4206,
      "wl": 4207,
      "we": 4208,
      "wong": 4209,
      "wai": 4210,
      "wel": 4211,
      "whi": 4212,
      "wag": 4213,
      "ward": 4214,
      "wned": 4215,
      "wade": 4216,
      "wik": 4217,
      "wond": 4218,
      "xt": 4219,
      "xx": 4220,
      "xiê": 4221,
      "xong": 4222,
      "xổ": 4223,
      "xương": 4224,
      "xáo": 4225,
      "xối": 4226,
      "xướng": 4227,
      "xuyết": 4228,
      "xte": 4229,
      "xiêm": 4230,
      "xói": 4231,
      "xộn": 4232,
      "xvi": 4233,
      "ya": 4234,
      "yể": 4235,
      "yas": 4236,
      "zo": 4237,
      "za": 4238,
      "zi": 4239,
      "zh": 4240,
      "zou": 4241,
      "zig": 4242,
      "đả": 4243,
      "đạn": 4244,
      "đống": 4245,
      "đinh": 4246,
      "đính": 4247,
      "đực": 4248,
      "đẻ": 4249,
      "đắc": 4250,
      "đạc": 4251,
      "điệp": 4252,
      "đắp": 4253,
      "đặng": 4254,
      "đẳng": 4255,
      "đặn": 4256,
      "##od": 4257,
      "##oon": 4258,
      "##ole": 4259,
      "##over": 4260,
      "##oda": 4261,
      "##otte": 4262,
      "##oxit": 4263,
      "##oja": 4264,
      "##ofan": 4265,
      "##pi": 4266,
      "##pen": 4267,
      "##por": 4268,
      "##pus": 4269,
      "##pern": 4270,
      "##pul": 4271,
      "##puch": 4272,
      "##pov": 4273,
      "##poulos": 4274,
      "##pú": 4275,
      "##ls": 4276,
      "##lb": 4277,
      "##lon": 4278,
      "##lam": 4279,
      "##lia": 4280,
      "##las": 4281,
      "##llo": 4282,
      "##lington": 4283,
      "##lgar": 4284,
      "##lni": 4285,
      "##cf": 4286,
      "##cia": 4287,
      "##cil": 4288,
      "##cta": 4289,
      "##cord": 4290,
      "##cation": 4291,
      "##ctic": 4292,
      "##cone": 4293,
      "##cci": 4294,
      "##canian": 4295,
      "##cast": 4296,
      "##ciano": 4297,
      "##az": 4298,
      "##ãng": 4299,
      "##ael": 4300,
      "##aza": 4301,
      "##aqu": 4302,
      "##um": 4303,
      "##uv": 4304,
      "##ux": 4305,
      "##uit": 4306,
      "##ule": 4307,
      "##uta": 4308,
      "##ute": 4309,
      "##uke": 4310,
      "##uilla": 4311,
      "##üm": 4312,
      "##ucation": 4313,
      "##sm": 4314,
      "##sg": 4315,
      "##ş": 4316,
      "##sau": 4317,
      "##sar": 4318,
      "##sen": 4319,
      "##sel": 4320,
      "##ses": 4321,
      "##sand": 4322,
      "##sur": 4323,
      "##sta": 4324,
      "##sla": 4325,
      "##seth": 4326,
      "##sala": 4327,
      "##smo": 4328,
      "##io": 4329,
      "##ín": 4330,
      "##ich": 4331,
      "##ile": 4332,
      "##iers": 4333,
      "##iog": 4334,
      "##iore": 4335,
      "##iola": 4336,
      "##ichel": 4337,
      "##har": 4338,
      "##hal": 4339,
      "##hen": 4340,
      "##hel": 4341,
      "##hul": 4342,
      "##hoo": 4343,
      "##hall": 4344,
      "##hey": 4345,
      "##hary": 4346,
      "##hood": 4347,
      "##hiti": 4348,
      "##mb": 4349,
      "##mal": 4350,
      "##mel": 4351,
      "##mat": 4352,
      "##mur": 4353,
      "##mos": 4354,
      "##mir": 4355,
      "##mson": 4356,
      "##mber": 4357,
      "##mey": 4358,
      "##mbai": 4359,
      "##tong": 4360,
      "##tia": 4361,
      "##tol": 4362,
      "##tine": 4363,
      "##trig": 4364,
      "##tgen": 4365,
      "##jo": 4366,
      "##ji": 4367,
      "##jon": 4368,
      "##jia": 4369,
      "##jet": 4370,
      "##jab": 4371,
      "##ny": 4372,
      "##nk": 4373,
      "##nau": 4374,
      "##nal": 4375,
      "##nist": 4376,
      "##nos": 4377,
      "##nig": 4378,
      "##go": 4379,
      "##gr": 4380,
      "##gy": 4381,
      "##ğ": 4382,
      "##gine": 4383,
      "##gow": 4384,
      "##gust": 4385,
      "##gsl": 4386,
      "##giore": 4387,
      "##ei": 4388,
      "##ex": 4389,
      "##én": 4390,
      "##eir": 4391,
      "##edo": 4392,
      "##ror": 4393,
      "##rro": 4394,
      "##rap": 4395,
      "##rna": 4396,
      "##rash": 4397,
      "##rican": 4398,
      "##rling": 4399,
      "##rray": 4400,
      "##rses": 4401,
      "##fa": 4402,
      "##fy": 4403,
      "##fal": 4404,
      "##fas": 4405,
      "##fing": 4406,
      "##fth": 4407,
      "##foke": 4408,
      "##faw": 4409,
      "##yon": 4410,
      "##yer": 4411,
      "##yland": 4412,
      "##yss": 4413,
      "##yns": 4414,
      "##yuz": 4415,
      "##ysla": 4416,
      "##du": 4417,
      "##dw": 4418,
      "##dan": 4419,
      "##din": 4420,
      "##der": 4421,
      "##dern": 4422,
      "##dina": 4423,
      "##dul": 4424,
      "##dya": 4425,
      "##drig": 4426,
      "##dcast": 4427,
      "##bin": 4428,
      "##bal": 4429,
      "##bor": 4430,
      "##bet": 4431,
      "##bson": 4432,
      "##blin": 4433,
      "##bean": 4434,
      "##bruk": 4435,
      "##blic": 4436,
      "##wc": 4437,
      "##wan": 4438,
      "##wak": 4439,
      "##world": 4440,
      "##wpar": 4441,
      "##vu": 4442,
      "##via": 4443,
      "##vé": 4444,
      "##vol": 4445,
      "##vian": 4446,
      "##vall": 4447,
      "##vish": 4448,
      "##vick": 4449,
      "##villa": 4450,
      "##varia": 4451,
      "##vado": 4452,
      "##ville": 4453,
      "##89": 4454,
      "##85": 4455,
      "##kan": 4456,
      "##kor": 4457,
      "##kol": 4458,
      "##kur": 4459,
      "##kla": 4460,
      "##kir": 4461,
      "##kou": 4462,
      "##krit": 4463,
      "##xon": 4464,
      "##xlo": 4465,
      "##xbur": 4466,
      "##xtgen": 4467,
      "##24": 4468,
      "##zo": 4469,
      "##zz": 4470,
      "##zơ": 4471,
      "##zam": 4472,
      "##zel": 4473,
      "##zian": 4474,
      "##zez": 4475,
      "##zuma": 4476,
      "##zich": 4477,
      "##zyns": 4478,
      "##69": 4479,
      "##67": 4480,
      "##61": 4481,
      "##36": 4482,
      "##59": 4483,
      "##qi": 4484,
      "##̈ng": 4485,
      "##̈sl": 4486,
      "##̈rses": 4487,
      "##12": 4488,
      "##49": 4489,
      "##nger": 4490,
      "##ngla": 4491,
      "##ngord": 4492,
      "##ngary": 4493,
      "##ếch": 4494,
      "thệ": 4495,
      "thuy": 4496,
      "thỏ": 4497,
      "ther": 4498,
      "thép": 4499,
      "thra": 4500,
      "thấm": 4501,
      "thềm": 4502,
      "thrash": 4503,
      "##ược": 4504,
      "trống": 4505,
      "trinh": 4506,
      "treo": 4507,
      "trin": 4508,
      "trỏ": 4509,
      "trat": 4510,
      "trễ": 4511,
      "trạc": 4512,
      "trướng": 4513,
      "trồi": 4514,
      "trèo": 4515,
      "trian": 4516,
      "trenton": 4517,
      "chày": 4518,
      "chài": 4519,
      "chật": 4520,
      "cheo": 4521,
      "chập": 4522,
      "cher": 4523,
      "chiết": 4524,
      "chổi": 4525,
      "chào": 4526,
      "chánh": 4527,
      "chội": 4528,
      "chas": 4529,
      "chán": 4530,
      "chìm": 4531,
      "chăng": 4532,
      "chốt": 4533,
      "chìa": 4534,
      "chớp": 4535,
      "chồm": 4536,
      "nhi": 4537,
      "nhk": 4538,
      "nhì": 4539,
      "nhại": 4540,
      "nhí": 4541,
      "nhổ": 4542,
      "nhường": 4543,
      "nhở": 4544,
      "nham": 4545,
      "nhàng": 4546,
      "nhặt": 4547,
      "nhát": 4548,
      "nhãn": 4549,
      "nhấc": 4550,
      "nhộn": 4551,
      "nhược": 4552,
      "khước": 4553,
      "kham": 4554,
      "khiết": 4555,
      "khen": 4556,
      "khôi": 4557,
      "khốn": 4558,
      "khiếm": 4559,
      "khiếu": 4560,
      "khẳng": 4561,
      "khớp": 4562,
      "ngột": 4563,
      "ngài": 4564,
      "ngơi": 4565,
      "ngạo": 4566,
      "ngor": 4567,
      "ngách": 4568,
      "ngắt": 4569,
      "##ău": 4570,
      "##ằng": 4571,
      "phông": 4572,
      "phiện": 4573,
      "phai": 4574,
      "phanh": 4575,
      "phơi": 4576,
      "phen": 4577,
      "phượt": 4578,
      "phễ": 4579,
      "phẫn": 4580,
      "phấn": 4581,
      "phượng": 4582,
      "phant": 4583,
      "phond": 4584,
      "cú": 4585,
      "cup": 4586,
      "cua": 4587,
      "cúc": 4588,
      "cúp": 4589,
      "cuer": 4590,
      "cuội": 4591,
      "cush": 4592,
      "giông": 4593,
      "giong": 4594,
      "giang": 4595,
      "giật": 4596,
      "giời": 4597,
      "giặt": 4598,
      "gill": 4599,
      "giẫm": 4600,
      "gibson": 4601,
      "giằng": 4602,
      "quật": 4603,
      "quặt": 4604,
      "quấy": 4605,
      "quạnh": 4606,
      "quầng": 4607,
      "làn": 4608,
      "cóng": 4609,
      "hong": 4610,
      "hoài": 4611,
      "hous": 4612,
      "homo": 4613,
      "homer": 4614,
      "howe": 4615,
      "hooke": 4616,
      "hopper": 4617,
      "holb": 4618,
      "horro": 4619,
      "hokur": 4620,
      "##ania": 4621,
      "##anes": 4622,
      "##anth": 4623,
      "##ansa": 4624,
      "##ankar": 4625,
      "##ongor": 4626,
      "duệ": 4627,
      "dũng": 4628,
      "dust": 4629,
      "dumb": 4630,
      "dublin": 4631,
      "duvall": 4632,
      "duxbur": 4633,
      "chọc": 4634,
      "chọi": 4635,
      "choud": 4636,
      "chùng": 4637,
      "chùm": 4638,
      "chuôi": 4639,
      "chuộng": 4640,
      "thun": 4641,
      "thục": 4642,
      "thùy": 4643,
      "tiêm": 4644,
      "tiễn": 4645,
      "##anga": 4646,
      "##angel": 4647,
      "##angjia": 4648,
      "khỉ": 4649,
      "##onic": 4650,
      "##onos": 4651,
      "##onov": 4652,
      "##aica": 4653,
      "##aigsl": 4654,
      "nghịch": 4655,
      "nghiệt": 4656,
      "nghiền": 4657,
      "##audia": 4658,
      "##aucanian": 4659,
      "vung": 4660,
      "vùi": 4661,
      "raro": 4662,
      "rahul": 4663,
      "raonic": 4664,
      "chiao": 4665,
      "chick": 4666,
      "chiş": 4667,
      "##eosau": 4668,
      "lọ": 4669,
      "lọt": 4670,
      "loes": 4671,
      "lõi": 4672,
      "loãng": 4673,
      "lodin": 4674,
      "##inen": 4675,
      "##inski": 4676,
      "##inău": 4677,
      "nóc": 4678,
      "##ermo": 4679,
      "##ara": 4680,
      "##arch": 4681,
      "##arus": 4682,
      "##arman": 4683,
      "##arine": 4684,
      "##arest": 4685,
      "##arola": 4686,
      "##arctic": 4687,
      "##arinen": 4688,
      "đioxit": 4689,
      "tuýp": 4690,
      "khuếch": 4691,
      "múi": 4692,
      "muối": 4693,
      "much": 4694,
      "muss": 4695,
      "muộn": 4696,
      "mumbai": 4697,
      "murray": 4698,
      "muxlo": 4699,
      "müsl": 4700,
      "xé": 4701,
      "ân": 4702,
      "doạ": 4703,
      "dọn": 4704,
      "down": 4705,
      "doming": 4706,
      "lún": 4707,
      "lùi": 4708,
      "lụt": 4709,
      "lúa": 4710,
      "luno": 4711,
      "lufth": 4712,
      "trúng": 4713,
      "truex": 4714,
      "ôm": 4715,
      "ốt": 4716,
      "##alle": 4717,
      "##alos": 4718,
      "tut": 4719,
      "tụt": 4720,
      "phui": 4721,
      "phùn": 4722,
      "phúng": 4723,
      "##ent": 4724,
      "##enid": 4725,
      "##ence": 4726,
      "##enburg": 4727,
      "##enicia": 4728,
      "##enei": 4729,
      "khoe": 4730,
      "khoai": 4731,
      "khoái": 4732,
      "khoát": 4733,
      "khoẻ": 4734,
      "khoảnh": 4735,
      "top": 4736,
      "toà": 4737,
      "toái": 4738,
      "toạc": 4739,
      "toto": 4740,
      "toron": 4741,
      "tobruk": 4742,
      "răng": 4743,
      "xuôi": 4744,
      "quyến": 4745,
      "coas": 4746,
      "colo": 4747,
      "coun": 4748,
      "cover": 4749,
      "couch": 4750,
      "copern": 4751,
      "cowpar": 4752,
      "const": 4753,
      "connau": 4754,
      "##chy": 4755,
      "##chin": 4756,
      "##chus": 4757,
      "##chol": 4758,
      "##chur": 4759,
      "##chag": 4760,
      "##chem": 4761,
      "##chary": 4762,
      "##chael": 4763,
      "##charest": 4764,
      "lượn": 4765,
      "cớ": 4766,
      "##iah": 4767,
      "##iad": 4768,
      "##oru": 4769,
      "##oras": 4770,
      "##oros": 4771,
      "##orua": 4772,
      "ngòi": 4773,
      "ngoắc": 4774,
      "vụn": 4775,
      "taj": 4776,
      "tahiti": 4777,
      "tagine": 4778,
      "troy": 4779,
      "tròn": 4780,
      "##ise": 4781,
      "##isha": 4782,
      "##isban": 4783,
      "hôi": 4784,
      "##els": 4785,
      "##ely": 4786,
      "##elow": 4787,
      "##elty": 4788,
      "nguyền": 4789,
      "lyon": 4790,
      "lynd": 4791,
      "đun": 4792,
      "##esa": 4793,
      "##esian": 4794,
      "##esso": 4795,
      "##essand": 4796,
      "sol": 4797,
      "sọ": 4798,
      "sole": 4799,
      "soph": 4800,
      "sound": 4801,
      "soci": 4802,
      "sofia": 4803,
      "somal": 4804,
      "soyuz": 4805,
      "namgyal": 4806,
      "namgy": 4807,
      "vik": 4808,
      "vilni": 4809,
      "vichy": 4810,
      "chiêm": 4811,
      "back": 4812,
      "baby": 4813,
      "batt": 4814,
      "bafoke": 4815,
      "badya": 4816,
      "bavaria": 4817,
      "bazơ": 4818,
      "##ete": 4819,
      "##ety": 4820,
      "##eton": 4821,
      "##etic": 4822,
      "##etta": 4823,
      "##etts": 4824,
      "##atrap": 4825,
      "##asal": 4826,
      "##asque": 4827,
      "##ascar": 4828,
      "##asgow": 4829,
      "ròng": 4830,
      "room": 4831,
      "rotor": 4832,
      "robert": 4833,
      "rolando": 4834,
      "route": 4835,
      "rodrig": 4836,
      "robin": 4837,
      "giancar": 4838,
      "##andina": 4839,
      "thằn": 4840,
      "thắp": 4841,
      "did": 4842,
      "dilo": 4843,
      "dieg": 4844,
      "lựu": 4845,
      "bục": 4846,
      "bụi": 4847,
      "buôn": 4848,
      "buồn": 4849,
      "buồng": 4850,
      "buồm": 4851,
      "bulgar": 4852,
      "bungary": 4853,
      "bucharest": 4854,
      "phỉ": 4855,
      "hệt": 4856,
      "190": 4857,
      "1920": 4858,
      "1930": 4859,
      "1939": 4860,
      "1912": 4861,
      "bank": 4862,
      "gồ": 4863,
      "vịt": 4864,
      "vịn": 4865,
      "suv": 4866,
      "sút": 4867,
      "sụp": 4868,
      "##ica": 4869,
      "##icus": 4870,
      "thọ": 4871,
      "thõng": 4872,
      "thoảng": 4873,
      "thomson": 4874,
      "##robi": 4875,
      "##ropus": 4876,
      "giục": 4877,
      "nút": 4878,
      "number": 4879,
      "##ith": 4880,
      "##itas": 4881,
      "##itution": 4882,
      "##itvice": 4883,
      "##itals": 4884,
      "##leans": 4885,
      "##lege": 4886,
      "##lejon": 4887,
      "##levé": 4888,
      "##usis": 4889,
      "##usie": 4890,
      "##inger": 4891,
      ").\"": 4892,
      "##ols": 4893,
      "##olini": 4894,
      "##urley": 4895,
      "##imonos": 4896,
      "ngục": 4897,
      "ngủi": 4898,
      "tayyi": 4899,
      "inca": 4900,
      "inuit": 4901,
      "intrig": 4902,
      "##aptor": 4903,
      "##apfen": 4904,
      "##lou": 4905,
      "##loon": 4906,
      "##lopoulos": 4907,
      "##adley": 4908,
      "##adysla": 4909,
      "##akh": 4910,
      "##akia": 4911,
      "##akha": 4912,
      "##akop": 4913,
      "bỏng": 4914,
      "neigh": 4915,
      "nextgen": 4916,
      "anto": 4917,
      "ansa": 4918,
      "anatol": 4919,
      "anfa": 4920,
      "emma": 4921,
      "emmy": 4922,
      "##reb": 4923,
      "##rew": 4924,
      "##reet": 4925,
      "khóc": 4926,
      "khói": 4927,
      "2003": 4928,
      "##rida": 4929,
      "##rillo": 4930,
      "207": 4931,
      "2022": 4932,
      "##hire": 4933,
      "##hikawa": 4934,
      "##teros": 4935,
      "##rabo": 4936,
      "strand": 4937,
      "station": 4938,
      "stofan": 4939,
      "street": 4940,
      "strabo": 4941,
      "##neapolis": 4942,
      "108": 4943,
      "109": 4944,
      "105": 4945,
      "lafas": 4946,
      "xavi": 4947,
      "rũ": 4948,
      "ruột": 4949,
      "rủng": 4950,
      "ruộng": 4951,
      "rudd": 4952,
      "rumel": 4953,
      "đét": 4954,
      "##omé": 4955,
      "##omag": 4956,
      "##omir": 4957,
      "trafal": 4958,
      "vồ": 4959,
      "ngửi": 4960,
      "116": 4961,
      "117": 4962,
      "##thang": 4963,
      "##thic": 4964,
      "##thag": 4965,
      "nhiêu": 4966,
      "ali": 4967,
      "alps": 4968,
      "albert": 4969,
      "alden": 4970,
      "aldw": 4971,
      "alessand": 4972,
      "##ila": 4973,
      "##ileo": 4974,
      "##ilis": 4975,
      "##tave": 4976,
      "##tagne": 4977,
      "##tafy": 4978,
      "tie": 4979,
      "tipper": 4980,
      "võng": 4981,
      "vòm": 4982,
      "##istina": 4983,
      "##istler": 4984,
      "##istchur": 4985,
      "##ebo": 4986,
      "##eber": 4987,
      "mãnh": 4988,
      "##agan": 4989,
      "##agem": 4990,
      "##agsta": 4991,
      "##agascar": 4992,
      "jobs": 4993,
      "jose": 4994,
      "joaqu": 4995,
      "jochem": 4996,
      "##tone": 4997,
      "cafen": 4998,
      "taiba": 4999,
      "tainos": 5000,
      "taizich": 5001,
      "news": 5002,
      "”.\"": 5003,
      "##osition": 5004,
      "165": 5005,
      "1600": 5006,
      "1639": 5007,
      "1610": 5008,
      "1644": 5009,
      "1624": 5010,
      "1649": 5011,
      "arly": 5012,
      "arti": 5013,
      "aryan": 5014,
      "artem": 5015,
      "aristoph": 5016,
      "araucanian": 5017,
      "kem": 5018,
      "keir": 5019,
      "kechag": 5020,
      "##tep": 5021,
      "##team": 5022,
      "1500": 5023,
      "1539": 5024,
      "rio": 5025,
      "rỉnh": 5026,
      "riina": 5027,
      "river": 5028,
      "rift": 5029,
      "riga": 5030,
      "riomag": 5031,
      "##cock": 5032,
      "##codi": 5033,
      "##covado": 5034,
      "lệch": 5035,
      "lantagne": 5036,
      "rex": 5037,
      "rét": 5038,
      "rece": 5039,
      "report": 5040,
      "reed": 5041,
      "repú": 5042,
      "revol": 5043,
      "reagan": 5044,
      "##ional": 5045,
      "thỉnh": 5046,
      "2012": 5047,
      "bọt": 5048,
      "bots": 5049,
      "book": 5050,
      "bohr": 5051,
      "boule": 5052,
      "##uns": 5053,
      "##unya": 5054,
      "##mplo": 5055,
      "##ardian": 5056,
      "santo": 5057,
      "sansk": 5058,
      "sanju": 5059,
      "sanpar": 5060,
      "santia": 5061,
      "##tric": 5062,
      "##ffer": 5063,
      "##ffir": 5064,
      "cưỡng": 5065,
      "gừ": 5066,
      "mafia": 5067,
      "machu": 5068,
      "mahal": 5069,
      "maasal": 5070,
      "savan": 5071,
      "sahe": 5072,
      "saens": 5073,
      "sacks": 5074,
      "sahel": 5075,
      "saarinen": 5076,
      "sachin": 5077,
      "saffir": 5078,
      "shri": 5079,
      "shore": 5080,
      "short": 5081,
      "shari": 5082,
      "shannes": 5083,
      "shankar": 5084,
      "shisha": 5085,
      "shimonos": 5086,
      "##lah": 5087,
      "##iraptor": 5088,
      "nhút": 5089,
      "1800": 5090,
      "1830": 5091,
      "1839": 5092,
      "1818": 5093,
      "1810": 5094,
      "1885": 5095,
      "1861": 5096,
      "cốp": 5097,
      "medina": 5098,
      "canal": 5099,
      "canxi": 5100,
      "canaan": 5101,
      "canyon": 5102,
      "huyện": 5103,
      "##hae": 5104,
      "chíp": 5105,
      "johannes": 5106,
      "bổng": 5107,
      "hei": 5108,
      "heck": 5109,
      "hecta": 5110,
      "hekla": 5111,
      "headley": 5112,
      "maria": 5113,
      "marta": 5114,
      "marion": 5115,
      "marsh": 5116,
      "mario": 5117,
      "maryland": 5118,
      "##iance": 5119,
      "##ianapolis": 5120,
      "##touv": 5121,
      "##emiah": 5122,
      "suplic": 5123,
      "proxy": 5124,
      "provis": 5125,
      "##ápagos": 5126,
      "174": 5127,
      "1755": 5128,
      "1789": 5129,
      "1767": 5130,
      "1759": 5131,
      "greely": 5132,
      "kivu": 5133,
      "##maeosau": 5134,
      "##erson": 5135,
      "##ersity": 5136,
      "bien": 5137,
      "bieber": 5138,
      "##doğ": 5139,
      "##bodia": 5140,
      "140": 5141,
      "1480": 5142,
      "1450": 5143,
      "1418": 5144,
      "1444": 5145,
      "1469": 5146,
      "dẹp": 5147,
      "deity": 5148,
      "deuts": 5149,
      "vidde": 5150,
      "##strom": 5151,
      "1978": 5152,
      "1976": 5153,
      "ash": 5154,
      "astron": 5155,
      "asfaw": 5156,
      "daesh": 5157,
      "ghề": 5158,
      "ghé": 5159,
      "ghim": 5160,
      "ghẹ": 5161,
      "ghrai": 5162,
      "môt": 5163,
      "methan": 5164,
      "metror": 5165,
      "vựng": 5166,
      "##ogle": 5167,
      "##phin": 5168,
      "##lie": 5169,
      "##cell": 5170,
      "1990": 5171,
      "1992": 5172,
      "1996": 5173,
      "240": 5174,
      "243": 5175,
      "247": 5176,
      "5000": 5177,
      "carpan": 5178,
      "saito": 5179,
      "##tier": 5180,
      "camille": 5181,
      "campuch": 5182,
      "cambodia": 5183,
      "sea": 5184,
      "seng": 5185,
      "sét": 5186,
      "séc": 5187,
      "sezen": 5188,
      "sepul": 5189,
      "sedan": 5190,
      "sevilla": 5191,
      "##ulu": 5192,
      "##ulka": 5193,
      "##vaji": 5194,
      "##vec": 5195,
      "##veda": 5196,
      ".”\"": 5197,
      "afcf": 5198,
      "african": 5199,
      "niue": 5200,
      "niig": 5201,
      "nikol": 5202,
      "nixon": 5203,
      "nichol": 5204,
      "##lino": 5205,
      "##linn": 5206,
      "##beration": 5207,
      "##inek": 5208,
      "##inews": 5209,
      "barca": 5210,
      "bartol": 5211,
      "gù": 5212,
      "gürses": 5213,
      "guardian": 5214,
      "haris": 5215,
      "harbour": 5216,
      "harappan": 5217,
      "harper": 5218,
      "harvick": 5219,
      "moa": 5220,
      "mohen": 5221,
      "modern": 5222,
      "mozam": 5223,
      "norman": 5224,
      "##sack": 5225,
      "##iej": 5226,
      "##ieux": 5227,
      "##rüm": 5228,
      "##allit": 5229,
      "##allus": 5230,
      "##ivan": 5231,
      "##ives": 5232,
      "##iversity": 5233,
      "##banks": 5234,
      "tribu": 5235,
      "bloch": 5236,
      "##orno": 5237,
      "356": 5238,
      "bali": 5239,
      "balbo": 5240,
      "balkan": 5241,
      "casa": 5242,
      "casas": 5243,
      "casey": 5244,
      "caspi": 5245,
      "capuch": 5246,
      "capuz": 5247,
      "capitals": 5248,
      "flat": 5249,
      "flash": 5250,
      "fluke": 5251,
      "flagsta": 5252,
      "franks": 5253,
      "isis": 5254,
      "isil": 5255,
      "ishikawa": 5256,
      "manta": 5257,
      "manarola": 5258,
      "manila": 5259,
      "managem": 5260,
      "mantouv": 5261,
      "nairobi": 5262,
      "pound": 5263,
      "pohu": 5264,
      "point": 5265,
      "power": 5266,
      "podcast": 5267,
      "##toral": 5268,
      "##bile": 5269,
      "##bique": 5270,
      "##zania": 5271,
      "##zantine": 5272,
      "ẩu": 5273,
      "1969": 5274,
      "1966": 5275,
      "1963": 5276,
      "1965": 5277,
      "1967": 5278,
      "steve": 5279,
      "stars": 5280,
      "starmer": 5281,
      "august": 5282,
      "gazian": 5283,
      "hưu": 5284,
      "hưng": 5285,
      "tệp": 5286,
      "xix": 5287,
      "##xiou": 5288,
      "phoenicia": 5289,
      "airway": 5290,
      "1200": 5291,
      "340": 5292,
      "ames": 5293,
      "amir": 5294,
      "berber": 5295,
      "berhan": 5296,
      "callejon": 5297,
      "grande": 5298,
      "jamie": 5299,
      "jamaica": 5300,
      "kenned": 5301,
      "kenseth": 5302,
      "latam": 5303,
      "latvia": 5304,
      "lakes": 5305,
      "palaw": 5306,
      "palermo": 5307,
      "templo": 5308,
      "##uchen": 5309,
      "chót": 5310,
      "1947": 5311,
      "runnels": 5312,
      "alliance": 5313,
      "armand": 5314,
      "##undation": 5315,
      "electric": 5316,
      "electoral": 5317,
      "133": 5318,
      "edgar": 5319,
      "edward": 5320,
      "education": 5321,
      "gọn": 5322,
      "gourley": 5323,
      "gothic": 5324,
      "google": 5325,
      "galông": 5326,
      "galile": 5327,
      "galileo": 5328,
      "galápagos": 5329,
      "mayotte": 5330,
      "not": 5331,
      "noto": 5332,
      "nova": 5333,
      "petros": 5334,
      "##pshire": 5335,
      "##huania": 5336,
      "##egates": 5337,
      "##egsm": 5338,
      "1958": 5339,
      "1950": 5340,
      "1957": 5341,
      "1951": 5342,
      "562": 5343,
      "adt": 5344,
      "add": 5345,
      "angola": 5346,
      "angkor": 5347,
      "catalunya": 5348,
      "delhi": 5349,
      "delta": 5350,
      "delegates": 5351,
      "espr": 5352,
      "gomulka": 5353,
      "liu": 5354,
      "ligur": 5355,
      "liberation": 5356,
      "mip": 5357,
      "mike": 5358,
      "miami": 5359,
      "michel": 5360,
      "michael": 5361,
      "plc": 5362,
      "plata": 5363,
      "plitvice": 5364,
      "ski": 5365,
      "skis": 5366,
      "scopol": 5367,
      "tank": 5368,
      "tanzania": 5369,
      "tamaki": 5370,
      "##abakh": 5371,
      "giovan": 5372,
      "hungaria": 5373,
      "##icana": 5374,
      "atlantic": 5375,
      "ecuado": 5376,
      "291": 5377,
      "monteros": 5378,
      "maswa": 5379,
      "indias": 5380,
      "indianapolis": 5381,
      "3000": 5382,
      "645": 5383,
      "764": 5384,
      "acid": 5385,
      "acma": 5386,
      "alexiou": 5387,
      "break": 5388,
      "bremer": 5389,
      "brewer": 5390,
      "brevis": 5391,
      "crown": 5392,
      "crocodi": 5393,
      "falcone": 5394,
      "gurmat": 5395,
      "hamlin": 5396,
      "hamburg": 5397,
      "hampshire": 5398,
      "hẻo": 5399,
      "ilha": 5400,
      "iliad": 5401,
      "jack": 5402,
      "jazz": 5403,
      "jeremiah": 5404,
      "kristo": 5405,
      "krapfen": 5406,
      "lamb": 5407,
      "lastu": 5408,
      "laskhar": 5409,
      "mêlam": 5410,
      "peru": 5411,
      "patos": 5412,
      "pattave": 5413,
      "raymon": 5414,
      "sara": 5415,
      "saroja": 5416,
      "tony": 5417,
      "who": 5418,
      "whistler": 5419,
      "đựng": 5420,
      "##oç": 5421,
      "##ocles": 5422,
      "##ociraptor": 5423,
      "##iges": 5424,
      "##minus": 5425,
      "##minster": 5426,
      "##tukawa": 5427,
      "##eki": 5428,
      "##vention": 5429,
      "chhatrap": 5430,
      "dunkir": 5431,
      "##issary": 5432,
      "safina": 5433,
      "berliner": 5434,
      "elizabet": 5435,
      "dịp": 5436,
      "daro": 5437,
      "daru": 5438,
      "granville": 5439,
      "karenia": 5440,
      "karate": 5441,
      "karabakh": 5442,
      "##bonite": 5443,
      "corpor": 5444,
      "cornig": 5445,
      "corcovado": 5446,
      "##ingstone": 5447,
      "328": 5448,
      "323": 5449,
      "3136": 5450,
      "480": 5451,
      "blue": 5452,
      "bén": 5453,
      "claudia": 5454,
      "clara": 5455,
      "clorua": 5456,
      "craigsl": 5457,
      "crete": 5458,
      "cristina": 5459,
      "congo": 5460,
      "civis": 5461,
      "civitas": 5462,
      "civilis": 5463,
      "felicia": 5464,
      "grachte": 5465,
      "hira": 5466,
      "hanami": 5467,
      "hanover": 5468,
      "hancock": 5469,
      "katja": 5470,
      "kirby": 5471,
      "mili": 5472,
      "onega": 5473,
      "oneworld": 5474,
      "picchu": 5475,
      "punja": 5476,
      "punjab": 5477,
      "punakha": 5478,
      "service": 5479,
      "versace": 5480,
      "walt": 5481,
      "westjet": 5482,
      "westminster": 5483,
      "đàm": 5484,
      "##ovarman": 5485,
      "##mons": 5486,
      "##mont": 5487,
      "##rayaan": 5488,
      "##ydallus": 5489,
      "nhòm": 5490,
      "nhọn": 5491,
      "sứa": 5492,
      "##inette": 5493,
      "college": 5494,
      "##chell": 5495,
      "journal": 5496,
      "1894": 5497,
      "1498": 5498,
      "1492": 5499,
      "caribbean": 5500,
      "skype": 5501,
      "skyteam": 5502,
      "montezuma": 5503,
      "massachus": 5504,
      "falklands": 5505,
      "azeris": 5506,
      "fairbanks": 5507,
      "fairmont": 5508,
      "fernandez": 5509,
      "3980": 5510,
      "glen": 5511,
      "glasgow": 5512,
      "hằng": 5513,
      "kito": 5514,
      "leona": 5515,
      "leonov": 5516,
      "madam": 5517,
      "madagascar": 5518,
      "nanak": 5519,
      "richter": 5520,
      "scotia": 5521,
      "0230": 5522,
      "491": 5523,
      "783": 5524,
      "948": 5525,
      "9400": 5526,
      "brzez": 5527,
      "brisban": 5528,
      "benin": 5529,
      "belgr": 5530,
      "belarus": 5531,
      "branca": 5532,
      "branson": 5533,
      "cell": 5534,
      "cella": 5535,
      "ephesus": 5536,
      "ephesian": 5537,
      "fools": 5538,
      "foundation": 5539,
      "formos": 5540,
      "gara": 5541,
      "garcia": 5542,
      "ipod": 5543,
      "iwata": 5544,
      "iwasaki": 5545,
      "jonny": 5546,
      "jarque": 5547,
      "jaromir": 5548,
      "kalaalle": 5549,
      "kalaallit": 5550,
      "lều": 5551,
      "larson": 5552,
      "larry": 5553,
      "lẻo": 5554,
      "lemieux": 5555,
      "mccord": 5556,
      "mcmur": 5557,
      "minneapolis": 5558,
      "minivan": 5559,
      "malar": 5560,
      "malta": 5561,
      "mitt": 5562,
      "mitchell": 5563,
      "mission": 5564,
      "nagasaki": 5565,
      "nagorno": 5566,
      "orlando": 5567,
      "orleans": 5568,
      "oldrich": 5569,
      "oldsmo": 5570,
      "shika": 5571,
      "shivaji": 5572,
      "tonga": 5573,
      "tongan": 5574,
      "terre": 5575,
      "terminus": 5576,
      "urdu": 5577,
      "vẹt": 5578,
      "valley": 5579,
      "valetta": 5580,
      "velasque": 5581,
      "velociraptor": 5582,
      "xinhua": 5583,
      "##paniola": 5584,
      "##ctus": 5585,
      "##utsk": 5586,
      "##seca": 5587,
      "##iku": 5588,
      "##housie": 5589,
      "##mingham": 5590,
      "##gurat": 5591,
      "##raine": 5592,
      "transant": 5593,
      "transnist": 5594,
      "christoph": 5595,
      "christchur": 5596,
      "##innati": 5597,
      "dominica": 5598,
      "dominicana": 5599,
      "comoros": 5600,
      "commons": 5601,
      "##atollah": 5602,
      "rogers": 5603,
      "rogaland": 5604,
      "roberto": 5605,
      "roberts": 5606,
      "bums": 5607,
      "bumthang": 5608,
      "animal": 5609,
      "animals": 5610,
      "1040": 5611,
      "alpes": 5612,
      "alpha": 5613,
      "cacbonic": 5614,
      "1683": 5615,
      "##temata": 5616,
      "bowen": 5617,
      "bowyer": 5618,
      "santorini": 5619,
      "santorum": 5620,
      "macbeth": 5621,
      "maciej": 5622,
      "shark": 5623,
      "sharma": 5624,
      "##ifax": 5625,
      "##wazaki": 5626,
      "audition": 5627,
      "palmeir": 5628,
      "4684": 5629,
      "whitehall": 5630,
      "felix": 5631,
      "felipe": 5632,
      "versaille": 5633,
      "versailles": 5634,
      "princesa": 5635,
      "princeton": 5636,
      "wilds": 5637,
      "dreamer": 5638,
      "expo": 5639,
      "exposition": 5640,
      "jefferson": 5641,
      "jakarta": 5642,
      "ocelot": 5643,
      "ocelots": 5644,
      "slovenia": 5645,
      "slovakia": 5646,
      "scaffolds": 5647,
      "scaffolding": 5648,
      "byzantine": 5649,
      "bhutan": 5650,
      "erik": 5651,
      "fire": 5652,
      "kowloon": 5653,
      "morphin": 5654,
      "zagreb": 5655,
      "chandrayaan": 5656,
      "##enstad": 5657,
      "1772": 5658,
      ",...": 5659,
      "387": 5660,
      "429": 5661,
      "688": 5662,
      "773": 5663,
      "864": 5664,
      "agder": 5665,
      "ayatollah": 5666,
      "abc": 5667,
      "aituta": 5668,
      "arawak": 5669,
      "athens": 5670,
      "avenger": 5671,
      "aksu": 5672,
      "axít": 5673,
      "aegean": 5674,
      "borsel": 5675,
      "beso": 5676,
      "bright": 5677,
      "boston": 5678,
      "bardia": 5679,
      "birmingham": 5680,
      "bengal": 5681,
      "binnenstad": 5682,
      "cntt": 5683,
      "cinque": 5684,
      "cirque": 5685,
      "cliff": 5686,
      "cruelty": 5687,
      "cincinnati": 5688,
      "cctv": 5689,
      "dylan": 5690,
      "daily": 5691,
      "dervish": 5692,
      "dalhousie": 5693,
      "dromaeosau": 5694,
      "drive": 5695,
      "dravid": 5696,
      "dragoon": 5697,
      "dslr": 5698,
      "élevé": 5699,
      "erdoğ": 5700,
      "evangel": 5701,
      "erectus": 5702,
      "ehud": 5703,
      "erkoç": 5704,
      "ellis": 5705,
      "eighmey": 5706,
      "faa": 5707,
      "ftir": 5708,
      "fkp": 5709,
      "fonseca": 5710,
      "finish": 5711,
      "fisichel": 5712,
      "floyd": 5713,
      "film": 5714,
      "falls": 5715,
      "fatih": 5716,
      "gbp": 5717,
      "gangetic": 5718,
      "gonu": 5719,
      "gorilla": 5720,
      "golf": 5721,
      "global": 5722,
      "gripen": 5723,
      "gallon": 5724,
      "goldust": 5725,
      "gyöng": 5726,
      "gridley": 5727,
      "hjr": 5728,
      "hãm": 5729,
      "halifax": 5730,
      "hispaniola": 5731,
      "heliers": 5732,
      "hills": 5733,
      "hebrew": 5734,
      "hershey": 5735,
      "http": 5736,
      "hastings": 5737,
      "italo": 5738,
      "izmir": 5739,
      "iphone": 5740,
      "idaho": 5741,
      "irkutsk": 5742,
      "janissary": 5743,
      "jelinek": 5744,
      "jimén": 5745,
      "jagr": 5746,
      "jardín": 5747,
      "julia": 5748,
      "jordan": 5749,
      "judean": 5750,
      "kouns": 5751,
      "kahne": 5752,
      "knp": 5753,
      "kayak": 5754,
      "kerala": 5755,
      "korydallus": 5756,
      "keselow": 5757,
      "krezel": 5758,
      "kriegsm": 5759,
      "kruger": 5760,
      "kalousis": 5761,
      "kariwa": 5762,
      "kokoda": 5763,
      "kissinger": 5764,
      "kingsway": 5765,
      "kashiwazaki": 5766,
      "kandahar": 5767,
      "kwazulu": 5768,
      "lằn": 5769,
      "leslie": 5770,
      "lithuania": 5771,
      "lionsg": 5772,
      "livingstone": 5773,
      "mdt": 5774,
      "mbit": 5775,
      "mía": 5776,
      "maui": 5777,
      "merenid": 5778,
      "mister": 5779,
      "melamine": 5780,
      "mossack": 5781,
      "mersey": 5782,
      "mashhad": 5783,
      "minoa": 5784,
      "maldives": 5785,
      "nsw": 5786,
      "nmr": 5787,
      "nếp": 5788,
      "nấng": 5789,
      "nếm": 5790,
      "ninth": 5791,
      "nassar": 5792,
      "napole": 5793,
      "naked": 5794,
      "national": 5795,
      "nicklas": 5796,
      "oahu": 5797,
      "otter": 5798,
      "odyss": 5799,
      "oakland": 5800,
      "ohio": 5801,
      "oravec": 5802,
      "ounce": 5803,
      "office": 5804,
      "olaf": 5805,
      "oliver": 5806,
      "obanaza": 5807,
      "opec": 5808,
      "ogarzyns": 5809,
      "ptwc": 5810,
      "pythag": 5811,
      "purcell": 5812,
      "prevention": 5813,
      "pstn": 5814,
      "pedrillo": 5815,
      "pfannk": 5816,
      "qvc": 5817,
      "rwanda": 5818,
      "rệp": 5819,
      "ranch": 5820,
      "rustenburg": 5821,
      "rspca": 5822,
      "research": 5823,
      "scandina": 5824,
      "smith": 5825,
      "syria": 5826,
      "seork": 5827,
      "sesame": 5828,
      "satoru": 5829,
      "sasebo": 5830,
      "sveriges": 5831,
      "smyrna": 5832,
      "sintra": 5833,
      "science": 5834,
      "sydney": 5835,
      "tcn": 5836,
      "tmz": 5837,
      "tdễ": 5838,
      "tươi": 5839,
      "tallinn": 5840,
      "tendul": 5841,
      "tele": 5842,
      "ucla": 5843,
      "university": 5844,
      "ukraine": 5845,
      "ürüm": 5846,
      "uthappa": 5847,
      "urani": 5848,
      "uppsala": 5849,
      "usaf": 5850,
      "uighur": 5851,
      "unión": 5852,
      "vpn": 5853,
      "verde": 5854,
      "visa": 5855,
      "vasco": 5856,
      "vernaz": 5857,
      "veguilla": 5858,
      "wladysla": 5859,
      "weise": 5860,
      "waitemata": 5861,
      "wellington": 5862,
      "whirling": 5863,
      "wagon": 5864,
      "wikinews": 5865,
      "wonders": 5866,
      "xtô": 5867,
      "xiếc": 5868,
      "xtéc": 5869,
      "yahoo": 5870,
      "yểm": 5871,
      "yasovarman": 5872,
      "zoom": 5873,
      "zachary": 5874,
      "zhangjia": 5875,
      "zoungla": 5876,
      "ziggurat": 5877,
      "##surfing": 5878,
      "##ioglou": 5879,
      "##tonga": 5880,
      "##borhood": 5881,
      "##blica": 5882,
      "##wana": 5883,
      "##ngordel": 5884,
      "thuỷ": 5885,
      "therese": 5886,
      "thrace": 5887,
      "thrashers": 5888,
      "trinity": 5889,
      "tratado": 5890,
      "triantafy": 5891,
      "cherry": 5892,
      "chase": 5893,
      "nhíp": 5894,
      "khamenei": 5895,
      "ngorongor": 5896,
      "phễu": 5897,
      "phantom": 5898,
      "phondey": 5899,
      "cuerden": 5900,
      "cushing": 5901,
      "gillard": 5902,
      "house": 5903,
      "holborn": 5904,
      "horrocks": 5905,
      "hokuriku": 5906,
      "##anthropus": 5907,
      "dustin": 5908,
      "duxbury": 5909,
      "choudhary": 5910,
      "rarotonga": 5911,
      "chicken": 5912,
      "chişinău": 5913,
      "loesch": 5914,
      "muchanga": 5915,
      "mussolini": 5916,
      "muxloe": 5917,
      "müslüm": 5918,
      "downing": 5919,
      "domingo": 5920,
      "lufthansa": 5921,
      "toronto": 5922,
      "coaster": 5923,
      "cologne": 5924,
      "council": 5925,
      "coverciano": 5926,
      "couchsurfing": 5927,
      "copernicus": 5928,
      "cowparade": 5929,
      "constitution": 5930,
      "connaught": 5931,
      "lyndon": 5932,
      "soleil": 5933,
      "sophocles": 5934,
      "society": 5935,
      "somali": 5936,
      "namgyel": 5937,
      "vilnius": 5938,
      "backstrom": 5939,
      "babylon": 5940,
      "batten": 5941,
      "bafokeng": 5942,
      "rooms": 5943,
      "rotorua": 5944,
      "rodrigo": 5945,
      "giancarlo": 5946,
      "dilokrit": 5947,
      "diego": 5948,
      "bulgaria": 5949,
      "tayyip": 5950,
      "intrigue": 5951,
      "##akopoulos": 5952,
      "neighborhood": 5953,
      "antoinette": 5954,
      "anatolia": 5955,
      "##ridae": 5956,
      "lafasto": 5957,
      "xavier": 5958,
      "rumelia": 5959,
      "trafalgar": 5960,
      "aldwych": 5961,
      "alessandro": 5962,
      "joseon": 5963,
      "joaquim": 5964,
      "jochemsen": 5965,
      "cafenet": 5966,
      "taizicheng": 5967,
      "artibonite": 5968,
      "artemis": 5969,
      "aristophanes": 5970,
      "kechagioglou": 5971,
      "riomaggiore": 5972,
      "recep": 5973,
      "república": 5974,
      "revolution": 5975,
      "botswana": 5976,
      "booking": 5977,
      "boulevard": 5978,
      "sanskrit": 5979,
      "sanparks": 5980,
      "santiago": 5981,
      "savanna": 5982,
      "sahei": 5983,
      "sahelanthropus": 5984,
      "sharipov": 5985,
      "shannessy": 5986,
      "shimonoseki": 5987,
      "johannesburg": 5988,
      "marshal": 5989,
      "suplicy": 5990,
      "provisional": 5991,
      "deutsche": 5992,
      "astronet": 5993,
      "ghẹo": 5994,
      "ghraib": 5995,
      "methanol": 5996,
      "metrorail": 5997,
      "carpanedo": 5998,
      "campuchia": 5999,
      "sepulveda": 6000,
      "afcfta": 6001,
      "niigata": 6002,
      "nikolakopoulos": 6003,
      "nicholas": 6004,
      "bartolomé": 6005,
      "mohenjo": 6006,
      "mozambique": 6007,
      "tribune": 6008,
      "capuchino": 6009,
      "capuzzo": 6010,
      "flagstaff": 6011,
      "management": 6012,
      "mantouvalos": 6013,
      "pohutukawa": 6014,
      "augustus": 6015,
      "gaziantep": 6016,
      "airways": 6017,
      "berhane": 6018,
      "kennedy": 6019,
      "palawan": 6020,
      "galilei": 6021,
      "espresso": 6022,
      "liguria": 6023,
      "michele": 6024,
      "scopolamine": 6025,
      "giovanni": 6026,
      "monterosso": 6027,
      "brewery": 6028,
      "crocodile": 6029,
      "kristoffer": 6030,
      "lastucci": 6031,
      "mêlamin": 6032,
      "pattavee": 6033,
      "raymond": 6034,
      "chhatrapati": 6035,
      "dunkirk": 6036,
      "elizabethae": 6037,
      "corporation": 6038,
      "corniglia": 6039,
      "craigslist": 6040,
      "grachtengordel": 6041,
      "punjabi": 6042,
      "massachusetts": 6043,
      "brzezinski": 6044,
      "brisbane": 6045,
      "belgrade": 6046,
      "ephesians": 6047,
      "formosa": 6048,
      "kalaalleq": 6049,
      "mcmurdo": 6050,
      "oldsmobile": 6051,
      "velasquez": 6052,
      "transantarctic": 6053,
      "transnistria": 6054,
      "christopher": 6055,
      "christchurch": 6056,
      "palmeiras": 6057,
      "borsellino": 6058,
      "dervishes": 6059,
      "dromaeosauridae": 6060,
      "erdoğan": 6061,
      "evangelos": 6062,
      "fisichella": 6063,
      "gyöngyi": 6064,
      "jiménez": 6065,
      "keselowski": 6066,
      "kriegsmarine": 6067,
      "lionsgate": 6068,
      "napoleon": 6069,
      "odyssey": 6070,
      "obanazawa": 6071,
      "ogarzynska": 6072,
      "pythagoras": 6073,
      "pfannkuchen": 6074,
      "scandinavian": 6075,
      "tendulkar": 6076,
      "ürümqi": 6077,
      "vernazza": 6078,
      "wladyslaw": 6079,
      "zhangjiakou": 6080,
      "triantafylopoulos": 6081,
      "ngorongoro": 6082,
      "08": 6083,
      "65": 6084,
      "700": 6085,
      "99": 6086,
      "aps": 6087,
      "bát": 6088,
      "bích": 6089,
      "born": 6090,
      "bord": 6091,
      "cấy": 6092,
      "cad": 6093,
      "cẩm": 6094,
      "dỡ": 6095,
      "ey": 6096,
      "ew": 6097,
      "eth": 6098,
      "eti": 6099,
      "east": 6100,
      "ether": 6101,
      "ehr": 6102,
      "fer": 6103,
      "fat": 6104,
      "fron": 6105,
      "gay": 6106,
      "gro": 6107,
      "gard": 6108,
      "heo": 6109,
      "hái": 6110,
      "hảo": 6111,
      "hán": 6112,
      "hit": 6113,
      "hiếp": 6114,
      "hald": 6115,
      "io": 6116,
      "ju": 6117,
      "king": 6118,
      "klo": 6119,
      "lap": 6120,
      "lạch": 6121,
      "lad": 6122,
      "ms": 6123,
      "my": 6124,
      "mĩ": 6125,
      "ná": 6126,
      "nôn": 6127,
      "nặn": 6128,
      "os": 6129,
      "pay": 6130,
      "pam": 6131,
      "pli": 6132,
      "qat": 6133,
      "rh": 6134,
      "rr": 6135,
      "rặng": 6136,
      "slan": 6137,
      "tt": 6138,
      "tĩ": 6139,
      "ull": 6140,
      "vv": 6141,
      "vần": 6142,
      "vau": 6143,
      "vol": 6144,
      "vắt": 6145,
      "vish": 6146,
      "wall": 6147,
      "yar": 6148,
      "yos": 6149,
      "điêu": 6150,
      "đẫm": 6151,
      "##ot": 6152,
      "##oya": 6153,
      "##oks": 6154,
      "##pin": 6155,
      "##lred": 6156,
      "##cy": 6157,
      "##cau": 6158,
      "##cur": 6159,
      "##cines": 6160,
      "##sv": 6161,
      "##sun": 6162,
      "##ire": 6163,
      "##hl": 6164,
      "##hya": 6165,
      "##̀nh": 6166,
      "##mad": 6167,
      "##mou": 6168,
      "##tz": 6169,
      "##jor": 6170,
      "##nu": 6171,
      "##nold": 6172,
      "##gv": 6173,
      "##gel": 6174,
      "##gic": 6175,
      "##gus": 6176,
      "##ekhar": 6177,
      "##̣m": 6178,
      "##rd": 6179,
      "##rus": 6180,
      "##fiti": 6181,
      "##ympic": 6182,
      "##ygv": 6183,
      "##dam": 6184,
      "##bro": 6185,
      "##wald": 6186,
      "##wood": 6187,
      "##ki": 6188,
      "##21": 6189,
      "##zek": 6190,
      "##35": 6191,
      "##37": 6192,
      "##̈ck": 6193,
      "##ênh": 6194,
      "thiển": 6195,
      "thợ": 6196,
      "tráng": 6197,
      "trán": 6198,
      "trygv": 6199,
      "chắt": 6200,
      "cháu": 6201,
      "khốc": 6202,
      "ngẫm": 6203,
      "vàn": 6204,
      "phà": 6205,
      "phô": 6206,
      "phồn": 6207,
      "phốt": 6208,
      "cuộn": 6209,
      "##ệch": 6210,
      "giảng": 6211,
      "nhựa": 6212,
      "hò": 6213,
      "hoà": 6214,
      "hoan": 6215,
      "holo": 6216,
      "đười": 6217,
      "##aní": 6218,
      "##ík": 6219,
      "dund": 6220,
      "##aycur": 6221,
      "ớt": 6222,
      "chúc": 6223,
      "nắp": 6224,
      "##ones": 6225,
      "nghẽ": 6226,
      "nghênh": 6227,
      "ramp": 6228,
      "đói": 6229,
      "cừu": 6230,
      "##amó": 6231,
      "lock": 6232,
      "loire": 6233,
      "logic": 6234,
      "lord": 6235,
      "##erman": 6236,
      "##arsv": 6237,
      "##araní": 6238,
      "nhào": 6239,
      "muham": 6240,
      "##alog": 6241,
      "##alympic": 6242,
      "tùng": 6243,
      "tủy": 6244,
      "turk": 6245,
      "##ening": 6246,
      "##ento": 6247,
      "coch": 6248,
      "\"\"(": 6249,
      "lướt": 6250,
      "lượm": 6251,
      "cợt": 6252,
      "##ory": 6253,
      "ngoạc": 6254,
      "ngọn": 6255,
      "##elred": 6256,
      "soi": 6257,
      "solan": 6258,
      "virus": 6259,
      "##asson": 6260,
      "roca": 6261,
      "dill": 6262,
      "lứa": 6263,
      "butte": 6264,
      "ươi": 6265,
      "súc": 6266,
      "thoi": 6267,
      "mangola": 6268,
      "##legel": 6269,
      "##urb": 6270,
      "##ima": 6271,
      "nguệch": 6272,
      "##low": 6273,
      "##adesh": 6274,
      "##aka": 6275,
      "##akot": 6276,
      "đớn": 6277,
      "anne": 6278,
      "analog": 6279,
      "emir": 6280,
      "2021": 6281,
      "##rahl": 6282,
      "rung": 6283,
      "ruồng": 6284,
      "tracy": 6285,
      "cụm": 6286,
      "ngừ": 6287,
      "ngưng": 6288,
      "sợi": 6289,
      "##tha": 6290,
      "##thru": 6291,
      "algeria": 6292,
      "##ilton": 6293,
      "ướp": 6294,
      "võ": 6295,
      "cabo": 6296,
      "##oshi": 6297,
      "arya": 6298,
      "arnold": 6299,
      "1537": 6300,
      "2014": 6301,
      "##unci": 6302,
      "sans": 6303,
      "major": 6304,
      "shekhar": 6305,
      "nhú": 6306,
      "1835": 6307,
      "mede": 6308,
      "lãi": 6309,
      "huynh": 6310,
      "huỳnh": 6311,
      "paralympic": 6312,
      "##top": 6313,
      "##emite": 6314,
      "johndro": 6315,
      "great": 6316,
      "##sturo": 6317,
      "1973": 6318,
      "greene": 6319,
      "assun": 6320,
      "asunci": 6321,
      "##livan": 6322,
      "1993": 6323,
      "caro": 6324,
      "carro": 6325,
      "carbon": 6326,
      "caroly": 6327,
      "##berg": 6328,
      "guaycur": 6329,
      "guaraní": 6330,
      "guthru": 6331,
      "moham": 6332,
      "cairo": 6333,
      "schwar": 6334,
      "schlegel": 6335,
      "danela": 6336,
      "danub": 6337,
      "frank": 6338,
      "1964": 6339,
      "audi": 6340,
      "gaza": 6341,
      "amb": 6342,
      "amster": 6343,
      "1980": 6344,
      "130": 6345,
      "goeth": 6346,
      "giễu": 6347,
      "noor": 6348,
      "simon": 6349,
      "##egger": 6350,
      "adek": 6351,
      "adden": 6352,
      "cheers": 6353,
      "montan": 6354,
      "maslow": 6355,
      "indones": 6356,
      "franciszek": 6357,
      "hamilton": 6358,
      "granit": 6359,
      "karno": 6360,
      "lởm": 6361,
      "##space": 6362,
      "thơm": 6363,
      "chởm": 6364,
      "corona": 6365,
      "grafiti": 6366,
      "brooks": 6367,
      "glory": 6368,
      "hertz": 6369,
      "lee": 6370,
      "madhya": 6371,
      "pradesh": 6372,
      "paget": 6373,
      "wilson": 6374,
      "chaco": 6375,
      "vẹn": 6376,
      "veerman": 6377,
      "##aguá": 6378,
      "simpsons": 6379,
      "byron": 6380,
      "bhutha": 6381,
      "erie": 6382,
      "fichte": 6383,
      "kowal": 6384,
      "morakot": 6385,
      "zagros": 6386,
      "##zenegger": 6387,
      "chandra": 6388,
      "##enstrahl": 6389,
      "sullivan": 6390,
      "1776": 6391,
      "scotturb": 6392,
      "viking": 6393,
      "vikings": 6394,
      "##tiere": 6395,
      "991": 6396,
      "borneo": 6397,
      "bordento": 6398,
      "cadwald": 6399,
      "eysturo": 6400,
      "ewing": 6401,
      "ethelred": 6402,
      "etihad": 6403,
      "etherlred": 6404,
      "ehrenstrahl": 6405,
      "fergus": 6406,
      "fatima": 6407,
      "frontiere": 6408,
      "groening": 6409,
      "gardens": 6410,
      "hitoshi": 6411,
      "haldarsv": 6412,
      "judo": 6413,
      "klöck": 6414,
      "laptop": 6415,
      "ladoga": 6416,
      "myspace": 6417,
      "osaka": 6418,
      "payaguá": 6419,
      "pamela": 6420,
      "qatar": 6421,
      "rhine": 6422,
      "slania": 6423,
      "tĩu": 6424,
      "ullman": 6425,
      "vautier": 6426,
      "volga": 6427,
      "vishnu": 6428,
      "yarmou": 6429,
      "yosemite": 6430,
      "##pink": 6431,
      "##caust": 6432,
      "##brooke": 6433,
      "trygvasson": 6434,
      "holocaust": 6435,
      "dundee": 6436,
      "nghẽn": 6437,
      "rampro": 6438,
      "lockwood": 6439,
      "muhammad": 6440,
      "turkish": 6441,
      "cochamó": 6442,
      "solanki": 6443,
      "dillon": 6444,
      "emirates": 6445,
      "majorca": 6446,
      "medecines": 6447,
      "paralympics": 6448,
      "johndroe": 6449,
      "assunpink": 6450,
      "asunción": 6451,
      "carolyn": 6452,
      "guaycurú": 6453,
      "guthrum": 6454,
      "mohamed": 6455,
      "schwarzenegger": 6456,
      "danelaw": 6457,
      "danube": 6458,
      "amsterdam": 6459,
      "goethe": 6460,
      "adekoya": 6461,
      "addenbrooke": 6462,
      "montana": 6463,
      "indonesia": 6464,
      "hertzberg": 6465,
      "bordentown": 6466,
      "cadwalder": 6467,
      "eysturoy": 6468,
      "ferguson": 6469,
      "haldarsvík": 6470,
      "klöcker": 6471,
      "yarmouth": 6472
    }
  }
}