{
  "version": "1.0",
  "truncation": null,
  "padding": null,
  "added_tokens": [
    {
      "id": 0,
      "content": "<BLANK>",
      "single_word": false,
      "lstrip": false,
      "rstrip": false,
      "normalized": false,
      "special": true
    },
    {
      "id": 1,
      "content": "<S>",
      "single_word": false,
      "lstrip": false,
      "rstrip": false,
      "normalized": false,
      "special": true
    },
    {
      "id": 2,
      "content": "<UNK>",
      "single_word": false,
      "lstrip": false,
      "rstrip": false,
      "normalized": false,
      "special": true
    }
  ],
  "normalizer": {
    "type": "Sequence",
    "normalizers": [
      {
        "type": "NFD"
      },
      {
        "type": "Lowercase"
      }
    ]
  },
  "pre_tokenizer": {
    "type": "Sequence",
    "pretokenizers": [
      {
        "type": "Whitespace"
      },
      {
        "type": "Digits",
        "individual_digits": true
      }
    ]
  },
  "post_processor": null,
  "decoder": null,
  "model": {
    "type": "WordPiece",
    "unk_token": "[UNK]",
    "continuing_subword_prefix": "_",
    "max_input_chars_per_word": 100,
    "vocab": {
      "<BLANK>": 0,
      "<S>": 1,
      "<UNK>": 2,
      "!": 3,
      "\"": 4,
      "$": 5,
      "%": 6,
      "&": 7,
      "'": 8,
      "(": 9,
      ")": 10,
      "+": 11,
      ",": 12,
      "-": 13,
      ".": 14,
      "/": 15,
      "0": 16,
      "1": 17,
      "2": 18,
      "3": 19,
      "4": 20,
      "5": 21,
      "6": 22,
      "7": 23,
      "8": 24,
      "9": 25,
      ":": 26,
      ";": 27,
      "<": 28,
      ">": 29,
      "?": 30,
      "[": 31,
      "]": 32,
      "a": 33,
      "b": 34,
      "c": 35,
      "d": 36,
      "e": 37,
      "f": 38,
      "g": 39,
      "h": 40,
      "i": 41,
      "j": 42,
      "k": 43,
      "l": 44,
      "m": 45,
      "n": 46,
      "o": 47,
      "p": 48,
      "q": 49,
      "r": 50,
      "s": 51,
      "t": 52,
      "u": 53,
      "v": 54,
      "w": 55,
      "x": 56,
      "y": 57,
      "z": 58,
      "~": 59,
      "¥": 60,
      "°": 61,
      "²": 62,
      "½": 63,
      "¾": 64,
      "đ": 65,
      "̀": 66,
      "́": 67,
      "̂": 68,
      "̃": 69,
      "̆": 70,
      "̈": 71,
      "̉": 72,
      "̛": 73,
      "̣": 74,
      "̧": 75,
      "–": 76,
      "—": 77,
      "‘": 78,
      "’": 79,
      "“": 80,
      "”": 81,
      "_a": 82,
      "_̀": 83,
      "_n": 84,
      "_g": 85,
      "_o": 86,
      "_̆": 87,
      "_́": 88,
      "_c": 89,
      "_r": 90,
      "_t": 91,
      "_̉": 92,
      "_̂": 93,
      "_y": 94,
      "_̣": 95,
      "_p": 96,
      "_̛": 97,
      "_h": 98,
      "_d": 99,
      "_e": 100,
      "_s": 101,
      "_i": 102,
      "_m": 103,
      "_u": 104,
      "_̃": 105,
      "_j": 106,
      "_l": 107,
      "_f": 108,
      "_z": 109,
      "_v": 110,
      "_b": 111,
      "_w": 112,
      "_k": 113,
      "_q": 114,
      "_\"": 115,
      "_.": 116,
      "_x": 117,
      "_,": 118,
      "_)": 119,
      "_̈": 120,
      "_”": 121,
      "_̧": 122,
      "_;": 123,
      "_:": 124,
      "_“": 125,
      "_(": 126,
      "_/": 127,
      "_-": 128,
      "_ng": 129,
      "_ư": 130,
      "_ê": 131,
      "_ơ": 132,
      "_à": 133,
      "_̣̂": 134,
      "_ô": 135,
      "th": 136,
      "_â": 137,
      "_á": 138,
      "_ươ": 139,
      "tr": 140,
      "_iê": 141,
      "ch": 142,
      "_ạ": 143,
      "nh": 144,
      "_nh": 145,
      "kh": 146,
      "_ộ": 147,
      "_ó": 148,
      "_́t": 149,
      "ng": 150,
      "_̣c": 151,
      "và": 152,
      "_ă": 153,
      "_́c": 154,
      "ph": 155,
      "cu": 156,
      "_ác": 157,
      "_ả": 158,
      "_ệ": 159,
      "_̀ng": 160,
      "gi": 161,
      "_́n": 162,
      "_́i": 163,
      "qu": 164,
      "_iệ": 165,
      "_ông": 166,
      "_̉a": 167,
      "là": 168,
      "_̀n": 169,
      "như": 170,
      "_̀i": 171,
      "có": 172,
      "_ể": 173,
      "_ậ": 174,
      "của": 175,
      "ho": 176,
      "_̀u": 177,
      "_́ng": 178,
      "các": 179,
      "đươ": 180,
      "_̃ng": 181,
      "_ột": 182,
      "một": 183,
      "_ã": 184,
      "_an": 185,
      "_ị": 186,
      "_ì": 187,
      "_ất": 188,
      "_ong": 189,
      "_uy": 190,
      "được": 191,
      "_ên": 192,
      "_ại": 193,
      "_ới": 194,
      "trong": 195,
      "_ặ": 196,
      "những": 197,
      "_ười": 198,
      "_í": 199,
      "_ày": 200,
      "tư": 201,
      "đã": 202,
      "đê": 203,
      "người": 204,
      "_́p": 205,
      "_iể": 206,
      "du": 207,
      "sư": 208,
      "_iên": 209,
      "độ": 210,
      "_ay": 211,
      "_ế": 212,
      "ơ": 213,
      "cho": 214,
      "ở": 215,
      "thể": 216,
      "_ân": 217,
      "không": 218,
      "_ình": 219,
      "_ố": 220,
      "_ầu": 221,
      "_ần": 222,
      "_ổ": 223,
      "_̣ng": 224,
      "thư": 225,
      "_iện": 226,
      "_ạn": 227,
      "_ành": 228,
      "với": 229,
      "này": 230,
      "_iều": 231,
      "chu": 232,
      "nă": 233,
      "thu": 234,
      "tiê": 235,
      "_ang": 236,
      "khi": 237,
      "_ước": 238,
      "vào": 239,
      "hơ": 240,
      "_ải": 241,
      "bă": 242,
      "_ặc": 243,
      "khác": 244,
      "để": 245,
      "_on": 246,
      "_ai": 247,
      "ngh": 248,
      "_ết": 249,
      "_ường": 250,
      "_ận": 251,
      "_ài": 252,
      "phá": 253,
      "_ây": 254,
      "đến": 255,
      "_ao": 256,
      "_ữ": 257,
      "_ương": 258,
      "từ": 259,
      "_ống": 260,
      "_ốc": 261,
      "_inh": 262,
      "_au": 263,
      "_ề": 264,
      "_ật": 265,
      "bị": 266,
      "_ính": 267,
      "_ở": 268,
      "vu": 269,
      "ra": 270,
      "đô": 271,
      "sự": 272,
      "_ẽ": 273,
      "chi": 274,
      "đị": 275,
      "_ời": 276,
      "đó": 277,
      "_ấ": 278,
      "bạn": 279,
      "cư": 280,
      "_eo": 281,
      "về": 282,
      "năm": 283,
      "_am": 284,
      "lo": 285,
      "động": 286,
      "cả": 287,
      "_in": 288,
      "_àng": 289,
      "sẽ": 290,
      "_̃n": 291,
      "_iến": 292,
      "_iệc": 293,
      "số": 294,
      "trên": 295,
      "_ản": 296,
      "việc": 297,
      "_ộc": 298,
      "_ập": 299,
      "ky": 300,
      "_áo": 301,
      "_ỏ": 302,
      "_àn": 303,
      "nhiều": 304,
      "hơn": 305,
      "_̀m": 306,
      "nó": 307,
      "_er": 308,
      "công": 309,
      "đầu": 310,
      "_ar": 311,
      "_̉ng": 312,
      "đi": 313,
      "_iết": 314,
      "tuy": 315,
      "nhất": 316,
      "thành": 317,
      "_iểm": 318,
      "tại": 319,
      "gia": 320,
      "theo": 321,
      "_áng": 322,
      "_anh": 323,
      "hoặc": 324,
      "khu": 325,
      "_ền": 326,
      "nước": 327,
      "_ơi": 328,
      "nhà": 329,
      "_ức": 330,
      "_̣ch": 331,
      "_̣i": 332,
      "_ực": 333,
      "hiện": 334,
      "mu": 335,
      "quốc": 336,
      "tô": 337,
      "xe": 338,
      "thường": 339,
      "cũng": 340,
      "â": 341,
      "sau": 342,
      "_ịch": 343,
      "_ái": 344,
      "quan": 345,
      "do": 346,
      "lu": 347,
      "_ăn": 348,
      "tru": 349,
      "chỉ": 350,
      "ô": 351,
      "_al": 352,
      "thế": 353,
      "tu": 354,
      "họ": 355,
      "phải": 356,
      "_̀a": 357,
      "phu": 358,
      "_en": 359,
      "chính": 360,
      "kho": 361,
      "chúng": 362,
      "dụng": 363,
      "_ấp": 364,
      "lại": 365,
      "cách": 366,
      "chuy": 367,
      "_ĩ": 368,
      "học": 369,
      "_ặt": 370,
      "_̣p": 371,
      "to": 372,
      "_âu": 373,
      "ră": 374,
      "_iểu": 375,
      "xu": 376,
      "thông": 377,
      "_́ch": 378,
      "_ổi": 379,
      "trước": 380,
      "quy": 381,
      "lơ": 382,
      "co": 383,
      "_ọi": 384,
      "_ối": 385,
      "qua": 386,
      "phát": 387,
      "thời": 388,
      "_ạt": 389,
      "_ảng": 390,
      "rằng": 391,
      "con": 392,
      "_ôn": 393,
      "địa": 394,
      "nên": 395,
      "_́m": 396,
      "_ảo": 397,
      "_iển": 398,
      "hai": 399,
      "_ạng": 400,
      "nhưng": 401,
      "sử": 402,
      "vâ": 403,
      "_ạo": 404,
      "_ào": 405,
      "_ỗ": 406,
      "thực": 407,
      "ngày": 408,
      "\"\"": 409,
      "_ch": 410,
      "rất": 411,
      "_iệt": 412,
      "điều": 413,
      "_ánh": 414,
      "hàng": 415,
      "lươ": 416,
      "_ẩ": 417,
      "_át": 418,
      "làm": 419,
      "vì": 420,
      "_ội": 421,
      "mà": 422,
      "điểm": 423,
      "cơ": 424,
      "vật": 425,
      "đường": 426,
      "phí": 427,
      "hình": 428,
      "đại": 429,
      "định": 430,
      "viên": 431,
      "_ờ": 432,
      "bản": 433,
      "bằng": 434,
      "cuộc": 435,
      "_ếu": 436,
      "_̉nh": 437,
      "_ia": 438,
      "_óa": 439,
      "_or": 440,
      "thứ": 441,
      "hành": 442,
      "nơi": 443,
      "dư": 444,
      "_ẻ": 445,
      "_̣t": 446,
      "ngo": 447,
      "_ấy": 448,
      "_ưởng": 449,
      "vụ": 450,
      "trình": 451,
      "hợp": 452,
      "bộ": 453,
      "pháp": 454,
      "trường": 455,
      "tiếng": 456,
      "nhận": 457,
      "trung": 458,
      "_óng": 459,
      "hay": 460,
      "giới": 461,
      "_ấu": 462,
      "_iệu": 463,
      "lớn": 464,
      "kết": 465,
      "ta": 466,
      "đang": 467,
      "hóa": 468,
      "kỳ": 469,
      "lịch": 470,
      "bắt": 471,
      "_ích": 472,
      "dân": 473,
      "đo": 474,
      "_ữa": 475,
      "nói": 476,
      "biết": 477,
      "liên": 478,
      "_ưa": 479,
      "tro": 480,
      "nhân": 481,
      "ông": 482,
      "_áy": 483,
      "thức": 484,
      "nào": 485,
      "tiếp": 486,
      "_́u": 487,
      "trở": 488,
      "tự": 489,
      "tổ": 490,
      "_is": 491,
      "hô": 492,
      "văn": 493,
      "_el": 494,
      "nguy": 495,
      "_ởi": 496,
      "ly": 497,
      "mặt": 498,
      "chiến": 499,
      "tạo": 500,
      "_ắc": 501,
      "dù": 502,
      "khách": 503,
      "ảnh": 504,
      "vực": 505,
      "tháng": 506,
      "_uyền": 507,
      "đu": 508,
      "_ôi": 509,
      "báo": 510,
      "giải": 511,
      "phía": 512,
      "anh": 513,
      "cấp": 514,
      "_ốn": 515,
      "khoảng": 516,
      "đây": 517,
      "phần": 518,
      "_es": 519,
      "_ộng": 520,
      "so": 521,
      "_âm": 522,
      "lý": 523,
      "cần": 524,
      "nam": 525,
      "nếu": 526,
      "vi": 527,
      "ý": 528,
      "chiê": 529,
      "nhiên": 530,
      "ba": 531,
      "_ến": 532,
      "_ển": 533,
      "năng": 534,
      "còn": 535,
      "_et": 536,
      "vùng": 537,
      "gọi": 538,
      "mới": 539,
      "_at": 540,
      "nhau": 541,
      "đồng": 542,
      "đối": 543,
      "lượng": 544,
      "_as": 545,
      "cùng": 546,
      "bay": 547,
      "đất": 548,
      "_àu": 549,
      "ro": 550,
      "tin": 551,
      "_̣a": 552,
      "gian": 553,
      "_and": 554,
      "thă": 555,
      "_ạm": 556,
      "_ệnh": 557,
      "đề": 558,
      "cầu": 559,
      "lên": 560,
      "sinh": 561,
      "tế": 562,
      "di": 563,
      "lư": 564,
      "_ứng": 565,
      "chức": 566,
      "xuất": 567,
      "mặc": 568,
      "_án": 569,
      "_iệm": 570,
      "_ượt": 571,
      "bu": 572,
      "ư": 573,
      "đông": 574,
      "phi": 575,
      "_ìm": 576,
      "hệ": 577,
      "_ách": 578,
      ".\"": 579,
      "phương": 580,
      "đều": 581,
      "ban": 582,
      "bởi": 583,
      "gần": 584,
      "máy": 585,
      "tình": 586,
      "_ễ": 587,
      "_iễn": 588,
      "quân": 589,
      "thủ": 590,
      "nghĩ": 591,
      "vẫn": 592,
      "hội": 593,
      "tiên": 594,
      "phố": 595,
      "loài": 596,
      "tìm": 597,
      "hầu": 598,
      "nay": 599,
      "thống": 600,
      "toàn": 601,
      "sát": 602,
      "tàu": 603,
      "giáo": 604,
      "ngoài": 605,
      "lập": 606,
      "chuyển": 607,
      "tới": 608,
      "_ầm": 609,
      "gô": 610,
      "hết": 611,
      "tính": 612,
      "loại": 613,
      "vị": 614,
      "thị": 615,
      "bao": 616,
      "biệt": 617,
      "su": 618,
      "thấy": 619,
      "nhỏ": 620,
      "cảnh": 621,
      "hu": 622,
      "_ic": 623,
      "_ăng": 624,
      "hoạt": 625,
      "_ẩn": 626,
      "bệnh": 627,
      "đặc": 628,
      "_é": 629,
      "tho": 630,
      "_ạc": 631,
      "trọng": 632,
      "gồm": 633,
      "cao": 634,
      "tây": 635,
      "truyền": 636,
      "chất": 637,
      "giá": 638,
      "_ỗi": 639,
      "biến": 640,
      "mình": 641,
      "vận": 642,
      "_ro": 643,
      "_iệp": 644,
      "mùa": 645,
      "đội": 646,
      "minh": 647,
      "_ướng": 648,
      "_ảy": 649,
      "_ảm": 650,
      "lực": 651,
      "châu": 652,
      "_ạnh": 653,
      "_ãy": 654,
      "lần": 655,
      "giu": 656,
      "giữa": 657,
      "bắc": 658,
      "biển": 659,
      "tất": 660,
      "thiết": 661,
      "ă": 662,
      "mọi": 663,
      "nu": 664,
      "sống": 665,
      "tập": 666,
      "thương": 667,
      "giúp": 668,
      "ăn": 669,
      "mang": 670,
      "sáng": 671,
      "tác": 672,
      "_it": 673,
      "kỷ": 674,
      "_us": 675,
      "_le": 676,
      "giống": 677,
      "thuộc": 678,
      "tham": 679,
      "quyền": 680,
      "ty": 681,
      "trượt": 682,
      "khỏ": 683,
      "dươ": 684,
      "_è": 685,
      "_ẫn": 686,
      "_óm": 687,
      "nghĩa": 688,
      "điện": 689,
      "_òng": 690,
      "ngữ": 691,
      "diễn": 692,
      "ít": 693,
      "đảo": 694,
      "hoa": 695,
      "chủ": 696,
      "tuyết": 697,
      "chiếc": 698,
      "dịch": 699,
      "hãy": 700,
      "_ing": 701,
      ").": 702,
      "dài": 703,
      "_ol": 704,
      "thì": 705,
      "_ắt": 706,
      "giờ": 707,
      "kiện": 708,
      "_ép": 709,
      "_ur": 710,
      "chương": 711,
      "cử": 712,
      "vấn": 713,
      "giao": 714,
      "nguyên": 715,
      "bất": 716,
      "bên": 717,
      "bảo": 718,
      "đổi": 719,
      "_im": 720,
      "_ấn": 721,
      "ngu": 722,
      "tốt": 723,
      "cố": 724,
      "tay": 725,
      "_ợ": 726,
      "bình": 727,
      "cáo": 728,
      "in": 729,
      "_̣n": 730,
      "_êu": 731,
      "trí": 732,
      "_iêng": 733,
      "nhóm": 734,
      "cung": 735,
      "xác": 736,
      "đưa": 737,
      "_ám": 738,
      "ngôn": 739,
      "_ậy": 740,
      "cứu": 741,
      "gây": 742,
      "_ừng": 743,
      "bầu": 744,
      "quá": 745,
      "hưởng": 746,
      "_̀y": 747,
      "khoa": 748,
      "kinh": 749,
      "tương": 750,
      "tiêu": 751,
      "cộng": 752,
      "_ap": 753,
      "_ạch": 754,
      "hiểu": 755,
      "yêu": 756,
      "đặt": 757,
      "đánh": 758,
      "_̉i": 759,
      "_lo": 760,
      "thay": 761,
      "khả": 762,
      "khỏi": 763,
      "biểu": 764,
      "_́y": 765,
      "tranh": 766,
      "chứng": 767,
      "băng": 768,
      "ấn": 769,
      "dưới": 770,
      "_ad": 771,
      "_ak": 772,
      "triển": 773,
      "_iền": 774,
      "quả": 775,
      "tử": 776,
      "chuyến": 777,
      "ai": 778,
      "bã": 779,
      "bỏ": 780,
      "kế": 781,
      "đơ": 782,
      "luật": 783,
      "kiến": 784,
      "ne": 785,
      "phép": 786,
      "nghi": 787,
      "an": 788,
      "em": 789,
      "kể": 790,
      "kiểm": 791,
      "đức": 792,
      "_re": 793,
      "trẻ": 794,
      "_ạy": 795,
      "khó": 796,
      "khí": 797,
      "dùng": 798,
      "ấy": 799,
      "cổ": 800,
      "tên": 801,
      "_ri": 802,
      "_ồi": 803,
      "_ượng": 804,
      "núi": 805,
      "dễ": 806,
      "_ồn": 807,
      "chuẩn": 808,
      "_ắm": 809,
      "_ặm": 810,
      "tôi": 811,
      "âu": 812,
      "duy": 813,
      "mười": 814,
      "mỗi": 815,
      "nữ": 816,
      "sao": 817,
      "vậy": 818,
      "_ỹ": 819,
      "_ứ": 820,
      "bóng": 821,
      "tích": 822,
      "_ra": 823,
      "_ter": 824,
      "_hi": 825,
      "thích": 826,
      "trái": 827,
      "nghiệm": 828,
      "dự": 829,
      "căn": 830,
      "hướng": 831,
      "mức": 832,
      "mỹ": 833,
      "tâm": 834,
      "đấu": 835,
      "thần": 836,
      "_ắng": 837,
      "_ện": 838,
      "độc": 839,
      "xem": 840,
      "phủ": 841,
      "dành": 842,
      "hạn": 843,
      "kính": 844,
      "tinh": 845,
      "thân": 846,
      "trang": 847,
      "gì": 848,
      "sĩ": 849,
      "quanh": 850,
      "_ấm": 851,
      "bố": 852,
      "dẫn": 853,
      "dặm": 854,
      "rộng": 855,
      "st": 856,
      "giữ": 857,
      "phụ": 858,
      "đua": 859,
      "lưu": 860,
      "á": 861,
      "tốc": 862,
      "viện": 863,
      "đài": 864,
      "_ne": 865,
      "triệu": 866,
      "cuối": 867,
      "giảm": 868,
      "hòa": 869,
      "tiết": 870,
      "tiền": 871,
      "xuống": 872,
      "bang": 873,
      "la": 874,
      "mạng": 875,
      "sách": 876,
      "xa": 877,
      "_ạp": 878,
      "ngôi": 879,
      "phong": 880,
      "hoang": 881,
      "nghiên": 882,
      "hiểm": 883,
      "ru": 884,
      "đe": 885,
      "_om": 886,
      "tra": 887,
      "trận": 888,
      "chơi": 889,
      "ngay": 890,
      "_ắp": 891,
      "phổ": 892,
      "cụ": 893,
      "từng": 894,
      "tuyên": 895,
      "tối": 896,
      "_ẩm": 897,
      "lâu": 898,
      "riêng": 899,
      "sở": 900,
      "sản": 901,
      "vô": 902,
      "_ầy": 903,
      "ngư": 904,
      "cái": 905,
      "nền": 906,
      "sơ": 907,
      "viết": 908,
      "_th": 909,
      "_ìn": 910,
      "_iếm": 911,
      "nhật": 912,
      "nhiệt": 913,
      "phòng": 914,
      "danh": 915,
      "hiệu": 916,
      "tài": 917,
      "vệ": 918,
      "đáng": 919,
      "trị": 920,
      "trạng": 921,
      "nhiê": 922,
      "phân": 923,
      "hoàn": 924,
      "_ặp": 925,
      "tuổi": 926,
      "ứng": 927,
      "al": 928,
      "cây": 929,
      "tiểu": 930,
      "xây": 931,
      "yếu": 932,
      "trời": 933,
      "_iếu": 934,
      "chạy": 935,
      "nhanh": 936,
      "nhìn": 937,
      "chọn": 938,
      "nằm": 939,
      "thuật": 940,
      "cửa": 941,
      "hạng": 942,
      "_ck": 943,
      "_ta": 944,
      "_il": 945,
      "chế": 946,
      "_ắn": 947,
      "tiến": 948,
      "quyết": 949,
      "_éo": 950,
      "thoại": 951,
      "diện": 952,
      "km": 953,
      "nhập": 954,
      "quần": 955,
      "cứ": 956,
      "mục": 957,
      "ống": 958,
      "phục": 959,
      "hôm": 960,
      "ươ": 961,
      "_èo": 962,
      "mở": 963,
      "nội": 964,
      "sông": 965,
      "ti": 966,
      "đa": 967,
      "_̉y": 968,
      "vài": 969,
      "sức": 970,
      "nghiệp": 971,
      "đồ": 972,
      "muốn": 973,
      "dựng": 974,
      "tổng": 975,
      "thắng": 976,
      "câu": 977,
      "nổi": 978,
      "tố": 979,
      "vo": 980,
      "đá": 981,
      "trợ": 982,
      "lúc": 983,
      "_ist": 984,
      "dã": 985,
      "gắng": 986,
      "lời": 987,
      "liệu": 988,
      "môn": 989,
      "_eb": 990,
      "thái": 991,
      "trưởng": 992,
      "đêm": 993,
      "đôi": 994,
      "cực": 995,
      "âm": 996,
      "nguồn": 997,
      "lái": 998,
      "mã": 999,
      "mạnh": 1000,
      "nạn": 1001,
      "sân": 1002,
      "_ag": 1003,
      "_ốt": 1004,
      "thanh": 1005,
      "chung": 1006,
      "khủng": 1007,
      "ngựa": 1008,
      "hạt": 1009,
      "jo": 1010,
      "_ton": 1011,
      "_̃i": 1012,
      "_̃m": 1013,
      "trải": 1014,
      "chân": 1015,
      "chưa": 1016,
      "_uyên": 1017,
      "đền": 1018,
      "tuần": 1019,
      "đơn": 1020,
      "ca": 1021,
      "hy": 1022,
      "lễ": 1023,
      "tai": 1024,
      "xảy": 1025,
      "_land": 1026,
      "vua": 1027,
      "dòng": 1028,
      "luận": 1029,
      "trò": 1030,
      "dương": 1031,
      "gặp": 1032,
      "hiệp": 1033,
      "kéo": 1034,
      "đạt": 1035,
      "đạo": 1036,
      "_ran": 1037,
      "_ly": 1038,
      "_êm": 1039,
      "thêm": 1040,
      "_áu": 1041,
      "chỗ": 1042,
      "quay": 1043,
      "kỹ": 1044,
      "rõ": 1045,
      "new": 1046,
      "án": 1047,
      "ha": 1048,
      "tăng": 1049,
      "”.": 1050,
      "_os": 1051,
      "_id": 1052,
      "chị": 1053,
      "_uyết": 1054,
      "_ặng": 1055,
      "thúc": 1056,
      "ký": 1057,
      "tòa": 1058,
      "ar": 1059,
      "dạng": 1060,
      "ke": 1061,
      "mất": 1062,
      "tưởng": 1063,
      "vé": 1064,
      "đứng": 1065,
      "_te": 1066,
      "khá": 1067,
      "_ậm": 1068,
      "tục": 1069,
      "lợi": 1070,
      "đoạn": 1071,
      "hộ": 1072,
      "môi": 1073,
      "ri": 1074,
      "_co": 1075,
      "thổ": 1076,
      "_ệt": 1077,
      "hơi": 1078,
      "thăm": 1079,
      ".\"\"": 1080,
      "bốn": 1081,
      "kim": 1082,
      "lệ": 1083,
      "lan": 1084,
      "re": 1085,
      "tượng": 1086,
      "xin": 1087,
      "đình": 1088,
      "_ion": 1089,
      "thi": 1090,
      "trực": 1091,
      "nha": 1092,
      "khiến": 1093,
      "phạm": 1094,
      "_ứa": 1095,
      "nhiễm": 1096,
      "),": 1097,
      "bàn": 1098,
      "càng": 1099,
      "dấu": 1100,
      "miền": 1101,
      "só": 1102,
      "_iêm": 1103,
      "phản": 1104,
      "dụ": 1105,
      "đích": 1106,
      "hồ": 1107,
      "phim": 1108,
      "bão": 1109,
      "bo": 1110,
      "cá": 1111,
      "hải": 1112,
      "lạc": 1113,
      "rừng": 1114,
      "sạn": 1115,
      "sóng": 1116,
      "web": 1117,
      "xuyên": 1118,
      "_net": 1119,
      "_mp": 1120,
      "_un": 1121,
      "giả": 1122,
      "dục": 1123,
      "cảm": 1124,
      "_ard": 1125,
      "buộc": 1126,
      "inter": 1127,
      "internet": 1128,
      "ghi": 1129,
      "san": 1130,
      "sang": 1131,
      "tộc": 1132,
      "xư": 1133,
      "_tr": 1134,
      "_ff": 1135,
      "thấp": 1136,
      "thuyết": 1137,
      "chống": 1138,
      "phẩm": 1139,
      "quản": 1140,
      "hoàng": 1141,
      "nóng": 1142,
      "tuyến": 1143,
      "đoàn": 1144,
      "đủ": 1145,
      "chịu": 1146,
      "bánh": 1147,
      "cươ": 1148,
      "cắm": 1149,
      "dàng": 1150,
      "gư": 1151,
      "lông": 1152,
      "ma": 1153,
      "rơi": 1154,
      "sa": 1155,
      "sh": 1156,
      "xê": 1157,
      "_la": 1158,
      "trại": 1159,
      "trăng": 1160,
      "dung": 1161,
      "chú": 1162,
      "vũ": 1163,
      "đóng": 1164,
      "tôn": 1165,
      "tồn": 1166,
      "ước": 1167,
      "vọng": 1168,
      "biên": 1169,
      "să": 1170,
      "vòng": 1171,
      "đảm": 1172,
      "_ir": 1173,
      "nhu": 1174,
      "_ón": 1175,
      "ngân": 1176,
      "_ẳng": 1177,
      "chim": 1178,
      "cơn": 1179,
      "hồi": 1180,
      "buổi": 1181,
      "hãng": 1182,
      "sẵn": 1183,
      "cô": 1184,
      "cận": 1185,
      "me": 1186,
      "nữa": 1187,
      "tắc": 1188,
      "_gh": 1189,
      "hỏi": 1190,
      "thú": 1191,
      "mua": 1192,
      "phút": 1193,
      "ngoại": 1194,
      "soát": 1195,
      "bãi": 1196,
      "gửi": 1197,
      "xếp": 1198,
      "bài": 1199,
      "can": 1200,
      "gó": 1201,
      "kiếm": 1202,
      "lã": 1203,
      "úc": 1204,
      "thật": 1205,
      "thuyền": 1206,
      "_iêu": 1207,
      "nhạc": 1208,
      "phóng": 1209,
      "_ậu": 1210,
      "_ặn": 1211,
      "thử": 1212,
      "chụp": 1213,
      "nghệ": 1214,
      "hút": 1215,
      "_istan": 1216,
      "xử": 1217,
      "bảng": 1218,
      "cánh": 1219,
      "hạ": 1220,
      "huy": 1221,
      "long": 1222,
      "leo": 1223,
      "mối": 1224,
      "nặng": 1225,
      "par": 1226,
      "tạm": 1227,
      "uống": 1228,
      "xo": 1229,
      "xâm": 1230,
      "đời": 1231,
      "_̉n": 1232,
      "_ha": 1233,
      "thiên": 1234,
      "thao": 1235,
      "thờ": 1236,
      "chí": 1237,
      "nhiệm": 1238,
      "giấy": 1239,
      "tức": 1240,
      "xét": 1241,
      "chuyên": 1242,
      "tỷ": 1243,
      "joh": 1244,
      "áp": 1245,
      "bức": 1246,
      "hữ": 1247,
      "lộ": 1248,
      "mươ": 1249,
      "sắc": 1250,
      "tướng": 1251,
      "vượt": 1252,
      "_ồng": 1253,
      "chữ": 1254,
      "giác": 1255,
      "thụ": 1256,
      "nghiêm": 1257,
      "lựa": 1258,
      "hữu": 1259,
      "ả": 1260,
      "bổ": 1261,
      "bán": 1262,
      "he": 1263,
      "hè": 1264,
      "kiểu": 1265,
      "mar": 1266,
      "mưa": 1267,
      "mèo": 1268,
      "nổ": 1269,
      "vốn": 1270,
      "_to": 1271,
      "_em": 1272,
      "_ian": 1273,
      "_za": 1274,
      "ngươ": 1275,
      "ngành": 1276,
      "_ăm": 1277,
      "phê": 1278,
      "giai": 1279,
      "thuế": 1280,
      "nghị": 1281,
      "tuyệt": 1282,
      "dọc": 1283,
      "sup": 1284,
      "john": 1285,
      "bảy": 1286,
      "cạnh": 1287,
      "pro": 1288,
      "suy": 1289,
      "tiện": 1290,
      "vai": 1291,
      "_ca": 1292,
      "_̣u": 1293,
      "_áp": 1294,
      "khởi": 1295,
      "khắp": 1296,
      "phiếu": 1297,
      "chuyện": 1298,
      "_mpic": 1299,
      "cập": 1300,
      "gre": 1301,
      "hà": 1302,
      "hang": 1303,
      "ki": 1304,
      "nối": 1305,
      "oly": 1306,
      "tấn": 1307,
      "ủy": 1308,
      "ví": 1309,
      "đám": 1310,
      "đầy": 1311,
      "_ma": 1312,
      "thất": 1313,
      "_ẫ": 1314,
      "nhĩ": 1315,
      "giành": 1316,
      "hoạch": 1317,
      "_ers": 1318,
      "_aland": 1319,
      "dựa": 1320,
      "lãnh": 1321,
      "olympic": 1322,
      "bi": 1323,
      "binh": 1324,
      "bữa": 1325,
      "kích": 1326,
      "mộ": 1327,
      "tầm": 1328,
      "xã": 1329,
      "_do": 1330,
      "_bo": 1331,
      "_ỡ": 1332,
      "thập": 1333,
      "tháp": 1334,
      "trì": 1335,
      "chấp": 1336,
      "ngầm": 1337,
      "gió": 1338,
      "thuận": 1339,
      "xung": 1340,
      "mươi": 1341,
      "de": 1342,
      "lối": 1343,
      "mắc": 1344,
      "mắt": 1345,
      "ze": 1346,
      "_so": 1347,
      "_man": 1348,
      "_ue": 1349,
      "_lan": 1350,
      "tránh": 1351,
      "giản": 1352,
      "quán": 1353,
      "_ern": 1354,
      "lục": 1355,
      "trú": 1356,
      "phù": 1357,
      "lược": 1358,
      "vid": 1359,
      "chiếm": 1360,
      "ngủ": 1361,
      "áo": 1362,
      "sớm": 1363,
      "zealand": 1364,
      "bại": 1365,
      "cà": 1366,
      "gấp": 1367,
      "linh": 1368,
      "lấy": 1369,
      "nông": 1370,
      "rời": 1371,
      "ràng": 1372,
      "đột": 1373,
      "đàn": 1374,
      "_st": 1375,
      "trả": 1376,
      "triều": 1377,
      "chẳng": 1378,
      "nhị": 1379,
      "khuy": 1380,
      "khai": 1381,
      "ngại": 1382,
      "chia": 1383,
      "đọc": 1384,
      "đoán": 1385,
      "green": 1386,
      "as": 1387,
      "da": 1388,
      "dầu": 1389,
      "gh": 1390,
      "hỗ": 1391,
      "hậu": 1392,
      "lẽ": 1393,
      "mô": 1394,
      "met": 1395,
      "món": 1396,
      "sáu": 1397,
      "vư": 1398,
      "vong": 1399,
      "yên": 1400,
      "_og": 1401,
      "_cel": 1402,
      "_ph": 1403,
      "_li": 1404,
      "thiếu": 1405,
      "trao": 1406,
      "chóng": 1407,
      "chảy": 1408,
      "chứa": 1409,
      "quen": 1410,
      "_ãi": 1411,
      "chín": 1412,
      "_ina": 1413,
      "trụ": 1414,
      "\"\".": 1415,
      "thẳng": 1416,
      "ngược": 1417,
      "cân": 1418,
      "car": 1419,
      "dốc": 1420,
      "sai": 1421,
      "săn": 1422,
      "tái": 1423,
      "tạp": 1424,
      "xô": 1425,
      "đổ": 1426,
      "đăng": 1427,
      "_ti": 1428,
      "_ớ": 1429,
      "thiện": 1430,
      "trư": 1431,
      "nhớ": 1432,
      "ngàn": 1433,
      "_ãn": 1434,
      "thừa": 1435,
      "nghe": 1436,
      "khuôn": 1437,
      "hủy": 1438,
      "giám": 1439,
      "ánh": 1440,
      "sót": 1441,
      "bày": 1442,
      "bơi": 1443,
      "cam": 1444,
      "cầm": 1445,
      "hiếm": 1446,
      "mại": 1447,
      "mái": 1448,
      "rẻ": 1449,
      "se": 1450,
      "vẻ": 1451,
      "_pp": 1452,
      "_ẹ": 1453,
      "_son": 1454,
      "_if": 1455,
      "_ul": 1456,
      "_va": 1457,
      "_ve": 1458,
      "the": 1459,
      "trông": 1460,
      "chết": 1461,
      "nhă": 1462,
      "nhờ": 1463,
      "hỏa": 1464,
      "đế": 1465,
      "chủng": 1466,
      "địch": 1467,
      "tù": 1468,
      "coi": 1469,
      "_ẩy": 1470,
      "chiếu": 1471,
      "lửa": 1472,
      "thủy": 1473,
      "_ada": 1474,
      "nghỉ": 1475,
      "tỉnh": 1476,
      "_ẫu": 1477,
      "greenland": 1478,
      "nhằm": 1479,
      ".”": 1480,
      "af": 1481,
      "bào": 1482,
      "ích": 1483,
      "lạnh": 1484,
      "ni": 1485,
      "niệm": 1486,
      "sâu": 1487,
      "sợ": 1488,
      "tội": 1489,
      "_na": 1490,
      "_nes": 1491,
      "_ya": 1492,
      "_lin": 1493,
      "_ber": 1494,
      "_kh": 1495,
      "thiệt": 1496,
      "thẩm": 1497,
      "_ườn": 1498,
      "trạm": 1499,
      "trách": 1500,
      "trấn": 1501,
      "chiều": 1502,
      "khảo": 1503,
      "ngồi": 1504,
      "ngắn": 1505,
      "quê": 1506,
      "hòn": 1507,
      "bắn": 1508,
      "lòng": 1509,
      "_ine": 1510,
      "tùy": 1511,
      "_ore": 1512,
      "rút": 1513,
      ".\"\"\"": 1514,
      "thụy": 1515,
      "bác": 1516,
      "bar": 1517,
      "bờ": 1518,
      "cải": 1519,
      "cấu": 1520,
      "gu": 1521,
      "gốc": 1522,
      "hại": 1523,
      "har": 1524,
      "lây": 1525,
      "lệnh": 1526,
      "lạp": 1527,
      "mo": 1528,
      "mồi": 1529,
      "niên": 1530,
      "nor": 1531,
      "rập": 1532,
      "điển": 1533,
      "đẩy": 1534,
      "_ry": 1535,
      "_sa": 1536,
      "_ie": 1537,
      "_ld": 1538,
      "_ba": 1539,
      "_bur": 1540,
      "_ka": 1541,
      "thảo": 1542,
      "thậm": 1543,
      "trăm": 1544,
      "chặn": 1545,
      "nhẹ": 1546,
      "_ỏi": 1547,
      "đỉnh": 1548,
      "luôn": 1549,
      "lớp": 1550,
      "\"\",": 1551,
      "_ẩu": 1552,
      "hồng": 1553,
      "sung": 1554,
      "suốt": 1555,
      "thoải": 1556,
      "khỏe": 1557,
      "dưỡng": 1558,
      "_app": 1559,
      "_ney": 1560,
      "ảo": 1561,
      "video": 1562,
      "bề": 1563,
      "cai": 1564,
      "hương": 1565,
      "nã": 1566,
      "sing": 1567,
      "tám": 1568,
      "đới": 1569,
      "đốc": 1570,
      "đen": 1571,
      "đừng": 1572,
      "_oo": 1573,
      "_ce": 1574,
      "_ru": 1575,
      "_vid": 1576,
      "_..": 1577,
      "thạch": 1578,
      "truy": 1579,
      "chắc": 1580,
      "chạm": 1581,
      "chắn": 1582,
      "khiển": 1583,
      "thuốc": 1584,
      "_all": 1585,
      "đúng": 1586,
      "tín": 1587,
      "não": 1588,
      "bạc": 1589,
      "cắt": 1590,
      "hôn": 1591,
      "hát": 1592,
      "lá": 1593,
      "luy": 1594,
      "lâm": 1595,
      "mm": 1596,
      "mẫu": 1597,
      "pak": 1598,
      "sàng": 1599,
      "vời": 1600,
      "vĩ": 1601,
      "vỡ": 1602,
      "đắt": 1603,
      "”,": 1604,
      "_nn": 1605,
      "_op": 1606,
      "_ts": 1607,
      "_iv": 1608,
      "_ver": 1609,
      "_ban": 1610,
      "thẻ": 1611,
      "thượng": 1612,
      "_âng": 1613,
      "_ấc": 1614,
      "tri": 1615,
      "chối": 1616,
      "chấm": 1617,
      "nga": 1618,
      "phạt": 1619,
      "giày": 1620,
      "thùng": 1621,
      "_ail": 1622,
      "vuông": 1623,
      "loan": 1624,
      "trúc": 1625,
      "ổn": 1626,
      "màu": 1627,
      "_ori": 1628,
      "đòi": 1629,
      "nuôi": 1630,
      "cướp": 1631,
      "canada": 1632,
      "xoay": 1633,
      "khuyến": 1634,
      "north": 1635,
      "luyện": 1636,
      "pakistan": 1637,
      "blo": 1638,
      "bom": 1639,
      "iran": 1640,
      "kia": 1641,
      "kẻ": 1642,
      "lao": 1643,
      "lẫn": 1644,
      "miễn": 1645,
      "nỗ": 1646,
      "sch": 1647,
      "sánh": 1648,
      "tách": 1649,
      "vương": 1650,
      "_rg": 1651,
      "_ke": 1652,
      "_ợi": 1653,
      "thí": 1654,
      "char": 1655,
      "chờ": 1656,
      "nhắc": 1657,
      "phức": 1658,
      "giàu": 1659,
      "quận": 1660,
      "quảng": 1661,
      "_anistan": 1662,
      "_ona": 1663,
      "_ĩnh": 1664,
      "_orn": 1665,
      "đẹp": 1666,
      "_tron": 1667,
      "_ghanistan": 1668,
      "afghanistan": 1669,
      "buy": 1670,
      "bal": 1671,
      "bạo": 1672,
      "côn": 1673,
      "cas": 1674,
      "cap": 1675,
      "dan": 1676,
      "fl": 1677,
      "fran": 1678,
      "hạm": 1679,
      "is": 1680,
      "kịch": 1681,
      "lô": 1682,
      "lai": 1683,
      "lỗ": 1684,
      "man": 1685,
      "mol": 1686,
      "máu": 1687,
      "nư": 1688,
      "nai": 1689,
      "po": 1690,
      "rươ": 1691,
      "viễn": 1692,
      "đảng": 1693,
      "_rand": 1694,
      "_tor": 1695,
      "_zan": 1696,
      "_bi": 1697,
      "_wa": 1698,
      "_que": 1699,
      "thải": 1700,
      "thách": 1701,
      "khối": 1702,
      "khẩu": 1703,
      "giấc": 1704,
      "hoảng": 1705,
      "sừng": 1706,
      "đồi": 1707,
      "lò": 1708,
      "_ỏng": 1709,
      "ẩ": 1710,
      "dò": 1711,
      "dọa": 1712,
      "trùng": 1713,
      "_enia": 1714,
      "cỡ": 1715,
      "_ort": 1716,
      "_ord": 1717,
      "_orld": 1718,
      "dứt": 1719,
      "nguyện": 1720,
      "_ash": 1721,
      "ste": 1722,
      "star": 1723,
      "đèn": 1724,
      "_tral": 1725,
      "mét": 1726,
      "xoáy": 1727,
      "super": 1728,
      "bỉ": 1729,
      "metro": 1730,
      "vừa": 1731,
      "buýt": 1732,
      "rượu": 1733,
      "...": 1734,
      "au": 1735,
      "bà": 1736,
      "bước": 1737,
      "bầy": 1738,
      "cấm": 1739,
      "ga": 1740,
      "hư": 1741,
      "lạ": 1742,
      "liền": 1743,
      "mơ": 1744,
      "mong": 1745,
      "mạch": 1746,
      "rồi": 1747,
      "tệ": 1748,
      "tịch": 1749,
      "xi": 1750,
      "đào": 1751,
      "_nd": 1752,
      "_̃a": 1753,
      "_les": 1754,
      "_ks": 1755,
      "_xi": 1756,
      "thô": 1757,
      "thả": 1758,
      "trộ": 1759,
      "khăn": 1760,
      "khám": 1761,
      "ngăn": 1762,
      "ngắm": 1763,
      "pha": 1764,
      "pho": 1765,
      "sửa": 1766,
      "phán": 1767,
      "loạn": 1768,
      "tuyển": 1769,
      "khuẩn": 1770,
      "lưới": 1771,
      "dừng": 1772,
      "air": 1773,
      "kèm": 1774,
      "trưng": 1775,
      "blog": 1776,
      "am": 1777,
      "ber": 1778,
      "bối": 1779,
      "bra": 1780,
      "bla": 1781,
      "cal": 1782,
      "cát": 1783,
      "ele": 1784,
      "fe": 1785,
      "grand": 1786,
      "hiến": 1787,
      "hiển": 1788,
      "jam": 1789,
      "kông": 1790,
      "ken": 1791,
      "lí": 1792,
      "lốc": 1793,
      "lat": 1794,
      "lỗi": 1795,
      "lak": 1796,
      "lĩnh": 1797,
      "màn": 1798,
      "nấu": 1799,
      "pal": 1800,
      "rãi": 1801,
      "sổ": 1802,
      "sẻ": 1803,
      "siêu": 1804,
      "te": 1805,
      "tim": 1806,
      "tấm": 1807,
      "ủng": 1808,
      "va": 1809,
      "ven": 1810,
      "vườn": 1811,
      "world": 1812,
      "xạ": 1813,
      "đứa": 1814,
      "_ow": 1815,
      "_pe": 1816,
      "_da": 1817,
      "_ey": 1818,
      "_ez": 1819,
      "_sy": 1820,
      "_sh": 1821,
      "_ss": 1822,
      "_uch": 1823,
      "_jan": 1824,
      "_zil": 1825,
      "_by": 1826,
      "_bu": 1827,
      "thác": 1828,
      "thiểu": 1829,
      "thánh": 1830,
      "thám": 1831,
      "trữ": 1832,
      "trầm": 1833,
      "_iềm": 1834,
      "chó": 1835,
      "cháy": 1836,
      "chậm": 1837,
      "chồng": 1838,
      "khổ": 1839,
      "khóa": 1840,
      "cuốn": 1841,
      "giây": 1842,
      "thua": 1843,
      "thung": 1844,
      "khích": 1845,
      "vui": 1846,
      "cứng": 1847,
      "_ary": 1848,
      "khúc": 1849,
      "dõi": 1850,
      "lũng": 1851,
      "_alo": 1852,
      "túi": 1853,
      "họp": 1854,
      "khoản": 1855,
      "tour": 1856,
      "haiti": 1857,
      "lượt": 1858,
      "_ish": 1859,
      "đuổi": 1860,
      "_est": 1861,
      "_atal": 1862,
      "_ation": 1863,
      "rò": 1864,
      "ưu": 1865,
      "súng": 1866,
      "hùng": 1867,
      "thỏa": 1868,
      "thoát": 1869,
      "_ite": 1870,
      "_ley": 1871,
      "nghìn": 1872,
      "runn": 1873,
      "nhiếp": 1874,
      "all": 1875,
      "arm": 1876,
      "_und": 1877,
      "cưỡi": 1878,
      "kín": 1879,
      "northern": 1880,
      "dani": 1881,
      "ẩm": 1882,
      "brazil": 1883,
      "black": 1884,
      "elec": 1885,
      "bư": 1886,
      "ed": 1887,
      "go": 1888,
      "giê": 1889,
      "geo": 1890,
      "giết": 1891,
      "gal": 1892,
      "kê": 1893,
      "may": 1894,
      "mật": 1895,
      "no": 1896,
      "pet": 1897,
      "rối": 1898,
      "sim": 1899,
      "tạng": 1900,
      "tờ": 1901,
      "đau": 1902,
      "đỏ": 1903,
      "_ou": 1904,
      "_ps": 1905,
      "_hu": 1906,
      "_di": 1907,
      "_dro": 1908,
      "_eg": 1909,
      "_eng": 1910,
      "thận": 1911,
      "thưởng": 1912,
      "chứ": 1913,
      "vàng": 1914,
      "hoá": 1915,
      "thuê": 1916,
      "chile": 1917,
      "cựu": 1918,
      "khung": 1919,
      "mùi": 1920,
      "doanh": 1921,
      "trùm": 1922,
      "chỉnh": 1923,
      "họa": 1924,
      "tọa": 1925,
      "quý": 1926,
      "_eth": 1927,
      "rom": 1928,
      "thịt": 1929,
      "suất": 1930,
      "huống": 1931,
      "huấn": 1932,
      "_apore": 1933,
      "đỡ": 1934,
      "nhịp": 1935,
      "_oga": 1936,
      "singapore": 1937,
      "franc": 1938,
      "bưu": 1939,
      "at": 1940,
      "ad": 1941,
      "ang": 1942,
      "aus": 1943,
      "bì": 1944,
      "biện": 1945,
      "catal": 1946,
      "dày": 1947,
      "dữ": 1948,
      "dáng": 1949,
      "dis": 1950,
      "del": 1951,
      "dạy": 1952,
      "ec": 1953,
      "es": 1954,
      "gom": 1955,
      "gợi": 1956,
      "ira": 1957,
      "icel": 1958,
      "li": 1959,
      "lắp": 1960,
      "mi": 1961,
      "mao": 1962,
      "móng": 1963,
      "mạc": 1964,
      "nỗi": 1965,
      "niềm": 1966,
      "of": 1967,
      "pl": 1968,
      "si": 1969,
      "sk": 1970,
      "sco": 1971,
      "tơ": 1972,
      "tả": 1973,
      "tan": 1974,
      "tải": 1975,
      "tam": 1976,
      "tiệc": 1977,
      "tàn": 1978,
      "tắt": 1979,
      "van": 1980,
      "vết": 1981,
      "xấu": 1982,
      "yoga": 1983,
      "đệ": 1984,
      "đai": 1985,
      "đáo": 1986,
      "_ab": 1987,
      "_ria": 1988,
      "_tion": 1989,
      "_yal": 1990,
      "_port": 1991,
      "_uad": 1992,
      "_̃y": 1993,
      "_qu": 1994,
      "_xas": 1995,
      "tràn": 1996,
      "trốn": 1997,
      "_iếp": 1998,
      "che": 1999,
      "chinh": 2000,
      "nhẫn": 2001,
      "khẩn": 2002,
      "khứ": 2003,
      "phiên": 2004,
      "phật": 2005,
      "_ảnh": 2006,
      "gio": 2007,
      "giãn": 2008,
      "giỏi": 2009,
      "làng": 2010,
      "hỏng": 2011,
      "chút": 2012,
      "thù": 2013,
      "nghiêng": 2014,
      "_ềm": 2015,
      "cự": 2016,
      "cảng": 2017,
      "_ino": 2018,
      "_ini": 2019,
      "_ari": 2020,
      "_arban": 2021,
      "muỗi": 2022,
      "ấm": 2023,
      "lũ": 2024,
      "toán": 2025,
      "rắn": 2026,
      "xúc": 2027,
      "vẫy": 2028,
      "lưỡi": 2029,
      "ngọt": 2030,
      "tổn": 2031,
      "_ata": 2032,
      "_ati": 2033,
      "rock": 2034,
      "vịnh": 2035,
      "sund": 2036,
      "hung": 2037,
      "_ican": 2038,
      "_ity": 2039,
      "_ust": 2040,
      "_ington": 2041,
      "_ola": 2042,
      "_rich": 2043,
      "_rag": 2044,
      "hydro": 2045,
      "kém": 2046,
      "rỉ": 2047,
      "góc": 2048,
      "paris": 2049,
      "_dova": 2050,
      "_bour": 2051,
      "_mania": 2052,
      "\"\".\"": 2053,
      "_iforn": 2054,
      "moldova": 2055,
      "nửa": 2056,
      "californ": 2057,
      "texas": 2058,
      "running": 2059,
      "armenia": 2060,
      "atlan": 2061,
      "austral": 2062,
      "disney": 2063,
      "ecuad": 2064,
      "iraq": 2065,
      "iceland": 2066,
      "sikh": 2067,
      "_arbans": 2068,
      "sundarbans": 2069,
      "california": 2070,
      "bật": 2071,
      "bé": 2072,
      "cẩn": 2073,
      "dao": 2074,
      "dãy": 2075,
      "hàn": 2076,
      "kiệm": 2077,
      "liệt": 2078,
      "mon": 2079,
      "mực": 2080,
      "mas": 2081,
      "nộ": 2082,
      "nề": 2083,
      "song": 2084,
      "tân": 2085,
      "tán": 2086,
      "đâm": 2087,
      "đạp": 2088,
      "_tt": 2089,
      "_tan": 2090,
      "_tte": 2091,
      "_ét": 2092,
      "_van": 2093,
      "_wn": 2094,
      "_\"\"": 2095,
      "thang": 2096,
      "chặt": 2097,
      "chèo": 2098,
      "ngang": 2099,
      "giam": 2100,
      "quang": 2101,
      "hoãn": 2102,
      "nắm": 2103,
      "loạt": 2104,
      "_ines": 2105,
      "phun": 2106,
      "lưng": 2107,
      "ind": 2108,
      "khía": 2109,
      "góp": 2110,
      "proton": 2111,
      "mòn": 2112,
      "_burg": 2113,
      "charles": 2114,
      "francis": 2115,
      "ac": 2116,
      "ale": 2117,
      "ama": 2118,
      "app": 2119,
      "bí": 2120,
      "bè": 2121,
      "bre": 2122,
      "bha": 2123,
      "cỏ": 2124,
      "cro": 2125,
      "cồn": 2126,
      "cắp": 2127,
      "dải": 2128,
      "dàn": 2129,
      "dâng": 2130,
      "et": 2131,
      "eli": 2132,
      "fal": 2133,
      "gái": 2134,
      "gôn": 2135,
      "gỗ": 2136,
      "gấu": 2137,
      "gầm": 2138,
      "gur": 2139,
      "giêng": 2140,
      "gắn": 2141,
      "ham": 2142,
      "hấp": 2143,
      "hẻ": 2144,
      "il": 2145,
      "ja": 2146,
      "jer": 2147,
      "kr": 2148,
      "kiên": 2149,
      "kêu": 2150,
      "lữ": 2151,
      "lương": 2152,
      "lam": 2153,
      "láng": 2154,
      "las": 2155,
      "lấn": 2156,
      "mê": 2157,
      "mây": 2158,
      "mẽ": 2159,
      "mừng": 2160,
      "mori": 2161,
      "mềm": 2162,
      "na": 2163,
      "ninh": 2164,
      "nồng": 2165,
      "nâng": 2166,
      "per": 2167,
      "pat": 2168,
      "pit": 2169,
      "ray": 2170,
      "rào": 2171,
      "sốc": 2172,
      "sar": 2173,
      "sắt": 2174,
      "sạch": 2175,
      "sắm": 2176,
      "sắp": 2177,
      "tần": 2178,
      "ton": 2179,
      "tường": 2180,
      "uy": 2181,
      "vỏ": 2182,
      "vắc": 2183,
      "ván": 2184,
      "vợ": 2185,
      "wh": 2186,
      "wash": 2187,
      "xanh": 2188,
      "xóa": 2189,
      "đư": 2190,
      "_ni": 2191,
      "_gar": 2192,
      "_oc": 2193,
      "_ok": 2194,
      "_tu": 2195,
      "_tic": 2196,
      "_yi": 2197,
      "_yan": 2198,
      "_pl": 2199,
      "_ham": 2200,
      "_hne": 2201,
      "_ek": 2202,
      "_ean": 2203,
      "_my": 2204,
      "_min": 2205,
      "_uis": 2206,
      "_zon": 2207,
      "_ven": 2208,
      "_beth": 2209,
      "_wai": 2210,
      "_ward": 2211,
      "_xit": 2212,
      "_xem": 2213,
      "_ngrich": 2214,
      "_ơn": 2215,
      "thảm": 2216,
      "_ầng": 2217,
      "trào": 2218,
      "trơn": 2219,
      "chh": 2220,
      "chăn": 2221,
      "chấn": 2222,
      "nhấn": 2223,
      "nhượng": 2224,
      "khô": 2225,
      "khơi": 2226,
      "khấu": 2227,
      "khắc": 2228,
      "khán": 2229,
      "khuyên": 2230,
      "_óc": 2231,
      "_ói": 2232,
      "ngừng": 2233,
      "phe": 2234,
      "phạn": 2235,
      "phỏng": 2236,
      "cúm": 2237,
      "gìn": 2238,
      "giường": 2239,
      "gingrich": 2240,
      "đương": 2241,
      "dun": 2242,
      "_one": 2243,
      "_onso": 2244,
      "_ain": 2245,
      "pháo": 2246,
      "vuốt": 2247,
      "_ami": 2248,
      "lọc": 2249,
      "lỏng": 2250,
      "louis": 2251,
      "cản": 2252,
      "_int": 2253,
      "kỵ": 2254,
      "đĩa": 2255,
      "khuất": 2256,
      "mù": 2257,
      "luân": 2258,
      "luna": 2259,
      "luxem": 2260,
      "_ala": 2261,
      "_ald": 2262,
      "tuệ": 2263,
      "_endo": 2264,
      "quyển": 2265,
      "_ias": 2266,
      "ngoái": 2267,
      "_iss": 2268,
      "_ela": 2269,
      "_elly": 2270,
      "sòng": 2271,
      "virg": 2272,
      "ross": 2273,
      "bùng": 2274,
      "buff": 2275,
      "bush": 2276,
      "_ick": 2277,
      "inch": 2278,
      "_aki": 2279,
      "đợi": 2280,
      "email": 2281,
      "_rig": 2282,
      "_rael": 2283,
      "stan": 2284,
      "_ned": 2285,
      "đem": 2286,
      "alonso": 2287,
      "ương": 2288,
      "hawai": 2289,
      "_tein": 2290,
      "reid": 2291,
      "sóc": 2292,
      "sói": 2293,
      "saf": 2294,
      "mẹ": 2295,
      "gót": 2296,
      "protein": 2297,
      "_soc": 2298,
      "trừ": 2299,
      "_bert": 2300,
      "_appan": 2301,
      "cape": 2302,
      "israel": 2303,
      "lồ": 2304,
      "metropl": 2305,
      "trộm": 2306,
      "photon": 2307,
      "berlin": 2308,
      "feet": 2309,
      "james": 2310,
      "kenya": 2311,
      "latinh": 2312,
      "khổng": 2313,
      "tours": 2314,
      "electron": 2315,
      "giềng": 2316,
      "catalan": 2317,
      "goma": 2318,
      "maori": 2319,
      "giọng": 2320,
      "_bourg": 2321,
      "atlanta": 2322,
      "ecuador": 2323,
      "francisco": 2324,
      "amazon": 2325,
      "apple": 2326,
      "bhajan": 2327,
      "eliza": 2328,
      "moriori": 2329,
      "washington": 2330,
      "luxembourg": 2331,
      "virgin": 2332,
      "buffalo": 2333,
      "hawaii": 2334,
      "metroplus": 2335,
      ",\"\"": 2336,
      "bơ": 2337,
      "bể": 2338,
      "cối": 2339,
      "dị": 2340,
      "dar": 2341,
      "dối": 2342,
      "dậy": 2343,
      "eb": 2344,
      "gran": 2345,
      "hãi": 2346,
      "kan": 2347,
      "kar": 2348,
      "lang": 2349,
      "lính": 2350,
      "lở": 2351,
      "lạm": 2352,
      "sườn": 2353,
      "tỏ": 2354,
      "us": 2355,
      "ung": 2356,
      "đâu": 2357,
      "_ger": 2358,
      "_ci": 2359,
      "_rk": 2360,
      "_ed": 2361,
      "_sp": 2362,
      "_bon": 2363,
      "_ợt": 2364,
      "thơ": 2365,
      "thở": 2366,
      "trắng": 2367,
      "chở": 2368,
      "chôn": 2369,
      "chẩn": 2370,
      "khái": 2371,
      "_ộn": 2372,
      "giza": 2373,
      "chục": 2374,
      "chuỗi": 2375,
      "tồi": 2376,
      "tụ": 2377,
      "cor": 2378,
      "taxi": 2379,
      "soạn": 2380,
      "thịnh": 2381,
      "_ings": 2382,
      "_old": 2383,
      "kẹt": 2384,
      "hộp": 2385,
      "hẹp": 2386,
      "khuynh": 2387,
      "david": 2388,
      "_burgh": 2389,
      "_ood": 2390,
      "_rge": 2391,
      "george": 2392,
      "nộp": 2393,
      ",”": 2394,
      "</": 2395,
      "az": 2396,
      "aol": 2397,
      "ari": 2398,
      "axit": 2399,
      "bh": 2400,
      "be": 2401,
      "bl": 2402,
      "bê": 2403,
      "bậ": 2404,
      "bền": 2405,
      "bia": 2406,
      "bish": 2407,
      "cr": 2408,
      "cl": 2409,
      "cong": 2410,
      "cỗ": 2411,
      "cặp": 2412,
      "cốt": 2413,
      "cậu": 2414,
      "civ": 2415,
      "dại": 2416,
      "dần": 2417,
      "dâm": 2418,
      "dồi": 2419,
      "ép": 2420,
      "fai": 2421,
      "fel": 2422,
      "fern": 2423,
      "fbi": 2424,
      "gà": 2425,
      "gập": 2426,
      "gậy": 2427,
      "gặm": 2428,
      "gra": 2429,
      "gỡ": 2430,
      "gps": 2431,
      "hi": 2432,
      "hươ": 2433,
      "han": 2434,
      "hố": 2435,
      "hài": 2436,
      "hề": 2437,
      "hối": 2438,
      "huyền": 2439,
      "ii": 2440,
      "jr": 2441,
      "kì": 2442,
      "kiệt": 2443,
      "kat": 2444,
      "kép": 2445,
      "kir": 2446,
      "kund": 2447,
      "liều": 2448,
      "len": 2449,
      "lấp": 2450,
      "lội": 2451,
      "lầy": 2452,
      "mời": 2453,
      "mỏ": 2454,
      "mào": 2455,
      "mát": 2456,
      "mầm": 2457,
      "mri": 2458,
      "mil": 2459,
      "miêu": 2460,
      "mỏng": 2461,
      "non": 2462,
      "nàng": 2463,
      "nàn": 2464,
      "one": 2465,
      "pu": 2466,
      "pao": 2467,
      "pic": 2468,
      "pri": 2469,
      "pun": 2470,
      "rác": 2471,
      "rổ": 2472,
      "rốc": 2473,
      "rẽ": 2474,
      "sl": 2475,
      "say": 2476,
      "sập": 2477,
      "ser": 2478,
      "sốt": 2479,
      "sỏi": 2480,
      "tv": 2481,
      "tá": 2482,
      "tang": 2483,
      "tống": 2484,
      "tàng": 2485,
      "táo": 2486,
      "tảng": 2487,
      "tảo": 2488,
      "tầng": 2489,
      "ut": 2490,
      "uta": 2491,
      "unes": 2492,
      "vinh": 2493,
      "vở": 2494,
      "việt": 2495,
      "vat": 2496,
      "vách": 2497,
      "vers": 2498,
      "wal": 2499,
      "wif": 2500,
      "west": 2501,
      "xơ": 2502,
      "xưa": 2503,
      "xôi": 2504,
      "xám": 2505,
      "đà": 2506,
      "đam": 2507,
      "đáy": 2508,
      "đầm": 2509,
      "điền": 2510,
      "đậm": 2511,
      "”)": 2512,
      "_ns": 2513,
      "_gen": 2514,
      "_gyal": 2515,
      "_ov": 2516,
      "_ray": 2517,
      "_ty": 2518,
      "_telly": 2519,
      "_yd": 2520,
      "_ych": 2521,
      "_pr": 2522,
      "_per": 2523,
      "_pol": 2524,
      "_he": 2525,
      "_dp": 2526,
      "_dd": 2527,
      "_sl": 2528,
      "_sk": 2529,
      "_ig": 2530,
      "_ib": 2531,
      "_igh": 2532,
      "_mo": 2533,
      "_mon": 2534,
      "_mer": 2535,
      "_ua": 2536,
      "_uma": 2537,
      "_uver": 2538,
      "_uela": 2539,
      "_ja": 2540,
      "_ju": 2541,
      "_ll": 2542,
      "_ler": 2543,
      "_ling": 2544,
      "_lap": 2545,
      "_ft": 2546,
      "_zona": 2547,
      "_vard": 2548,
      "_bs": 2549,
      "_bai": 2550,
      "_we": 2551,
      "_ws": 2552,
      "_kland": 2553,
      "_kha": 2554,
      "_xy": 2555,
      "thai": 2556,
      "thấu": 2557,
      "thiệp": 2558,
      "thói": 2559,
      "_ẫm": 2560,
      "trà": 2561,
      "trích": 2562,
      "chẽ": 2563,
      "chép": 2564,
      "chợ": 2565,
      "chặng": 2566,
      "chăm": 2567,
      "nho": 2568,
      "nhánh": 2569,
      "nhạy": 2570,
      "nhấm": 2571,
      "_nhag": 2572,
      "khâu": 2573,
      "khiêu": 2574,
      "ngộ": 2575,
      "ngã": 2576,
      "ngon": 2577,
      "ngờ": 2578,
      "vành": 2579,
      "phận": 2580,
      "phàn": 2581,
      "phar": 2582,
      "phối": 2583,
      "phẳng": 2584,
      "cục": 2585,
      "quét": 2586,
      "hoại": 2587,
      "howard": 2588,
      "_ans": 2589,
      "_anian": 2590,
      "_ìa": 2591,
      "đãi": 2592,
      "sứ": 2593,
      "_ốm": 2594,
      "bắp": 2595,
      "phái": 2596,
      "_aoh": 2597,
      "đôn": 2598,
      "đốt": 2599,
      "đón": 2600,
      "cưng": 2601,
      "_ama": 2602,
      "_amun": 2603,
      "los": 2604,
      "_inc": 2605,
      "_inet": 2606,
      "ổ": 2607,
      "_alom": 2608,
      "_alem": 2609,
      "_alini": 2610,
      "tutan": 2611,
      "khoang": 2612,
      "toa": 2613,
      "tom": 2614,
      "tỏa": 2615,
      "lợn": 2616,
      "col": 2617,
      "cọp": 2618,
      "cost": 2619,
      "cope": 2620,
      "\"\"\"": 2621,
      "_che": 2622,
      "_chel": 2623,
      "lưỡng": 2624,
      "_orid": 2625,
      "đoan": 2626,
      "hỗn": 2627,
      "_elle": 2628,
      "_ello": 2629,
      "đụng": 2630,
      "_ate": 2631,
      "_ashi": 2632,
      "_aska": 2633,
      "romania": 2634,
      "_anda": 2635,
      "ưa": 2636,
      "phili": 2637,
      "huhne": 2638,
      "_ice": 2639,
      "giáp": 2640,
      "_iti": 2641,
      "_usalem": 2642,
      "_lotte": 2643,
      "_ade": 2644,
      "_red": 2645,
      "_hiop": 2646,
      "_neid": 2647,
      "alaska": 2648,
      "_ckland": 2649,
      "_illa": 2650,
      "ướt": 2651,
      "đáp": 2652,
      "_isto": 2653,
      "jour": 2654,
      "arias": 2655,
      "_couver": 2656,
      "red": 2657,
      "bob": 2658,
      "cáp": 2659,
      "santa": 2660,
      "chúa": 2661,
      "nhũng": 2662,
      "huỷ": 2663,
      "hét": 2664,
      "mara": 2665,
      "martelly": 2666,
      "ngưỡng": 2667,
      "johnson": 2668,
      "proven": 2669,
      "_ẫy": 2670,
      "_lanca": 2671,
      "assy": 2672,
      "vững": 2673,
      "_celona": 2674,
      "carib": 2675,
      "_ppines": 2676,
      "_khamun": 2677,
      "barcelona": 2678,
      "_appa": 2679,
      "singh": 2680,
      "_ruk": 2681,
      "schneid": 2682,
      "_kek": 2683,
      "charlotte": 2684,
      "casab": 2685,
      "florid": 2686,
      "_zano": 2687,
      "stark": 2688,
      "auckland": 2689,
      "xỉn": 2690,
      "lakkha": 2691,
      "venez": 2692,
      "danielle": 2693,
      "blacks": 2694,
      "kênh": 2695,
      "peter": 2696,
      "simino": 2697,
      "romney": 2698,
      "angel": 2699,
      "sky": 2700,
      "vancouver": 2701,
      "australia": 2702,
      "monte": 2703,
      "massa": 2704,
      "alex": 2705,
      "ethiop": 2706,
      "falkland": 2707,
      "guru": 2708,
      "hẻm": 2709,
      "jerusalem": 2710,
      "perry": 2711,
      "đứt": 2712,
      "chhappan": 2713,
      "dunlap": 2714,
      "safari": 2715,
      "elizabeth": 2716,
      "azer": 2717,
      "arizona": 2718,
      "bhog": 2719,
      "bậc": 2720,
      "bishkek": 2721,
      "fair": 2722,
      "fernand": 2723,
      "hươu": 2724,
      "kundalini": 2725,
      "prix": 2726,
      "slalom": 2727,
      "utc": 2728,
      "utah": 2729,
      "unesco": 2730,
      "vatican": 2731,
      "wifi": 2732,
      "_nhagen": 2733,
      "pharaoh": 2734,
      "tutankhamun": 2735,
      "costello": 2736,
      "copenhagen": 2737,
      "philippines": 2738,
      "provenzano": 2739,
      "assyria": 2740,
      "schneider": 2741,
      "casablanca": 2742,
      "florida": 2743,
      "venezuela": 2744,
      "siminoff": 2745,
      "ethiopia": 2746,
      "bốc": 2747,
      "bến": 2748,
      "bro": 2749,
      "bạch": 2750,
      "báu": 2751,
      "cất": 2752,
      "dạo": 2753,
      "gl": 2754,
      "gen": 2755,
      "hă": 2756,
      "her": 2757,
      "kĩ": 2758,
      "kit": 2759,
      "le": 2760,
      "mad": 2761,
      "nan": 2762,
      "pr": 2763,
      "pag": 2764,
      "rau": 2765,
      "wil": 2766,
      "xế": 2767,
      "xấp": 2768,
      "xách": 2769,
      "xóm": 2770,
      "đan": 2771,
      "đập": 2772,
      "_nt": 2773,
      "_ga": 2774,
      "_ge": 2775,
      "_oke": 2776,
      "_yo": 2777,
      "_de": 2778,
      "_den": 2779,
      "_site": 2780,
      "_ub": 2781,
      "_utron": 2782,
      "_̃u": 2783,
      "_jar": 2784,
      "_win": 2785,
      "_war": 2786,
      "thước": 2787,
      "thổi": 2788,
      "thắc": 2789,
      "thầy": 2790,
      "trần": 2791,
      "cha": 2792,
      "chai": 2793,
      "chữa": 2794,
      "kháng": 2795,
      "khiếp": 2796,
      "ngạc": 2797,
      "ngợi": 2798,
      "phó": 2799,
      "cũ": 2800,
      "cuba": 2801,
      "sữa": 2802,
      "chua": 2803,
      "nghèo": 2804,
      "_innes": 2805,
      "ẩn": 2806,
      "tuân": 2807,
      "phú": 2808,
      "_ens": 2809,
      "xuân": 2810,
      "quỹ": 2811,
      "cọc": 2812,
      "ngoạn": 2813,
      "tựu": 2814,
      "_ates": 2815,
      "_ast": 2816,
      "_oly": 2817,
      "đợt": 2818,
      "ném": 2819,
      "neutron": 2820,
      "_rid": 2821,
      "duyệt": 2822,
      "lãng": 2823,
      "_ther": 2824,
      "_agos": 2825,
      "rich": 2826,
      "website": 2827,
      "show": 2828,
      "nhuận": 2829,
      "hẹn": 2830,
      "olympics": 2831,
      "ghế": 2832,
      "carter": 2833,
      "saint": 2834,
      "guinnes": 2835,
      "xỉ": 2836,
      "trộn": 2837,
      "rome": 2838,
      "scot": 2839,
      "kanjar": 2840,
      "guinness": 2841,
      ".,": 2842,
      ">(": 2843,
      "ác": 2844,
      "ách": 2845,
      "apol": 2846,
      "br": 2847,
      "bô": 2848,
      "bá": 2849,
      "ben": 2850,
      "bel": 2851,
      "bol": 2852,
      "bám": 2853,
      "bồi": 2854,
      "bran": 2855,
      "bón": 2856,
      "bẫy": 2857,
      "ce": 2858,
      "cm": 2859,
      "cước": 2860,
      "cường": 2861,
      "cen": 2862,
      "cel": 2863,
      "cẩu": 2864,
      "city": 2865,
      "cyan": 2866,
      "dz": 2867,
      "dv": 2868,
      "diê": 2869,
      "dường": 2870,
      "dây": 2871,
      "dinh": 2872,
      "dính": 2873,
      "dam": 2874,
      "dắt": 2875,
      "dre": 2876,
      "dồn": 2877,
      "druk": 2878,
      "ex": 2879,
      "eph": 2880,
      "fo": 2881,
      "for": 2882,
      "foo": 2883,
      "fred": 2884,
      "gp": 2885,
      "gm": 2886,
      "gar": 2887,
      "gối": 2888,
      "gánh": 2889,
      "gas": 2890,
      "gấm": 2891,
      "gos": 2892,
      "gore": 2893,
      "gdp": 2894,
      "hs": 2895,
      "hin": 2896,
      "hen": 2897,
      "hes": 2898,
      "hâm": 2899,
      "hứng": 2900,
      "hạnh": 2901,
      "hứa": 2902,
      "hall": 2903,
      "ir": 2904,
      "ip": 2905,
      "iw": 2906,
      "ion": 2907,
      "ist": 2908,
      "je": 2909,
      "jon": 2910,
      "jar": 2911,
      "jak": 2912,
      "kìm": 2913,
      "kom": 2914,
      "kiêm": 2915,
      "kala": 2916,
      "lê": 2917,
      "lay": 2918,
      "lar": 2919,
      "lăn": 2920,
      "lánh": 2921,
      "lẻ": 2922,
      "lóng": 2923,
      "lăng": 2924,
      "liêng": 2925,
      "lắng": 2926,
      "lặp": 2927,
      "léo": 2928,
      "lặn": 2929,
      "lem": 2930,
      "lăm": 2931,
      "mc": 2932,
      "mp": 2933,
      "mác": 2934,
      "mổ": 2935,
      "mận": 2936,
      "min": 2937,
      "mal": 2938,
      "mẻ": 2939,
      "mấy": 2940,
      "mic": 2941,
      "mit": 2942,
      "map": 2943,
      "mắn": 2944,
      "mệt": 2945,
      "mặn": 2946,
      "mảnh": 2947,
      "mendo": 2948,
      "miss": 2949,
      "np": 2950,
      "nở": 2951,
      "nâu": 2952,
      "nướng": 2953,
      "nad": 2954,
      "nấm": 2955,
      "nạp": 2956,
      "nag": 2957,
      "nsa": 2958,
      "nba": 2959,
      "nyi": 2960,
      "nint": 2961,
      "on": 2962,
      "or": 2963,
      "õ": 2964,
      "ore": 2965,
      "ocel": 2966,
      "ove": 2967,
      "old": 2968,
      "orig": 2969,
      "oxy": 2970,
      "pi": 2971,
      "pan": 2972,
      "pin": 2973,
      "pen": 2974,
      "plan": 2975,
      "pry": 2976,
      "prag": 2977,
      "pbs": 2978,
      "poly": 2979,
      "rô": 2980,
      "rã": 2981,
      "rước": 2982,
      "rải": 2983,
      "rống": 2984,
      "ring": 2985,
      "rậm": 2986,
      "rain": 2987,
      "rìa": 2988,
      "sam": 2989,
      "sôi": 2990,
      "sap": 2991,
      "slo": 2992,
      "shi": 2993,
      "sir": 2994,
      "sca": 2995,
      "sport": 2996,
      "sảnh": 2997,
      "spr": 2998,
      "tb": 2999,
      "tông": 3000,
      "tong": 3001,
      "tận": 3002,
      "tật": 3003,
      "ter": 3004,
      "tấp": 3005,
      "tit": 3006,
      "tóm": 3007,
      "ur": 3008,
      "usoc": 3009,
      "ve": 3010,
      "vươ": 3011,
      "vang": 3012,
      "vẽ": 3013,
      "val": 3014,
      "váy": 3015,
      "vel": 3016,
      "vắng": 3017,
      "vợt": 3018,
      "xd": 3019,
      "xả": 3020,
      "xinh": 3021,
      "xứng": 3022,
      "xứ": 3023,
      "yor": 3024,
      "yến": 3025,
      "yard": 3026,
      "zm": 3027,
      "zay": 3028,
      "zam": 3029,
      "zim": 3030,
      "zha": 3031,
      "đeo": 3032,
      "điệu": 3033,
      "đốm": 3034,
      "’,": 3035,
      "_aw": 3036,
      "_aan": 3037,
      "_ack": 3038,
      "_ner": 3039,
      "_nom": 3040,
      "_nsy": 3041,
      "_gon": 3042,
      "_gur": 3043,
      "_gne": 3044,
      "_gby": 3045,
      "_ginet": 3046,
      "_oto": 3047,
      "_ct": 3048,
      "_car": 3049,
      "_cus": 3050,
      "_col": 3051,
      "_ctor": 3052,
      "_cbon": 3053,
      "_ron": 3054,
      "_rai": 3055,
      "_ram": 3056,
      "_rit": 3057,
      "_rina": 3058,
      "_tro": 3059,
      "_tman": 3060,
      "_tina": 3061,
      "_yam": 3062,
      "_pan": 3063,
      "_par": 3064,
      "_pal": 3065,
      "_pson": 3066,
      "_ho": 3067,
      "_han": 3068,
      "_hche": 3069,
      "_dia": 3070,
      "_dru": 3071,
      "_dain": 3072,
      "_eul": 3073,
      "_se": 3074,
      "_smania": 3075,
      "_sashi": 3076,
      "_ik": 3077,
      "_iza": 3078,
      "_met": 3079,
      "_ming": 3080,
      "_ud": 3081,
      "_uz": 3082,
      "_uth": 3083,
      "_uts": 3084,
      "_ution": 3085,
      "_jong": 3086,
      "_lic": 3087,
      "_lvan": 3088,
      "_fu": 3089,
      "_fan": 3090,
      "_fen": 3091,
      "_fia": 3092,
      "_ford": 3093,
      "_vi": 3094,
      "_von": 3095,
      "_vis": 3096,
      "_vada": 3097,
      "_vati": 3098,
      "_vice": 3099,
      "_bia": 3100,
      "_bel": 3101,
      "_bul": 3102,
      "_bya": 3103,
      "_bwe": 3104,
      "_bdru": 3105,
      "_way": 3106,
      "_wang": 3107,
      "_wer": 3108,
      "_wal": 3109,
      "_kin": 3110,
      "_kar": 3111,
      "_kim": 3112,
      "_ktu": 3113,
      "_xic": 3114,
      "_̈m": 3115,
      "_ớp": 3116,
      "_ồm": 3117,
      "than": 3118,
      "thôn": 3119,
      "thiệu": 3120,
      "thiêng": 3121,
      "thiền": 3122,
      "thiếp": 3123,
      "trau": 3124,
      "triết": 3125,
      "trội": 3126,
      "trứng": 3127,
      "tric": 3128,
      "trừng": 3129,
      "trans": 3130,
      "_iếng": 3131,
      "chr": 3132,
      "chư": 3133,
      "châm": 3134,
      "chat": 3135,
      "chừng": 3136,
      "nhầm": 3137,
      "nhảy": 3138,
      "nhắm": 3139,
      "khan": 3140,
      "khố": 3141,
      "khand": 3142,
      "khéo": 3143,
      "khuyết": 3144,
      "_ót": 3145,
      "ngai": 3146,
      "ngập": 3147,
      "ngặt": 3148,
      "ngón": 3149,
      "phế": 3150,
      "phiền": 3151,
      "phiêu": 3152,
      "phẫu": 3153,
      "phnom": 3154,
      "củng": 3155,
      "cudd": 3156,
      "già": 3157,
      "giấu": 3158,
      "gián": 3159,
      "giầy": 3160,
      "_́no": 3161,
      "lành": 3162,
      "họng": 3163,
      "hoạn": 3164,
      "_ant": 3165,
      "_annes": 3166,
      "_anbul": 3167,
      "_ongo": 3168,
      "đếm": 3169,
      "choàng": 3170,
      "chuông": 3171,
      "chuột": 3172,
      "chùa": 3173,
      "chuồn": 3174,
      "thuẫn": 3175,
      "tiếc": 3176,
      "tiềm": 3177,
      "hở": 3178,
      "_ond": 3179,
      "_onia": 3180,
      "_onald": 3181,
      "_onych": 3182,
      "nghề": 3183,
      "_auty": 3184,
      "vú": 3185,
      "radi": 3186,
      "raju": 3187,
      "đồn": 3188,
      "_ame": 3189,
      "_amine": 3190,
      "lòa": 3191,
      "_inn": 3192,
      "kyoto": 3193,
      "_erang": 3194,
      "_erat": 3195,
      "_erto": 3196,
      "_erque": 3197,
      "_aria": 3198,
      "_arns": 3199,
      "khufu": 3200,
      "mũi": 3201,
      "musashi": 3202,
      "domin": 3203,
      "lui": 3204,
      "luồng": 3205,
      "trục": 3206,
      "trump": 3207,
      "ốc": 3208,
      "ồn": 3209,
      "_als": 3210,
      "tung": 3211,
      "túc": 3212,
      "tụng": 3213,
      "túy": 3214,
      "_ena": 3215,
      "_enth": 3216,
      "_enton": 3217,
      "_enos": 3218,
      "chuyền": 3219,
      "town": 3220,
      "toginet": 3221,
      "rắc": 3222,
      "cọ": 3223,
      "com": 3224,
      "covid": 3225,
      "cook": 3226,
      "quãng": 3227,
      "_chu": 3228,
      "_cher": 3229,
      "_ches": 3230,
      "_chman": 3231,
      "_chner": 3232,
      "_chkin": 3233,
      "cờ": 3234,
      "_iation": 3235,
      "tasmania": 3236,
      "đoạt": 3237,
      "trọ": 3238,
      "_eland": 3239,
      "_elwal": 3240,
      "đúc": 3241,
      "đuôi": 3242,
      "_ese": 3243,
      "_esus": 3244,
      "south": 3245,
      "vỉa": 3246,
      "victor": 3247,
      "bachman": 3248,
      "_eti": 3249,
      "_atia": 3250,
      "_atus": 3251,
      "_atol": 3252,
      "_asma": 3253,
      "_asaki": 3254,
      "_asub": 3255,
      "_asvati": 3256,
      "rog": 3257,
      "roe": 3258,
      "rober": 3259,
      "royal": 3260,
      "giant": 3261,
      "_ander": 3262,
      "thăng": 3263,
      "thắt": 3264,
      "thắn": 3265,
      "lừa": 3266,
      "bum": 3267,
      "buenos": 3268,
      "_icia": 3269,
      "thoáng": 3270,
      "_rom": 3271,
      "_roso": 3272,
      "nụ": 3273,
      "_ition": 3274,
      "_ithe": 3275,
      "_ushche": 3276,
      "_ingbo": 3277,
      "_olis": 3278,
      "_olina": 3279,
      "_uric": 3280,
      "ngụ": 3281,
      "inc": 3282,
      "_apolis": 3283,
      "_los": 3284,
      "_lomet": 3285,
      "_ado": 3286,
      "_ading": 3287,
      "_adian": 3288,
      "_ake": 3289,
      "_akis": 3290,
      "nét": 3291,
      "nepal": 3292,
      "nevada": 3293,
      "anim": 3294,
      "anna": 3295,
      "duyên": 3296,
      "_ters": 3297,
      "stard": 3298,
      "stone": 3299,
      "rủi": 3300,
      "rugby": 3301,
      "_omerang": 3302,
      "sơn": 3303,
      "_thur": 3304,
      "alp": 3305,
      "albu": 3306,
      "_cks": 3307,
      "_ille": 3308,
      "voi": 3309,
      "vòi": 3310,
      "_eback": 3311,
      "mãi": 3312,
      "_agu": 3313,
      "_tonia": 3314,
      "cacbon": 3315,
      "taíno": 3316,
      "_lando": 3317,
      "_lynn": 3318,
      "newt": 3319,
      "_ostr": 3320,
      "argen": 3321,
      "arthur": 3322,
      "kẹp": 3323,
      "_tem": 3324,
      "rem": 3325,
      "reading": 3326,
      "bò": 3327,
      "bow": 3328,
      "boat": 3329,
      "boda": 3330,
      "boomerang": 3331,
      "santor": 3332,
      "xưng": 3333,
      "_ffold": 3334,
      "cưới": 3335,
      "mac": 3336,
      "shar": 3337,
      "shoo": 3338,
      "shyam": 3339,
      "mexic": 3340,
      "_ght": 3341,
      "gói": 3342,
      "lãm": 3343,
      "paro": 3344,
      "park": 3345,
      "parti": 3346,
      "parenth": 3347,
      "lộn": 3348,
      "mượn": 3349,
      "bổn": 3350,
      "marie": 3351,
      "_iano": 3352,
      "hàm": 3353,
      "hangi": 3354,
      "hangeul": 3355,
      "kỉ": 3356,
      "kilomet": 3357,
      "big": 3358,
      "_bow": 3359,
      "devon": 3360,
      "vidal": 3361,
      "asus": 3362,
      "assoc": 3363,
      "dave": 3364,
      "ghz": 3365,
      "meti": 3366,
      "_phen": 3367,
      "carolina": 3368,
      "sejong": 3369,
      "_pper": 3370,
      "_ifa": 3371,
      "_nesia": 3372,
      "gũi": 3373,
      "harvard": 3374,
      "harappa": 3375,
      "_ieh": 3376,
      "_babwe": 3377,
      "_kawa": 3378,
      "_video": 3379,
      "_opithe": 3380,
      "_tsburgh": 3381,
      "ngawang": 3382,
      "schuma": 3383,
      "baltic": 3384,
      "balasub": 3385,
      "manches": 3386,
      "moll": 3387,
      "nứt": 3388,
      "potro": 3389,
      "_waz": 3390,
      "stewar": 3391,
      "stearns": 3392,
      "stephen": 3393,
      "aud": 3394,
      "aires": 3395,
      "amin": 3396,
      "líp": 3397,
      "lake": 3398,
      "palm": 3399,
      "palest": 3400,
      "timbu": 3401,
      "_uche": 3402,
      "allen": 3403,
      "danius": 3404,
      "geosp": 3405,
      "nobel": 3406,
      "simpson": 3407,
      "_oulos": 3408,
      "_engeti": 3409,
      "adam": 3410,
      "eskim": 3411,
      "estonia": 3412,
      "libya": 3413,
      "plasma": 3414,
      "_quet": 3415,
      "_querque": 3416,
      "hungary": 3417,
      "_ragongo": 3418,
      "australopithe": 3419,
      "indus": 3420,
      "acta": 3421,
      "croatia": 3422,
      "java": 3423,
      "krushche": 3424,
      "patin": 3425,
      "pittman": 3426,
      "pittsburgh": 3427,
      "sarasvati": 3428,
      "tonle": 3429,
      "white": 3430,
      "rossby": 3431,
      "stanley": 3432,
      "stanford": 3433,
      "virginia": 3434,
      "bơm": 3435,
      "ebay": 3436,
      "grant": 3437,
      "usd": 3438,
      "_geria": 3439,
      "beauty": 3440,
      "blake": 3441,
      "feli": 3442,
      "hít": 3443,
      "katrina": 3444,
      "kirchner": 3445,
      "lenz": 3446,
      "miller": 3447,
      "puerto": 3448,
      "paolo": 3449,
      "piccol": 3450,
      "serengeti": 3451,
      "versail": 3452,
      "wales": 3453,
      "_peronych": 3454,
      "_ski": 3455,
      "_baijan": 3456,
      "tommy": 3457,
      "colbert": 3458,
      "_istoph": 3459,
      "jourdain": 3460,
      "bobek": 3461,
      "angeles": 3462,
      "montevideo": 3463,
      "alexander": 3464,
      "azerbaijan": 3465,
      "fernando": 3466,
      "brother": 3467,
      "herostr": 3468,
      "princ": 3469,
      "pago": 3470,
      "wild": 3471,
      "apollo": 3472,
      "bồ": 3473,
      "bolonia": 3474,
      "cep": 3475,
      "central": 3476,
      "cyanuric": 3477,
      "dzong": 3478,
      "dvd": 3479,
      "diễu": 3480,
      "damadian": 3481,
      "dream": 3482,
      "drukgyal": 3483,
      "exp": 3484,
      "foot": 3485,
      "gmt": 3486,
      "gosling": 3487,
      "hsieh": 3488,
      "hindi": 3489,
      "henry": 3490,
      "hesperonych": 3491,
      "ireland": 3492,
      "istanbul": 3493,
      "jeff": 3494,
      "jakar": 3495,
      "komen": 3496,
      "layton": 3497,
      "microso": 3498,
      "mapuche": 3499,
      "mendoza": 3500,
      "npws": 3501,
      "nadal": 3502,
      "nyiragongo": 3503,
      "nintendo": 3504,
      "onion": 3505,
      "oregon": 3506,
      "ocelo": 3507,
      "ovechkin": 3508,
      "origami": 3509,
      "piquet": 3510,
      "panama": 3511,
      "pennsy": 3512,
      "planned": 3513,
      "pryce": 3514,
      "prague": 3515,
      "polynesia": 3516,
      "rãnh": 3517,
      "rainbow": 3518,
      "slov": 3519,
      "sirena": 3520,
      "scaffold": 3521,
      "sporting": 3522,
      "springbo": 3523,
      "titan": 3524,
      "vượn": 3525,
      "xdr": 3526,
      "york": 3527,
      "zmapp": 3528,
      "zayat": 3529,
      "zambia": 3530,
      "zimbabwe": 3531,
      "zhabdru": 3532,
      "_ramanian": 3533,
      "_lvania": 3534,
      "tricerat": 3535,
      "chatham": 3536,
      "khandelwal": 3537,
      "cuddeback": 3538,
      "radio": 3539,
      "victoria": 3540,
      "bachmann": 3541,
      "stardust": 3542,
      "albuquerque": 3543,
      "argentina": 3544,
      "shooters": 3545,
      "mexico": 3546,
      "partizan": 3547,
      "parenthood": 3548,
      "devonport": 3549,
      "association": 3550,
      "davey": 3551,
      "schumacher": 3552,
      "balasubramanian": 3553,
      "manchester": 3554,
      "stewart": 3555,
      "palestine": 3556,
      "timbuktu": 3557,
      "geospiza": 3558,
      "eskimo": 3559,
      "australopithecus": 3560,
      "krushchev": 3561,
      "piccolo": 3562,
      "herostratus": 3563,
      "hesperonychus": 3564,
      "microsoft": 3565,
      "pennsylvania": 3566,
      "springboks": 3567,
      "zhabdrung": 3568,
      "triceratop": 3569,
      "by": 3570,
      "bhu": 3571,
      "bóc": 3572,
      "cãi": 3573,
      "dê": 3574,
      "dời": 3575,
      "dna": 3576,
      "eri": 3577,
      "fi": 3578,
      "gan": 3579,
      "gắt": 3580,
      "gord": 3581,
      "hổ": 3582,
      "hạch": 3583,
      "kow": 3584,
      "lột": 3585,
      "lường": 3586,
      "lôi": 3587,
      "lắm": 3588,
      "mạn": 3589,
      "mai": 3590,
      "mor": 3591,
      "pa": 3592,
      "tem": 3593,
      "tĩnh": 3594,
      "tóc": 3595,
      "xá": 3596,
      "xị": 3597,
      "xích": 3598,
      "zag": 3599,
      "đèo": 3600,
      "đậu": 3601,
      "_ace": 3602,
      "_no": 3603,
      "_gs": 3604,
      "_́a": 3605,
      "_cca": 3606,
      "_hr": 3607,
      "_had": 3608,
      "_ee": 3609,
      "_ster": 3610,
      "_ú": 3611,
      "_uro": 3612,
      "_zen": 3613,
      "_brid": 3614,
      "_kyo": 3615,
      "thạo": 3616,
      "thôi": 3617,
      "trai": 3618,
      "trật": 3619,
      "trôi": 3620,
      "chand": 3621,
      "chợt": 3622,
      "củ": 3623,
      "quên": 3624,
      "sưu": 3625,
      "thưa": 3626,
      "nắng": 3627,
      "thuần": 3628,
      "_inburgh": 3629,
      "phúc": 3630,
      "_enst": 3631,
      "tokyo": 3632,
      "_chte": 3633,
      "phím": 3634,
      "dừa": 3635,
      "_esh": 3636,
      "baba": 3637,
      "sul": 3638,
      "_ros": 3639,
      "ngũ": 3640,
      "_apagos": 3641,
      "ngừa": 3642,
      "tỉ": 3643,
      "mãn": 3644,
      "_ffiti": 3645,
      "mecca": 3646,
      "paragu": 3647,
      "_ersburg": 3648,
      "ghét": 3649,
      "cambrid": 3650,
      "nigeria": 3651,
      "_lines": 3652,
      "_khar": 3653,
      "scheng": 3654,
      "airlines": 3655,
      "edinburgh": 3656,
      "galapagos": 3657,
      "petersburg": 3658,
      "scott": 3659,
      "bớt": 3660,
      "darwin": 3661,
      "ebola": 3662,
      "usgs": 3663,
      "thớt": 3664,
      "graffiti": 3665,
      "hẳn": 3666,
      "kitô": 3667,
      "richard": 3668,
      "scotland": 3669,
      "gordon": 3670,
      "xịt": 3671,
      "paraguay": 3672,
      "cambridge": 3673,
      "schengen": 3674,
      "!)": 3675,
      "!\"\"": 3676,
      "(“": 3677,
      ");": 3678,
      ",:": 3679,
      ",..": 3680,
      "--": 3681,
      "ag": 3682,
      "ay": 3683,
      "ab": 3684,
      "ám": 3685,
      "ait": 3686,
      "ara": 3687,
      "ath": 3688,
      "amp": 3689,
      "aun": 3690,
      "ave": 3691,
      "aks": 3692,
      "axi": 3693,
      "abu": 3694,
      "aeg": 3695,
      "bs": 3696,
      "bệ": 3697,
      "bế": 3698,
      "bần": 3699,
      "bon": 3700,
      "bây": 3701,
      "bống": 3702,
      "bàng": 3703,
      "bor": 3704,
      "bes": 3705,
      "bẩn": 3706,
      "bit": 3707,
      "bri": 3708,
      "bốt": 3709,
      "bos": 3710,
      "bard": 3711,
      "bir": 3712,
      "beng": 3713,
      "belly": 3714,
      "binn": 3715,
      "cn": 3716,
      "cg": 3717,
      "cột": 3718,
      "cười": 3719,
      "cay": 3720,
      "cạn": 3721,
      "cài": 3722,
      "cống": 3723,
      "cốc": 3724,
      "cin": 3725,
      "canh": 3726,
      "cởi": 3727,
      "câm": 3728,
      "căng": 3729,
      "cậy": 3730,
      "cạp": 3731,
      "cir": 3732,
      "cli": 3733,
      "cru": 3734,
      "cinc": 3735,
      "cct": 3736,
      "dy": 3737,
      "dai": 3738,
      "dập": 3739,
      "der": 3740,
      "dal": 3741,
      "dĩ": 3742,
      "dặt": 3743,
      "dào": 3744,
      "dội": 3745,
      "dẻ": 3746,
      "dấy": 3747,
      "dán": 3748,
      "dro": 3749,
      "dè": 3750,
      "dri": 3751,
      "dra": 3752,
      "dặn": 3753,
      "drag": 3754,
      "dsl": 3755,
      "dẫm": 3756,
      "donald": 3757,
      "eo": 3758,
      "é": 3759,
      "er": 3760,
      "ei": 3761,
      "ev": 3762,
      "ere": 3763,
      "eva": 3764,
      "ehu": 3765,
      "erk": 3766,
      "eigh": 3767,
      "ell": 3768,
      "eee": 3769,
      "euro": 3770,
      "fa": 3771,
      "ft": 3772,
      "fk": 3773,
      "fon": 3774,
      "fin": 3775,
      "fis": 3776,
      "fic": 3777,
      "flo": 3778,
      "fil": 3779,
      "fall": 3780,
      "fort": 3781,
      "fata": 3782,
      "fati": 3783,
      "fray": 3784,
      "fenton": 3785,
      "flynn": 3786,
      "fifa": 3787,
      "gb": 3788,
      "gã": 3789,
      "gang": 3790,
      "gon": 3791,
      "gạt": 3792,
      "gor": 3793,
      "gán": 3794,
      "gãy": 3795,
      "gol": 3796,
      "glo": 3797,
      "gri": 3798,
      "gall": 3799,
      "gold": 3800,
      "gốm": 3801,
      "gama": 3802,
      "gate": 3803,
      "gẫy": 3804,
      "gyo": 3805,
      "gates": 3806,
      "grid": 3807,
      "game": 3808,
      "glynn": 3809,
      "hj": 3810,
      "hk": 3811,
      "hã": 3812,
      "hiên": 3813,
      "hước": 3814,
      "hal": 3815,
      "his": 3816,
      "hel": 3817,
      "hầm": 3818,
      "hăng": 3819,
      "hiền": 3820,
      "hil": 3821,
      "hắn": 3822,
      "heb": 3823,
      "hers": 3824,
      "hiv": 3825,
      "htt": 3826,
      "hast": 3827,
      "it": 3828,
      "im": 3829,
      "iz": 3830,
      "iph": 3831,
      "ida": 3832,
      "ioc": 3833,
      "irk": 3834,
      "jan": 3835,
      "jong": 3836,
      "jai": 3837,
      "jel": 3838,
      "jas": 3839,
      "jim": 3840,
      "jag": 3841,
      "jard": 3842,
      "jul": 3843,
      "jord": 3844,
      "jean": 3845,
      "jud": 3846,
      "jesus": 3847,
      "ka": 3848,
      "kn": 3849,
      "kg": 3850,
      "ko": 3851,
      "kv": 3852,
      "kong": 3853,
      "kay": 3854,
      "kẽ": 3855,
      "ker": 3856,
      "kor": 3857,
      "kes": 3858,
      "kre": 3859,
      "kri": 3860,
      "kiêu": 3861,
      "kph": 3862,
      "kru": 3863,
      "kiềm": 3864,
      "kalo": 3865,
      "kari": 3866,
      "kok": 3867,
      "kiss": 3868,
      "kings": 3869,
      "kashi": 3870,
      "kanda": 3871,
      "krom": 3872,
      "kwaz": 3873,
      "lă": 3874,
      "lười": 3875,
      "lặt": 3876,
      "lát": 3877,
      "les": 3878,
      "lách": 3879,
      "lầm": 3880,
      "lit": 3881,
      "lèo": 3882,
      "lặng": 3883,
      "lion": 3884,
      "lồng": 3885,
      "liv": 3886,
      "lines": 3887,
      "lót": 3888,
      "md": 3889,
      "mb": 3890,
      "mông": 3891,
      "mì": 3892,
      "mí": 3893,
      "mau": 3894,
      "mộc": 3895,
      "mer": 3896,
      "manh": 3897,
      "mền": 3898,
      "men": 3899,
      "mâu": 3900,
      "mạo": 3901,
      "miệt": 3902,
      "mờ": 3903,
      "mis": 3904,
      "mel": 3905,
      "mệnh": 3906,
      "mè": 3907,
      "mép": 3908,
      "mìn": 3909,
      "mos": 3910,
      "mers": 3911,
      "mph": 3912,
      "mỏi": 3913,
      "mail": 3914,
      "mash": 3915,
      "mino": 3916,
      "móc": 3917,
      "mald": 3918,
      "mick": 3919,
      "miếng": 3920,
      "makis": 3921,
      "ns": 3922,
      "nm": 3923,
      "nê": 3924,
      "nâ": 3925,
      "nại": 3926,
      "nới": 3927,
      "nế": 3928,
      "nặc": 3929,
      "nin": 3930,
      "nản": 3931,
      "nập": 3932,
      "nỏ": 3933,
      "nát": 3934,
      "nẻ": 3935,
      "nấy": 3936,
      "nas": 3937,
      "nòng": 3938,
      "nap": 3939,
      "nak": 3940,
      "nồi": 3941,
      "nện": 3942,
      "nốt": 3943,
      "nẩy": 3944,
      "natal": 3945,
      "nation": 3946,
      "nick": 3947,
      "ndp": 3948,
      "oa": 3949,
      "ot": 3950,
      "od": 3951,
      "óc": 3952,
      "our": 3953,
      "oak": 3954,
      "ora": 3955,
      "ohi": 3956,
      "oun": 3957,
      "off": 3958,
      "ola": 3959,
      "oha": 3960,
      "oli": 3961,
      "oban": 3962,
      "ope": 3963,
      "ogar": 3964,
      "pc": 3965,
      "pt": 3966,
      "py": 3967,
      "png": 3968,
      "pur": 3969,
      "pre": 3970,
      "pst": 3971,
      "ped": 3972,
      "pfan": 3973,
      "piano": 3974,
      "qc": 3975,
      "qv": 3976,
      "rw": 3977,
      "rà": 3978,
      "rệ": 3979,
      "ran": 3980,
      "rực": 3981,
      "rạng": 3982,
      "râm": 3983,
      "rễ": 3984,
      "riệp": 3985,
      "rạp": 3986,
      "rệt": 3987,
      "rỡ": 3988,
      "rust": 3989,
      "ryan": 3990,
      "rick": 3991,
      "rsp": 3992,
      "ronald": 3993,
      "rese": 3994,
      "sc": 3995,
      "sy": 3996,
      "sm": 3997,
      "sô": 3998,
      "sên": 3999,
      "sành": 4000,
      "seo": 4001,
      "sàn": 4002,
      "sảng": 4003,
      "ses": 4004,
      "set": 4005,
      "sat": 4006,
      "sas": 4007,
      "sồi": 4008,
      "sỹ": 4009,
      "sấm": 4010,
      "sie": 4011,
      "sver": 4012,
      "smy": 4013,
      "sint": 4014,
      "sci": 4015,
      "syd": 4016,
      "sakis": 4017,
      "tc": 4018,
      "td": 4019,
      "tm": 4020,
      "tươ": 4021,
      "tản": 4022,
      "tal": 4023,
      "ten": 4024,
      "tel": 4025,
      "tiệm": 4026,
      "tắm": 4027,
      "twin": 4028,
      "un": 4029,
      "uc": 4030,
      "uw": 4031,
      "uk": 4032,
      "ü": 4033,
      "út": 4034,
      "uth": 4035,
      "uran": 4036,
      "upp": 4037,
      "usa": 4038,
      "uka": 4039,
      "uni": 4040,
      "uigh": 4041,
      "vp": 4042,
      "vay": 4043,
      "vân": 4044,
      "vải": 4045,
      "ver": 4046,
      "vặt": 4047,
      "vấy": 4048,
      "vis": 4049,
      "vas": 4050,
      "vảy": 4051,
      "viền": 4052,
      "vượng": 4053,
      "viêm": 4054,
      "vern": 4055,
      "veg": 4056,
      "vanda": 4057,
      "viếng": 4058,
      "vót": 4059,
      "we": 4060,
      "wl": 4061,
      "wong": 4062,
      "wai": 4063,
      "wel": 4064,
      "whi": 4065,
      "wag": 4066,
      "ward": 4067,
      "wned": 4068,
      "wade": 4069,
      "wik": 4070,
      "wond": 4071,
      "xt": 4072,
      "xx": 4073,
      "xiê": 4074,
      "xong": 4075,
      "xổ": 4076,
      "xương": 4077,
      "xáo": 4078,
      "xối": 4079,
      "xướng": 4080,
      "xuyết": 4081,
      "xte": 4082,
      "xiêm": 4083,
      "xói": 4084,
      "xộn": 4085,
      "xvi": 4086,
      "ya": 4087,
      "yể": 4088,
      "yas": 4089,
      "za": 4090,
      "zo": 4091,
      "zh": 4092,
      "zi": 4093,
      "zou": 4094,
      "zig": 4095,
      "đả": 4096,
      "đạn": 4097,
      "đống": 4098,
      "đinh": 4099,
      "đính": 4100,
      "đực": 4101,
      "đẻ": 4102,
      "đắc": 4103,
      "đạc": 4104,
      "điệp": 4105,
      "đắp": 4106,
      "đặng": 4107,
      "đẳng": 4108,
      "đặn": 4109,
      "_az": 4110,
      "_ãng": 4111,
      "_ael": 4112,
      "_aza": 4113,
      "_aqu": 4114,
      "_ny": 4115,
      "_nk": 4116,
      "_nau": 4117,
      "_nal": 4118,
      "_nist": 4119,
      "_nos": 4120,
      "_go": 4121,
      "_ğ": 4122,
      "_gr": 4123,
      "_gy": 4124,
      "_gi": 4125,
      "_gl": 4126,
      "_gine": 4127,
      "_gow": 4128,
      "_gust": 4129,
      "_gsl": 4130,
      "_gate": 4131,
      "_od": 4132,
      "_oon": 4133,
      "_ole": 4134,
      "_over": 4135,
      "_oda": 4136,
      "_otte": 4137,
      "_oxit": 4138,
      "_oja": 4139,
      "_ofan": 4140,
      "_cf": 4141,
      "_cia": 4142,
      "_cta": 4143,
      "_cil": 4144,
      "_cord": 4145,
      "_cation": 4146,
      "_ctic": 4147,
      "_cone": 4148,
      "_cci": 4149,
      "_canian": 4150,
      "_cast": 4151,
      "_ciano": 4152,
      "_rs": 4153,
      "_ror": 4154,
      "_rro": 4155,
      "_rap": 4156,
      "_rna": 4157,
      "_rash": 4158,
      "_rican": 4159,
      "_rray": 4160,
      "_rling": 4161,
      "_tong": 4162,
      "_tia": 4163,
      "_tol": 4164,
      "_tine": 4165,
      "_trig": 4166,
      "_tgen": 4167,
      "_ys": 4168,
      "_yon": 4169,
      "_yer": 4170,
      "_ylo": 4171,
      "_yland": 4172,
      "_yss": 4173,
      "_yns": 4174,
      "_yuz": 4175,
      "_pi": 4176,
      "_pen": 4177,
      "_por": 4178,
      "_pus": 4179,
      "_pern": 4180,
      "_pul": 4181,
      "_puch": 4182,
      "_pov": 4183,
      "_poulos": 4184,
      "_pú": 4185,
      "_har": 4186,
      "_hal": 4187,
      "_hen": 4188,
      "_hel": 4189,
      "_hul": 4190,
      "_hoo": 4191,
      "_hall": 4192,
      "_hey": 4193,
      "_hary": 4194,
      "_hood": 4195,
      "_hiti": 4196,
      "_du": 4197,
      "_dw": 4198,
      "_dan": 4199,
      "_din": 4200,
      "_der": 4201,
      "_dern": 4202,
      "_dina": 4203,
      "_dul": 4204,
      "_dya": 4205,
      "_drig": 4206,
      "_dcast": 4207,
      "_ei": 4208,
      "_ex": 4209,
      "_én": 4210,
      "_eir": 4211,
      "_edo": 4212,
      "_sm": 4213,
      "_ş": 4214,
      "_sau": 4215,
      "_sar": 4216,
      "_sen": 4217,
      "_sel": 4218,
      "_sand": 4219,
      "_sur": 4220,
      "_sta": 4221,
      "_seth": 4222,
      "_sala": 4223,
      "_smo": 4224,
      "_sgate": 4225,
      "_io": 4226,
      "_ín": 4227,
      "_ich": 4228,
      "_ile": 4229,
      "_iers": 4230,
      "_iog": 4231,
      "_iola": 4232,
      "_ichel": 4233,
      "_mb": 4234,
      "_mal": 4235,
      "_mel": 4236,
      "_mat": 4237,
      "_mur": 4238,
      "_mos": 4239,
      "_mir": 4240,
      "_mson": 4241,
      "_mber": 4242,
      "_mey": 4243,
      "_mbai": 4244,
      "_um": 4245,
      "_uv": 4246,
      "_ux": 4247,
      "_uit": 4248,
      "_ule": 4249,
      "_uta": 4250,
      "_ute": 4251,
      "_uke": 4252,
      "_uilla": 4253,
      "_üm": 4254,
      "_ucation": 4255,
      "_jo": 4256,
      "_ji": 4257,
      "_jon": 4258,
      "_jia": 4259,
      "_jet": 4260,
      "_jab": 4261,
      "_ls": 4262,
      "_lb": 4263,
      "_lon": 4264,
      "_lam": 4265,
      "_las": 4266,
      "_llo": 4267,
      "_lington": 4268,
      "_lni": 4269,
      "_lgar": 4270,
      "_fa": 4271,
      "_fal": 4272,
      "_fas": 4273,
      "_fing": 4274,
      "_fth": 4275,
      "_foke": 4276,
      "_faw": 4277,
      "_fylo": 4278,
      "_zo": 4279,
      "_zz": 4280,
      "_zơ": 4281,
      "_zam": 4282,
      "_zel": 4283,
      "_zian": 4284,
      "_zez": 4285,
      "_zuma": 4286,
      "_zyns": 4287,
      "_zich": 4288,
      "_vu": 4289,
      "_via": 4290,
      "_vé": 4291,
      "_vol": 4292,
      "_vian": 4293,
      "_vall": 4294,
      "_vish": 4295,
      "_vick": 4296,
      "_villa": 4297,
      "_varia": 4298,
      "_vado": 4299,
      "_ville": 4300,
      "_bin": 4301,
      "_bal": 4302,
      "_bor": 4303,
      "_bet": 4304,
      "_bson": 4305,
      "_blin": 4306,
      "_bean": 4307,
      "_bruk": 4308,
      "_blic": 4309,
      "_wc": 4310,
      "_wan": 4311,
      "_wak": 4312,
      "_world": 4313,
      "_wpar": 4314,
      "_kan": 4315,
      "_kor": 4316,
      "_kol": 4317,
      "_kur": 4318,
      "_kla": 4319,
      "_kir": 4320,
      "_kou": 4321,
      "_krit": 4322,
      "_qi": 4323,
      "_xon": 4324,
      "_xlo": 4325,
      "_xbur": 4326,
      "_xtgen": 4327,
      "_̈ng": 4328,
      "_̈sl": 4329,
      "_̈rs": 4330,
      "_nger": 4331,
      "_ngla": 4332,
      "_ngord": 4333,
      "_ngary": 4334,
      "_ếch": 4335,
      "thệ": 4336,
      "thuy": 4337,
      "thỏ": 4338,
      "ther": 4339,
      "thép": 4340,
      "thra": 4341,
      "thấm": 4342,
      "thềm": 4343,
      "thrash": 4344,
      "_ược": 4345,
      "trống": 4346,
      "trinh": 4347,
      "treo": 4348,
      "trin": 4349,
      "trỏ": 4350,
      "trat": 4351,
      "trễ": 4352,
      "trạc": 4353,
      "trướng": 4354,
      "trồi": 4355,
      "trèo": 4356,
      "trian": 4357,
      "trenton": 4358,
      "chày": 4359,
      "chài": 4360,
      "chật": 4361,
      "cheo": 4362,
      "chập": 4363,
      "cher": 4364,
      "chiết": 4365,
      "chổi": 4366,
      "chào": 4367,
      "chánh": 4368,
      "chội": 4369,
      "chas": 4370,
      "chán": 4371,
      "chìm": 4372,
      "chăng": 4373,
      "chốt": 4374,
      "chìa": 4375,
      "chớp": 4376,
      "chồm": 4377,
      "nhi": 4378,
      "nhk": 4379,
      "nhì": 4380,
      "nhại": 4381,
      "nhí": 4382,
      "nhổ": 4383,
      "nhường": 4384,
      "nhở": 4385,
      "nham": 4386,
      "nhàng": 4387,
      "nhặt": 4388,
      "nhát": 4389,
      "nhãn": 4390,
      "nhấc": 4391,
      "nhộn": 4392,
      "nhược": 4393,
      "khước": 4394,
      "kham": 4395,
      "khiết": 4396,
      "khen": 4397,
      "khôi": 4398,
      "khốn": 4399,
      "khiếm": 4400,
      "khiếu": 4401,
      "khẳng": 4402,
      "khớp": 4403,
      "ngột": 4404,
      "ngài": 4405,
      "ngơi": 4406,
      "ngạo": 4407,
      "ngor": 4408,
      "ngách": 4409,
      "ngắt": 4410,
      "_ău": 4411,
      "_ằng": 4412,
      "phông": 4413,
      "phiện": 4414,
      "phai": 4415,
      "phanh": 4416,
      "phơi": 4417,
      "phen": 4418,
      "phượt": 4419,
      "phễ": 4420,
      "phẫn": 4421,
      "phấn": 4422,
      "phượng": 4423,
      "phant": 4424,
      "phond": 4425,
      "cua": 4426,
      "cú": 4427,
      "cup": 4428,
      "cúc": 4429,
      "cúp": 4430,
      "cuer": 4431,
      "cuội": 4432,
      "cush": 4433,
      "giông": 4434,
      "giong": 4435,
      "giang": 4436,
      "giật": 4437,
      "giời": 4438,
      "giặt": 4439,
      "gill": 4440,
      "giẫm": 4441,
      "gibson": 4442,
      "giằng": 4443,
      "quật": 4444,
      "quặt": 4445,
      "quấy": 4446,
      "quạnh": 4447,
      "quầng": 4448,
      "làn": 4449,
      "cóng": 4450,
      "hong": 4451,
      "hoài": 4452,
      "hous": 4453,
      "homo": 4454,
      "homer": 4455,
      "howe": 4456,
      "hooke": 4457,
      "hopper": 4458,
      "horro": 4459,
      "holb": 4460,
      "hokur": 4461,
      "_ania": 4462,
      "_anes": 4463,
      "_anth": 4464,
      "_ansa": 4465,
      "_ankar": 4466,
      "_ongor": 4467,
      "duệ": 4468,
      "dũng": 4469,
      "dust": 4470,
      "dumb": 4471,
      "duvall": 4472,
      "dublin": 4473,
      "duxbur": 4474,
      "chọc": 4475,
      "chọi": 4476,
      "choud": 4477,
      "chùng": 4478,
      "chùm": 4479,
      "chuôi": 4480,
      "chuộng": 4481,
      "thun": 4482,
      "thục": 4483,
      "thùy": 4484,
      "tiêm": 4485,
      "tiễn": 4486,
      "_anga": 4487,
      "_angel": 4488,
      "_angjia": 4489,
      "khỉ": 4490,
      "_onic": 4491,
      "_onos": 4492,
      "_onov": 4493,
      "_aica": 4494,
      "_aigsl": 4495,
      "nghịch": 4496,
      "nghiệt": 4497,
      "nghiền": 4498,
      "_audia": 4499,
      "_aucanian": 4500,
      "vung": 4501,
      "vùi": 4502,
      "raro": 4503,
      "rahul": 4504,
      "raonic": 4505,
      "chiao": 4506,
      "chick": 4507,
      "chiş": 4508,
      "_eosau": 4509,
      "lọ": 4510,
      "lọt": 4511,
      "loes": 4512,
      "lõi": 4513,
      "loãng": 4514,
      "lodin": 4515,
      "_inen": 4516,
      "_inski": 4517,
      "_inău": 4518,
      "nóc": 4519,
      "_ermo": 4520,
      "_ara": 4521,
      "_arch": 4522,
      "_arus": 4523,
      "_arman": 4524,
      "_arine": 4525,
      "_arest": 4526,
      "_arola": 4527,
      "_arctic": 4528,
      "_arinen": 4529,
      "đioxit": 4530,
      "tuýp": 4531,
      "khuếch": 4532,
      "múi": 4533,
      "muối": 4534,
      "much": 4535,
      "muss": 4536,
      "muộn": 4537,
      "murray": 4538,
      "mumbai": 4539,
      "muxlo": 4540,
      "müsl": 4541,
      "xé": 4542,
      "ân": 4543,
      "doạ": 4544,
      "dọn": 4545,
      "down": 4546,
      "doming": 4547,
      "lún": 4548,
      "lùi": 4549,
      "lụt": 4550,
      "luno": 4551,
      "lúa": 4552,
      "lufth": 4553,
      "trúng": 4554,
      "truex": 4555,
      "ôm": 4556,
      "ốt": 4557,
      "_alle": 4558,
      "_alos": 4559,
      "tut": 4560,
      "tụt": 4561,
      "phui": 4562,
      "phùn": 4563,
      "phúng": 4564,
      "_ent": 4565,
      "_enid": 4566,
      "_ence": 4567,
      "_enburg": 4568,
      "_enicia": 4569,
      "_enei": 4570,
      "khoe": 4571,
      "khoai": 4572,
      "khoái": 4573,
      "khoát": 4574,
      "khoẻ": 4575,
      "khoảnh": 4576,
      "top": 4577,
      "toà": 4578,
      "toái": 4579,
      "toạc": 4580,
      "toto": 4581,
      "toron": 4582,
      "tobruk": 4583,
      "răng": 4584,
      "xuôi": 4585,
      "quyến": 4586,
      "coas": 4587,
      "colo": 4588,
      "coun": 4589,
      "cover": 4590,
      "couch": 4591,
      "copern": 4592,
      "cowpar": 4593,
      "const": 4594,
      "connau": 4595,
      "_chy": 4596,
      "_chin": 4597,
      "_chus": 4598,
      "_chol": 4599,
      "_chur": 4600,
      "_chag": 4601,
      "_chem": 4602,
      "_chary": 4603,
      "_chael": 4604,
      "_charest": 4605,
      "lượn": 4606,
      "cớ": 4607,
      "_iah": 4608,
      "_iad": 4609,
      "_oru": 4610,
      "_oras": 4611,
      "_oros": 4612,
      "_orua": 4613,
      "ngòi": 4614,
      "ngoắc": 4615,
      "vụn": 4616,
      "taj": 4617,
      "tagine": 4618,
      "tahiti": 4619,
      "troy": 4620,
      "tròn": 4621,
      "_ise": 4622,
      "_isha": 4623,
      "_isban": 4624,
      "hôi": 4625,
      "_ely": 4626,
      "_els": 4627,
      "_elow": 4628,
      "_elty": 4629,
      "nguyền": 4630,
      "lyon": 4631,
      "lynd": 4632,
      "đun": 4633,
      "_esa": 4634,
      "_esian": 4635,
      "_esso": 4636,
      "_essand": 4637,
      "sọ": 4638,
      "sol": 4639,
      "sole": 4640,
      "soph": 4641,
      "sound": 4642,
      "soci": 4643,
      "sofia": 4644,
      "soyuz": 4645,
      "somal": 4646,
      "namgyal": 4647,
      "namgy": 4648,
      "vik": 4649,
      "vilni": 4650,
      "vichy": 4651,
      "chiêm": 4652,
      "back": 4653,
      "baby": 4654,
      "batt": 4655,
      "badya": 4656,
      "bafoke": 4657,
      "bazơ": 4658,
      "bavaria": 4659,
      "_ety": 4660,
      "_ete": 4661,
      "_eton": 4662,
      "_etic": 4663,
      "_etta": 4664,
      "_etts": 4665,
      "_atrap": 4666,
      "_asal": 4667,
      "_asque": 4668,
      "_ascar": 4669,
      "_asgow": 4670,
      "ròng": 4671,
      "room": 4672,
      "rotor": 4673,
      "robert": 4674,
      "rolando": 4675,
      "rodrig": 4676,
      "route": 4677,
      "robin": 4678,
      "giancar": 4679,
      "_andina": 4680,
      "thằn": 4681,
      "thắp": 4682,
      "did": 4683,
      "dilo": 4684,
      "dieg": 4685,
      "lựu": 4686,
      "bục": 4687,
      "bụi": 4688,
      "buôn": 4689,
      "buồn": 4690,
      "buồng": 4691,
      "buồm": 4692,
      "bulgar": 4693,
      "bungary": 4694,
      "bucharest": 4695,
      "phỉ": 4696,
      "hệt": 4697,
      "bank": 4698,
      "gồ": 4699,
      "vịn": 4700,
      "vịt": 4701,
      "suv": 4702,
      "sút": 4703,
      "sụp": 4704,
      "_ica": 4705,
      "_icus": 4706,
      "thọ": 4707,
      "thõng": 4708,
      "thoảng": 4709,
      "thomson": 4710,
      "_robi": 4711,
      "_ropus": 4712,
      "giục": 4713,
      "nút": 4714,
      "number": 4715,
      "_ith": 4716,
      "_itas": 4717,
      "_itution": 4718,
      "_itvice": 4719,
      "_itals": 4720,
      "_usis": 4721,
      "_usie": 4722,
      "_leans": 4723,
      "_lege": 4724,
      "_lejon": 4725,
      "_levé": 4726,
      "_inger": 4727,
      ").\"": 4728,
      "_ols": 4729,
      "_olini": 4730,
      "_urley": 4731,
      "_imonos": 4732,
      "ngục": 4733,
      "ngủi": 4734,
      "tayyi": 4735,
      "inca": 4736,
      "intrig": 4737,
      "inuit": 4738,
      "_aptor": 4739,
      "_apfen": 4740,
      "_lou": 4741,
      "_loon": 4742,
      "_adley": 4743,
      "_adys": 4744,
      "_akh": 4745,
      "_akia": 4746,
      "_akha": 4747,
      "_akop": 4748,
      "bỏng": 4749,
      "neigh": 4750,
      "nextgen": 4751,
      "anto": 4752,
      "ansa": 4753,
      "anatol": 4754,
      "anfa": 4755,
      "emma": 4756,
      "emmy": 4757,
      "_reb": 4758,
      "_rew": 4759,
      "_reet": 4760,
      "khóc": 4761,
      "khói": 4762,
      "_rida": 4763,
      "_rillo": 4764,
      "_rabo": 4765,
      "_teros": 4766,
      "_hire": 4767,
      "_hikawa": 4768,
      "strand": 4769,
      "station": 4770,
      "stofan": 4771,
      "street": 4772,
      "strabo": 4773,
      "_neapolis": 4774,
      "lafas": 4775,
      "xavi": 4776,
      "rũ": 4777,
      "ruột": 4778,
      "rủng": 4779,
      "ruộng": 4780,
      "rudd": 4781,
      "rumel": 4782,
      "đét": 4783,
      "_omé": 4784,
      "_omag": 4785,
      "_omir": 4786,
      "trafal": 4787,
      "vồ": 4788,
      "ngửi": 4789,
      "_thang": 4790,
      "_thic": 4791,
      "_thag": 4792,
      "nhiêu": 4793,
      "ali": 4794,
      "alps": 4795,
      "albert": 4796,
      "alden": 4797,
      "aldw": 4798,
      "alessand": 4799,
      "_tave": 4800,
      "_tagne": 4801,
      "_tafylo": 4802,
      "_ila": 4803,
      "_ileo": 4804,
      "_ilis": 4805,
      "tie": 4806,
      "tipper": 4807,
      "võng": 4808,
      "vòm": 4809,
      "_istina": 4810,
      "_istler": 4811,
      "_istchur": 4812,
      "_ebo": 4813,
      "_eber": 4814,
      "mãnh": 4815,
      "_agan": 4816,
      "_agem": 4817,
      "_agsta": 4818,
      "_agascar": 4819,
      "jobs": 4820,
      "jose": 4821,
      "joaqu": 4822,
      "jochem": 4823,
      "_tone": 4824,
      "cafen": 4825,
      "taiba": 4826,
      "tainos": 4827,
      "taizich": 4828,
      "news": 4829,
      "”.\"": 4830,
      "_osition": 4831,
      "arly": 4832,
      "arti": 4833,
      "aryan": 4834,
      "artem": 4835,
      "aristoph": 4836,
      "araucanian": 4837,
      "kem": 4838,
      "keir": 4839,
      "kechag": 4840,
      "_tep": 4841,
      "_team": 4842,
      "rio": 4843,
      "rỉnh": 4844,
      "riina": 4845,
      "river": 4846,
      "rift": 4847,
      "riga": 4848,
      "riomag": 4849,
      "_cock": 4850,
      "_codi": 4851,
      "_covado": 4852,
      "lệch": 4853,
      "lantagne": 4854,
      "rex": 4855,
      "rét": 4856,
      "rece": 4857,
      "report": 4858,
      "reed": 4859,
      "repú": 4860,
      "revol": 4861,
      "reagan": 4862,
      "_ional": 4863,
      "thỉnh": 4864,
      "bọt": 4865,
      "bots": 4866,
      "book": 4867,
      "bohr": 4868,
      "boule": 4869,
      "_mplo": 4870,
      "_uns": 4871,
      "_unya": 4872,
      "_ardian": 4873,
      "santo": 4874,
      "sansk": 4875,
      "sanju": 4876,
      "sanpar": 4877,
      "santia": 4878,
      "_tric": 4879,
      "_ffer": 4880,
      "_ffir": 4881,
      "cưỡng": 4882,
      "gừ": 4883,
      "mafia": 4884,
      "machu": 4885,
      "mahal": 4886,
      "maasal": 4887,
      "savan": 4888,
      "sahe": 4889,
      "saens": 4890,
      "sacks": 4891,
      "sahel": 4892,
      "saarinen": 4893,
      "sachin": 4894,
      "saffir": 4895,
      "shri": 4896,
      "shore": 4897,
      "short": 4898,
      "shari": 4899,
      "shannes": 4900,
      "shankar": 4901,
      "shisha": 4902,
      "shimonos": 4903,
      "_lah": 4904,
      "_law": 4905,
      "_iraptor": 4906,
      "nhút": 4907,
      "cốp": 4908,
      "medina": 4909,
      "canal": 4910,
      "canxi": 4911,
      "canaan": 4912,
      "canyon": 4913,
      "huyện": 4914,
      "_hae": 4915,
      "chíp": 4916,
      "johannes": 4917,
      "bổng": 4918,
      "hei": 4919,
      "heck": 4920,
      "hecta": 4921,
      "hekla": 4922,
      "headley": 4923,
      "maria": 4924,
      "marta": 4925,
      "marion": 4926,
      "marsh": 4927,
      "maryland": 4928,
      "mario": 4929,
      "_touv": 4930,
      "_emiah": 4931,
      "_iance": 4932,
      "_ianapolis": 4933,
      "suplic": 4934,
      "proxy": 4935,
      "provis": 4936,
      "_ápagos": 4937,
      "greely": 4938,
      "kivu": 4939,
      "_maeosau": 4940,
      "_erson": 4941,
      "_ersity": 4942,
      "bien": 4943,
      "bieber": 4944,
      "_doğ": 4945,
      "_bodia": 4946,
      "dẹp": 4947,
      "deity": 4948,
      "deuts": 4949,
      "vidde": 4950,
      "_strom": 4951,
      "ash": 4952,
      "astron": 4953,
      "asfaw": 4954,
      "daesh": 4955,
      "ghề": 4956,
      "ghé": 4957,
      "ghim": 4958,
      "ghẹ": 4959,
      "ghrai": 4960,
      "môt": 4961,
      "methan": 4962,
      "metror": 4963,
      "vựng": 4964,
      "_ogle": 4965,
      "_cell": 4966,
      "_phin": 4967,
      "_lie": 4968,
      "carpan": 4969,
      "saito": 4970,
      "_tier": 4971,
      "camille": 4972,
      "campuch": 4973,
      "cambodia": 4974,
      "sea": 4975,
      "seng": 4976,
      "sét": 4977,
      "séc": 4978,
      "sezen": 4979,
      "sepul": 4980,
      "sedan": 4981,
      "sevilla": 4982,
      "_ulu": 4983,
      "_ulka": 4984,
      "_vaji": 4985,
      "_vec": 4986,
      "_veda": 4987,
      ".”\"": 4988,
      "afcf": 4989,
      "african": 4990,
      "niue": 4991,
      "niig": 4992,
      "nikol": 4993,
      "nixon": 4994,
      "nichol": 4995,
      "_linn": 4996,
      "_lino": 4997,
      "_beration": 4998,
      "_inek": 4999,
      "_inews": 5000,
      "barca": 5001,
      "bartol": 5002,
      "gù": 5003,
      "gürs": 5004,
      "guardian": 5005,
      "haris": 5006,
      "harbour": 5007,
      "harappan": 5008,
      "harper": 5009,
      "harvick": 5010,
      "moa": 5011,
      "mohen": 5012,
      "modern": 5013,
      "mozam": 5014,
      "norman": 5015,
      "_sack": 5016,
      "_iej": 5017,
      "_ieux": 5018,
      "_rüm": 5019,
      "_allit": 5020,
      "_allus": 5021,
      "_ivan": 5022,
      "_ives": 5023,
      "_iversity": 5024,
      "_banks": 5025,
      "tribu": 5026,
      "bloch": 5027,
      "_orno": 5028,
      "bali": 5029,
      "balbo": 5030,
      "balkan": 5031,
      "casa": 5032,
      "casas": 5033,
      "casey": 5034,
      "caspi": 5035,
      "capuch": 5036,
      "capuz": 5037,
      "capitals": 5038,
      "flat": 5039,
      "flash": 5040,
      "fluke": 5041,
      "flagsta": 5042,
      "franks": 5043,
      "isis": 5044,
      "isil": 5045,
      "ishikawa": 5046,
      "manta": 5047,
      "manarola": 5048,
      "manila": 5049,
      "managem": 5050,
      "mantouv": 5051,
      "nairobi": 5052,
      "pound": 5053,
      "pohu": 5054,
      "point": 5055,
      "power": 5056,
      "podcast": 5057,
      "_toral": 5058,
      "_zania": 5059,
      "_zantine": 5060,
      "_bile": 5061,
      "_bique": 5062,
      "ẩu": 5063,
      "steve": 5064,
      "stars": 5065,
      "starmer": 5066,
      "august": 5067,
      "gazian": 5068,
      "hưu": 5069,
      "hưng": 5070,
      "tệp": 5071,
      "xix": 5072,
      "_xiou": 5073,
      "phoenicia": 5074,
      "airway": 5075,
      "ames": 5076,
      "amir": 5077,
      "berber": 5078,
      "berhan": 5079,
      "callejon": 5080,
      "grande": 5081,
      "jamie": 5082,
      "jamaica": 5083,
      "kenned": 5084,
      "kenseth": 5085,
      "latam": 5086,
      "latvia": 5087,
      "lakes": 5088,
      "palaw": 5089,
      "palermo": 5090,
      "templo": 5091,
      "_uchen": 5092,
      "chót": 5093,
      "runnels": 5094,
      "alliance": 5095,
      "armand": 5096,
      "_undation": 5097,
      "electric": 5098,
      "electoral": 5099,
      "edgar": 5100,
      "edward": 5101,
      "education": 5102,
      "gọn": 5103,
      "gourley": 5104,
      "gothic": 5105,
      "google": 5106,
      "galông": 5107,
      "galile": 5108,
      "galileo": 5109,
      "galápagos": 5110,
      "mayotte": 5111,
      "not": 5112,
      "noto": 5113,
      "nova": 5114,
      "petros": 5115,
      "_pshire": 5116,
      "_huania": 5117,
      "_egates": 5118,
      "_egsm": 5119,
      "adt": 5120,
      "add": 5121,
      "angola": 5122,
      "angkor": 5123,
      "catalunya": 5124,
      "delhi": 5125,
      "delta": 5126,
      "delegates": 5127,
      "espr": 5128,
      "gomulka": 5129,
      "liu": 5130,
      "ligur": 5131,
      "liberation": 5132,
      "mip": 5133,
      "mike": 5134,
      "miami": 5135,
      "michel": 5136,
      "michael": 5137,
      "plc": 5138,
      "plata": 5139,
      "plitvice": 5140,
      "ski": 5141,
      "skis": 5142,
      "scopol": 5143,
      "tank": 5144,
      "tanzania": 5145,
      "tamaki": 5146,
      "_abakh": 5147,
      "giovan": 5148,
      "hungaria": 5149,
      "_icana": 5150,
      "atlantic": 5151,
      "ecuado": 5152,
      "monteros": 5153,
      "maswa": 5154,
      "indias": 5155,
      "indianapolis": 5156,
      "acid": 5157,
      "acma": 5158,
      "alexiou": 5159,
      "break": 5160,
      "bremer": 5161,
      "brevis": 5162,
      "brewer": 5163,
      "crown": 5164,
      "crocodi": 5165,
      "falcone": 5166,
      "gurmat": 5167,
      "hamlin": 5168,
      "hamburg": 5169,
      "hampshire": 5170,
      "hẻo": 5171,
      "ilha": 5172,
      "iliad": 5173,
      "jack": 5174,
      "jazz": 5175,
      "jeremiah": 5176,
      "kristo": 5177,
      "krapfen": 5178,
      "lamb": 5179,
      "lastu": 5180,
      "laskhar": 5181,
      "mêlam": 5182,
      "peru": 5183,
      "patos": 5184,
      "pattave": 5185,
      "raymon": 5186,
      "sara": 5187,
      "saroja": 5188,
      "tony": 5189,
      "who": 5190,
      "whistler": 5191,
      "đựng": 5192,
      "_nigl": 5193,
      "_oç": 5194,
      "_ocles": 5195,
      "_ociraptor": 5196,
      "_tukawa": 5197,
      "_eki": 5198,
      "_minus": 5199,
      "_minster": 5200,
      "_vention": 5201,
      "chhatrap": 5202,
      "dunkir": 5203,
      "_issary": 5204,
      "safina": 5205,
      "berliner": 5206,
      "elizabet": 5207,
      "dịp": 5208,
      "daro": 5209,
      "daru": 5210,
      "granville": 5211,
      "karenia": 5212,
      "karate": 5213,
      "karabakh": 5214,
      "_bonite": 5215,
      "corpor": 5216,
      "corcovado": 5217,
      "cornigl": 5218,
      "_ingstone": 5219,
      "bén": 5220,
      "blue": 5221,
      "craigsl": 5222,
      "crete": 5223,
      "cristina": 5224,
      "claudia": 5225,
      "clara": 5226,
      "clorua": 5227,
      "congo": 5228,
      "civis": 5229,
      "civitas": 5230,
      "civilis": 5231,
      "felicia": 5232,
      "grachte": 5233,
      "hira": 5234,
      "hanami": 5235,
      "hanover": 5236,
      "hancock": 5237,
      "katja": 5238,
      "kirby": 5239,
      "mili": 5240,
      "onega": 5241,
      "oneworld": 5242,
      "picchu": 5243,
      "punja": 5244,
      "punjab": 5245,
      "punakha": 5246,
      "service": 5247,
      "versace": 5248,
      "walt": 5249,
      "westjet": 5250,
      "westminster": 5251,
      "đàm": 5252,
      "_ovarman": 5253,
      "_rayaan": 5254,
      "_ydallus": 5255,
      "_iges": 5256,
      "_mont": 5257,
      "_mons": 5258,
      "nhòm": 5259,
      "nhọn": 5260,
      "sứa": 5261,
      "_inette": 5262,
      "college": 5263,
      "_chell": 5264,
      "journal": 5265,
      "caribbean": 5266,
      "skype": 5267,
      "skyteam": 5268,
      "montezuma": 5269,
      "massachus": 5270,
      "falklands": 5271,
      "azeris": 5272,
      "fairbanks": 5273,
      "fairmont": 5274,
      "fernandez": 5275,
      "glen": 5276,
      "glasgow": 5277,
      "hằng": 5278,
      "kito": 5279,
      "leona": 5280,
      "leonov": 5281,
      "madam": 5282,
      "madagascar": 5283,
      "nanak": 5284,
      "richter": 5285,
      "scotia": 5286,
      "brzez": 5287,
      "brisban": 5288,
      "benin": 5289,
      "belgr": 5290,
      "belarus": 5291,
      "branca": 5292,
      "branson": 5293,
      "cell": 5294,
      "cella": 5295,
      "ephesus": 5296,
      "ephesian": 5297,
      "fools": 5298,
      "foundation": 5299,
      "formos": 5300,
      "gara": 5301,
      "garcia": 5302,
      "ipod": 5303,
      "iwata": 5304,
      "iwasaki": 5305,
      "jonny": 5306,
      "jarque": 5307,
      "jaromir": 5308,
      "kalaalle": 5309,
      "kalaallit": 5310,
      "lều": 5311,
      "larson": 5312,
      "larry": 5313,
      "lẻo": 5314,
      "lemieux": 5315,
      "mccord": 5316,
      "mcmur": 5317,
      "minneapolis": 5318,
      "minivan": 5319,
      "malar": 5320,
      "malta": 5321,
      "mitt": 5322,
      "mitchell": 5323,
      "mission": 5324,
      "nagasaki": 5325,
      "nagorno": 5326,
      "orlando": 5327,
      "orleans": 5328,
      "oldrich": 5329,
      "oldsmo": 5330,
      "shika": 5331,
      "shivaji": 5332,
      "tonga": 5333,
      "tongan": 5334,
      "terre": 5335,
      "terminus": 5336,
      "urdu": 5337,
      "vẹt": 5338,
      "valley": 5339,
      "valetta": 5340,
      "velasque": 5341,
      "velociraptor": 5342,
      "xinhua": 5343,
      "_gurat": 5344,
      "_ctus": 5345,
      "_raine": 5346,
      "_paniola": 5347,
      "_housie": 5348,
      "_seca": 5349,
      "_iku": 5350,
      "_mingham": 5351,
      "_utsk": 5352,
      "transant": 5353,
      "transnist": 5354,
      "christoph": 5355,
      "christchur": 5356,
      "_innati": 5357,
      "dominica": 5358,
      "dominicana": 5359,
      "comoros": 5360,
      "commons": 5361,
      "_atollah": 5362,
      "rogers": 5363,
      "rogaland": 5364,
      "roberto": 5365,
      "roberts": 5366,
      "bums": 5367,
      "bumthang": 5368,
      "animal": 5369,
      "animals": 5370,
      "alpes": 5371,
      "alpha": 5372,
      "cacbonic": 5373,
      "_temata": 5374,
      "bowen": 5375,
      "bowyer": 5376,
      "santorini": 5377,
      "santorum": 5378,
      "macbeth": 5379,
      "maciej": 5380,
      "shark": 5381,
      "sharma": 5382,
      "_ifax": 5383,
      "_wazaki": 5384,
      "audition": 5385,
      "palmeir": 5386,
      "whitehall": 5387,
      "felix": 5388,
      "felipe": 5389,
      "versaille": 5390,
      "versailles": 5391,
      "princesa": 5392,
      "princeton": 5393,
      "wilds": 5394,
      "dreamer": 5395,
      "expo": 5396,
      "exposition": 5397,
      "jefferson": 5398,
      "jakarta": 5399,
      "ocelot": 5400,
      "ocelots": 5401,
      "slovenia": 5402,
      "slovakia": 5403,
      "scaffolds": 5404,
      "scaffolding": 5405,
      "byzantine": 5406,
      "bhutan": 5407,
      "erik": 5408,
      "fire": 5409,
      "kowloon": 5410,
      "morphin": 5411,
      "zagreb": 5412,
      "chandrayaan": 5413,
      "_enstad": 5414,
      ",...": 5415,
      "agder": 5416,
      "ayatollah": 5417,
      "abc": 5418,
      "aituta": 5419,
      "arawak": 5420,
      "athens": 5421,
      "avenger": 5422,
      "aksu": 5423,
      "axít": 5424,
      "aegean": 5425,
      "borsel": 5426,
      "beso": 5427,
      "bright": 5428,
      "boston": 5429,
      "bardia": 5430,
      "birmingham": 5431,
      "bengal": 5432,
      "binnenstad": 5433,
      "cntt": 5434,
      "cinque": 5435,
      "cirque": 5436,
      "cliff": 5437,
      "cruelty": 5438,
      "cincinnati": 5439,
      "cctv": 5440,
      "dylan": 5441,
      "daily": 5442,
      "dervish": 5443,
      "dalhousie": 5444,
      "dromaeosau": 5445,
      "drive": 5446,
      "dravid": 5447,
      "dragoon": 5448,
      "dslr": 5449,
      "élevé": 5450,
      "erdoğ": 5451,
      "evangel": 5452,
      "erectus": 5453,
      "ehud": 5454,
      "erkoç": 5455,
      "eighmey": 5456,
      "ellis": 5457,
      "faa": 5458,
      "ftir": 5459,
      "fkp": 5460,
      "fonseca": 5461,
      "finish": 5462,
      "fisichel": 5463,
      "floyd": 5464,
      "film": 5465,
      "falls": 5466,
      "fatih": 5467,
      "gbp": 5468,
      "gangetic": 5469,
      "gonu": 5470,
      "gorilla": 5471,
      "golf": 5472,
      "global": 5473,
      "gripen": 5474,
      "gallon": 5475,
      "goldust": 5476,
      "gyöng": 5477,
      "gridley": 5478,
      "hjr": 5479,
      "hãm": 5480,
      "halifax": 5481,
      "hispaniola": 5482,
      "heliers": 5483,
      "hills": 5484,
      "hebrew": 5485,
      "hershey": 5486,
      "http": 5487,
      "hastings": 5488,
      "italo": 5489,
      "izmir": 5490,
      "iphone": 5491,
      "idaho": 5492,
      "irkutsk": 5493,
      "janissary": 5494,
      "jelinek": 5495,
      "jimén": 5496,
      "jagr": 5497,
      "jardín": 5498,
      "julia": 5499,
      "jordan": 5500,
      "judean": 5501,
      "kahne": 5502,
      "knp": 5503,
      "kouns": 5504,
      "kayak": 5505,
      "kerala": 5506,
      "korydallus": 5507,
      "keselow": 5508,
      "krezel": 5509,
      "kriegsm": 5510,
      "kruger": 5511,
      "kalousis": 5512,
      "kariwa": 5513,
      "kokoda": 5514,
      "kissinger": 5515,
      "kingsway": 5516,
      "kashiwazaki": 5517,
      "kandahar": 5518,
      "kwazulu": 5519,
      "lằn": 5520,
      "leslie": 5521,
      "lithuania": 5522,
      "lionsgate": 5523,
      "livingstone": 5524,
      "mdt": 5525,
      "mbit": 5526,
      "mía": 5527,
      "maui": 5528,
      "merenid": 5529,
      "mister": 5530,
      "melamine": 5531,
      "mossack": 5532,
      "mersey": 5533,
      "mashhad": 5534,
      "minoa": 5535,
      "maldives": 5536,
      "nsw": 5537,
      "nmr": 5538,
      "nếp": 5539,
      "nấng": 5540,
      "nếm": 5541,
      "ninth": 5542,
      "nassar": 5543,
      "napole": 5544,
      "naked": 5545,
      "national": 5546,
      "nicklas": 5547,
      "oahu": 5548,
      "otter": 5549,
      "odyss": 5550,
      "oakland": 5551,
      "oravec": 5552,
      "ohio": 5553,
      "ounce": 5554,
      "office": 5555,
      "olaf": 5556,
      "oliver": 5557,
      "obanaza": 5558,
      "opec": 5559,
      "ogarzyns": 5560,
      "ptwc": 5561,
      "pythag": 5562,
      "purcell": 5563,
      "prevention": 5564,
      "pstn": 5565,
      "pedrillo": 5566,
      "pfannk": 5567,
      "qvc": 5568,
      "rwanda": 5569,
      "rệp": 5570,
      "ranch": 5571,
      "rustenburg": 5572,
      "rspca": 5573,
      "research": 5574,
      "scandina": 5575,
      "syria": 5576,
      "smith": 5577,
      "seork": 5578,
      "sesame": 5579,
      "satoru": 5580,
      "sasebo": 5581,
      "sveriges": 5582,
      "smyrna": 5583,
      "sintra": 5584,
      "science": 5585,
      "sydney": 5586,
      "tcn": 5587,
      "tdễ": 5588,
      "tmz": 5589,
      "tươi": 5590,
      "tallinn": 5591,
      "tendul": 5592,
      "tele": 5593,
      "university": 5594,
      "ucla": 5595,
      "ukraine": 5596,
      "ürüm": 5597,
      "uthappa": 5598,
      "urani": 5599,
      "uppsala": 5600,
      "usaf": 5601,
      "unión": 5602,
      "uighur": 5603,
      "vpn": 5604,
      "verde": 5605,
      "visa": 5606,
      "vasco": 5607,
      "vernaz": 5608,
      "veguilla": 5609,
      "weise": 5610,
      "wladys": 5611,
      "waitemata": 5612,
      "wellington": 5613,
      "whirling": 5614,
      "wagon": 5615,
      "wikinews": 5616,
      "wonders": 5617,
      "xtô": 5618,
      "xiếc": 5619,
      "xtéc": 5620,
      "yahoo": 5621,
      "yểm": 5622,
      "yasovarman": 5623,
      "zachary": 5624,
      "zoom": 5625,
      "zhangjia": 5626,
      "zoungla": 5627,
      "ziggurat": 5628,
      "_giore": 5629,
      "_tonga": 5630,
      "_surfing": 5631,
      "_ioglou": 5632,
      "_borhood": 5633,
      "_blica": 5634,
      "_wana": 5635,
      "_ngordel": 5636,
      "thuỷ": 5637,
      "therese": 5638,
      "thrace": 5639,
      "thrashers": 5640,
      "trinity": 5641,
      "tratado": 5642,
      "triantafylo": 5643,
      "cherry": 5644,
      "chase": 5645,
      "nhíp": 5646,
      "khamenei": 5647,
      "ngorongor": 5648,
      "phễu": 5649,
      "phantom": 5650,
      "phondey": 5651,
      "cuerden": 5652,
      "cushing": 5653,
      "gillard": 5654,
      "house": 5655,
      "horrocks": 5656,
      "holborn": 5657,
      "hokuriku": 5658,
      "_anthropus": 5659,
      "dustin": 5660,
      "duxbury": 5661,
      "choudhary": 5662,
      "rarotonga": 5663,
      "chicken": 5664,
      "chişinău": 5665,
      "loesch": 5666,
      "muchanga": 5667,
      "mussolini": 5668,
      "muxloe": 5669,
      "müslüm": 5670,
      "downing": 5671,
      "domingo": 5672,
      "lufthansa": 5673,
      "toronto": 5674,
      "coaster": 5675,
      "cologne": 5676,
      "council": 5677,
      "coverciano": 5678,
      "couchsurfing": 5679,
      "copernicus": 5680,
      "cowparade": 5681,
      "constitution": 5682,
      "connaught": 5683,
      "lyndon": 5684,
      "soleil": 5685,
      "sophocles": 5686,
      "society": 5687,
      "somali": 5688,
      "namgyel": 5689,
      "vilnius": 5690,
      "backstrom": 5691,
      "babylon": 5692,
      "batten": 5693,
      "bafokeng": 5694,
      "rooms": 5695,
      "rotorua": 5696,
      "rodrigo": 5697,
      "giancarlo": 5698,
      "dilokrit": 5699,
      "diego": 5700,
      "bulgaria": 5701,
      "tayyip": 5702,
      "intrigue": 5703,
      "_akopoulos": 5704,
      "neighborhood": 5705,
      "antoinette": 5706,
      "anatolia": 5707,
      "_ridae": 5708,
      "lafasto": 5709,
      "xavier": 5710,
      "rumelia": 5711,
      "trafalgar": 5712,
      "aldwych": 5713,
      "alessandro": 5714,
      "joseon": 5715,
      "joaquim": 5716,
      "jochemsen": 5717,
      "cafenet": 5718,
      "taizicheng": 5719,
      "artibonite": 5720,
      "artemis": 5721,
      "aristophanes": 5722,
      "kechagioglou": 5723,
      "riomaggiore": 5724,
      "recep": 5725,
      "república": 5726,
      "revolution": 5727,
      "botswana": 5728,
      "booking": 5729,
      "boulevard": 5730,
      "sanskrit": 5731,
      "sanparks": 5732,
      "santiago": 5733,
      "savanna": 5734,
      "sahei": 5735,
      "sahelanthropus": 5736,
      "sharipov": 5737,
      "shannessy": 5738,
      "shimonoseki": 5739,
      "johannesburg": 5740,
      "marshal": 5741,
      "suplicy": 5742,
      "provisional": 5743,
      "deutsche": 5744,
      "astronet": 5745,
      "ghẹo": 5746,
      "ghraib": 5747,
      "methanol": 5748,
      "metrorail": 5749,
      "carpanedo": 5750,
      "campuchia": 5751,
      "sepulveda": 5752,
      "afcfta": 5753,
      "niigata": 5754,
      "nikolakopoulos": 5755,
      "nicholas": 5756,
      "bartolomé": 5757,
      "gürses": 5758,
      "mohenjo": 5759,
      "mozambique": 5760,
      "tribune": 5761,
      "capuchino": 5762,
      "capuzzo": 5763,
      "flagstaff": 5764,
      "management": 5765,
      "mantouvalos": 5766,
      "pohutukawa": 5767,
      "augustus": 5768,
      "gaziantep": 5769,
      "airways": 5770,
      "berhane": 5771,
      "kennedy": 5772,
      "palawan": 5773,
      "galilei": 5774,
      "espresso": 5775,
      "liguria": 5776,
      "michele": 5777,
      "scopolamine": 5778,
      "giovanni": 5779,
      "monterosso": 5780,
      "brewery": 5781,
      "crocodile": 5782,
      "kristoffer": 5783,
      "lastucci": 5784,
      "mêlamin": 5785,
      "pattavee": 5786,
      "raymond": 5787,
      "chhatrapati": 5788,
      "dunkirk": 5789,
      "elizabethae": 5790,
      "corporation": 5791,
      "corniglia": 5792,
      "craigslist": 5793,
      "grachtengordel": 5794,
      "punjabi": 5795,
      "massachusetts": 5796,
      "brzezinski": 5797,
      "brisbane": 5798,
      "belgrade": 5799,
      "ephesians": 5800,
      "formosa": 5801,
      "kalaalleq": 5802,
      "mcmurdo": 5803,
      "oldsmobile": 5804,
      "velasquez": 5805,
      "transantarctic": 5806,
      "transnistria": 5807,
      "christopher": 5808,
      "christchurch": 5809,
      "palmeiras": 5810,
      "borsellino": 5811,
      "dervishes": 5812,
      "dromaeosauridae": 5813,
      "erdoğan": 5814,
      "evangelos": 5815,
      "fisichella": 5816,
      "gyöngyi": 5817,
      "jiménez": 5818,
      "keselowski": 5819,
      "kriegsmarine": 5820,
      "napoleon": 5821,
      "odyssey": 5822,
      "obanazawa": 5823,
      "ogarzynska": 5824,
      "pythagoras": 5825,
      "pfannkuchen": 5826,
      "scandinavian": 5827,
      "tendulkar": 5828,
      "ürümqi": 5829,
      "vernazza": 5830,
      "wladyslaw": 5831,
      "zhangjiakou": 5832,
      "triantafylopoulos": 5833,
      "ngorongoro": 5834,
      "aps": 5835,
      "bát": 5836,
      "bích": 5837,
      "born": 5838,
      "bord": 5839,
      "cấy": 5840,
      "cad": 5841,
      "cẩm": 5842,
      "dỡ": 5843,
      "ey": 5844,
      "ew": 5845,
      "eth": 5846,
      "eti": 5847,
      "east": 5848,
      "ether": 5849,
      "ehr": 5850,
      "fer": 5851,
      "fat": 5852,
      "fron": 5853,
      "gay": 5854,
      "gro": 5855,
      "gard": 5856,
      "heo": 5857,
      "hái": 5858,
      "hảo": 5859,
      "hán": 5860,
      "hit": 5861,
      "hiếp": 5862,
      "hald": 5863,
      "io": 5864,
      "ju": 5865,
      "king": 5866,
      "klo": 5867,
      "lap": 5868,
      "lạch": 5869,
      "lad": 5870,
      "my": 5871,
      "ms": 5872,
      "mĩ": 5873,
      "ná": 5874,
      "nôn": 5875,
      "nặn": 5876,
      "os": 5877,
      "pay": 5878,
      "pam": 5879,
      "pli": 5880,
      "qat": 5881,
      "rr": 5882,
      "rh": 5883,
      "rặng": 5884,
      "slan": 5885,
      "tt": 5886,
      "tĩ": 5887,
      "ull": 5888,
      "vv": 5889,
      "vần": 5890,
      "vau": 5891,
      "vol": 5892,
      "vắt": 5893,
      "vish": 5894,
      "wall": 5895,
      "yar": 5896,
      "yos": 5897,
      "điêu": 5898,
      "đẫm": 5899,
      "_̀nh": 5900,
      "_nu": 5901,
      "_nold": 5902,
      "_gv": 5903,
      "_gel": 5904,
      "_gic": 5905,
      "_gus": 5906,
      "_ot": 5907,
      "_oya": 5908,
      "_oks": 5909,
      "_cy": 5910,
      "_cau": 5911,
      "_cur": 5912,
      "_cines": 5913,
      "_rd": 5914,
      "_rus": 5915,
      "_tz": 5916,
      "_ympic": 5917,
      "_ygv": 5918,
      "_̣m": 5919,
      "_pin": 5920,
      "_hl": 5921,
      "_hya": 5922,
      "_dam": 5923,
      "_ekhar": 5924,
      "_sv": 5925,
      "_sun": 5926,
      "_ire": 5927,
      "_mad": 5928,
      "_mou": 5929,
      "_jor": 5930,
      "_lred": 5931,
      "_fiti": 5932,
      "_zek": 5933,
      "_bro": 5934,
      "_wald": 5935,
      "_wood": 5936,
      "_ki": 5937,
      "_̈ck": 5938,
      "_ênh": 5939,
      "thiển": 5940,
      "thợ": 5941,
      "tráng": 5942,
      "trán": 5943,
      "trygv": 5944,
      "chắt": 5945,
      "cháu": 5946,
      "khốc": 5947,
      "ngẫm": 5948,
      "vàn": 5949,
      "phà": 5950,
      "phô": 5951,
      "phồn": 5952,
      "phốt": 5953,
      "cuộn": 5954,
      "_ệch": 5955,
      "giảng": 5956,
      "nhựa": 5957,
      "hò": 5958,
      "hoà": 5959,
      "hoan": 5960,
      "holo": 5961,
      "đười": 5962,
      "_aní": 5963,
      "_ík": 5964,
      "dund": 5965,
      "_aycur": 5966,
      "ớt": 5967,
      "chúc": 5968,
      "nắp": 5969,
      "_ones": 5970,
      "nghẽ": 5971,
      "nghênh": 5972,
      "ramp": 5973,
      "đói": 5974,
      "cừu": 5975,
      "_amó": 5976,
      "lock": 5977,
      "logic": 5978,
      "lord": 5979,
      "loire": 5980,
      "_erman": 5981,
      "_arsv": 5982,
      "_araní": 5983,
      "nhào": 5984,
      "muham": 5985,
      "_alog": 5986,
      "_alympic": 5987,
      "tùng": 5988,
      "tủy": 5989,
      "turk": 5990,
      "_ening": 5991,
      "_ento": 5992,
      "coch": 5993,
      "\"\"(": 5994,
      "lướt": 5995,
      "lượm": 5996,
      "cợt": 5997,
      "_ory": 5998,
      "ngoạc": 5999,
      "ngọn": 6000,
      "_elred": 6001,
      "soi": 6002,
      "solan": 6003,
      "virus": 6004,
      "_asson": 6005,
      "roca": 6006,
      "dill": 6007,
      "lứa": 6008,
      "butte": 6009,
      "ươi": 6010,
      "súc": 6011,
      "thoi": 6012,
      "mangola": 6013,
      "_legel": 6014,
      "_urb": 6015,
      "_ima": 6016,
      "nguệch": 6017,
      "_low": 6018,
      "_adesh": 6019,
      "_aka": 6020,
      "_akot": 6021,
      "đớn": 6022,
      "anne": 6023,
      "analog": 6024,
      "emir": 6025,
      "_rahl": 6026,
      "rung": 6027,
      "ruồng": 6028,
      "tracy": 6029,
      "cụm": 6030,
      "ngừ": 6031,
      "ngưng": 6032,
      "sợi": 6033,
      "_tha": 6034,
      "_thru": 6035,
      "algeria": 6036,
      "_ilton": 6037,
      "ướp": 6038,
      "võ": 6039,
      "cabo": 6040,
      "_oshi": 6041,
      "arya": 6042,
      "arnold": 6043,
      "_unci": 6044,
      "sans": 6045,
      "major": 6046,
      "shekhar": 6047,
      "nhú": 6048,
      "mede": 6049,
      "lãi": 6050,
      "huynh": 6051,
      "huỳnh": 6052,
      "paralympic": 6053,
      "_top": 6054,
      "_emite": 6055,
      "johndro": 6056,
      "great": 6057,
      "_sturo": 6058,
      "greene": 6059,
      "assun": 6060,
      "asunci": 6061,
      "_livan": 6062,
      "caro": 6063,
      "carro": 6064,
      "carbon": 6065,
      "caroly": 6066,
      "_berg": 6067,
      "guaycur": 6068,
      "guaraní": 6069,
      "guthru": 6070,
      "moham": 6071,
      "cairo": 6072,
      "schwar": 6073,
      "schlegel": 6074,
      "danela": 6075,
      "danub": 6076,
      "frank": 6077,
      "audi": 6078,
      "gaza": 6079,
      "amb": 6080,
      "amster": 6081,
      "goeth": 6082,
      "giễu": 6083,
      "noor": 6084,
      "simon": 6085,
      "_egger": 6086,
      "adek": 6087,
      "adden": 6088,
      "cheers": 6089,
      "montan": 6090,
      "maslow": 6091,
      "indones": 6092,
      "franciszek": 6093,
      "hamilton": 6094,
      "granit": 6095,
      "karno": 6096,
      "lởm": 6097,
      "_space": 6098,
      "thơm": 6099,
      "chởm": 6100,
      "corona": 6101,
      "grafiti": 6102,
      "brooks": 6103,
      "glory": 6104,
      "hertz": 6105,
      "lee": 6106,
      "madhya": 6107,
      "pradesh": 6108,
      "paget": 6109,
      "wilson": 6110,
      "chaco": 6111,
      "vẹn": 6112,
      "veerman": 6113,
      "_aguá": 6114,
      "simpsons": 6115,
      "byron": 6116,
      "bhutha": 6117,
      "erie": 6118,
      "fichte": 6119,
      "kowal": 6120,
      "morakot": 6121,
      "zagros": 6122,
      "_zenegger": 6123,
      "chandra": 6124,
      "_enstrahl": 6125,
      "sullivan": 6126,
      "scotturb": 6127,
      "viking": 6128,
      "vikings": 6129,
      "_tiere": 6130,
      "borneo": 6131,
      "bordento": 6132,
      "cadwald": 6133,
      "eysturo": 6134,
      "ewing": 6135,
      "ethelred": 6136,
      "etihad": 6137,
      "etherlred": 6138,
      "ehrenstrahl": 6139,
      "fergus": 6140,
      "fatima": 6141,
      "frontiere": 6142,
      "groening": 6143,
      "gardens": 6144,
      "hitoshi": 6145,
      "haldarsv": 6146,
      "judo": 6147,
      "klöck": 6148,
      "laptop": 6149,
      "ladoga": 6150,
      "myspace": 6151,
      "osaka": 6152,
      "payaguá": 6153,
      "pamela": 6154,
      "qatar": 6155,
      "rhine": 6156,
      "slania": 6157,
      "tĩu": 6158,
      "ullman": 6159,
      "vautier": 6160,
      "volga": 6161,
      "vishnu": 6162,
      "yarmou": 6163,
      "yosemite": 6164,
      "_caust": 6165,
      "_pink": 6166,
      "_brooke": 6167,
      "trygvasson": 6168,
      "holocaust": 6169,
      "dundee": 6170,
      "nghẽn": 6171,
      "rampro": 6172,
      "lockwood": 6173,
      "muhammad": 6174,
      "turkish": 6175,
      "cochamó": 6176,
      "solanki": 6177,
      "dillon": 6178,
      "emirates": 6179,
      "majorca": 6180,
      "medecines": 6181,
      "paralympics": 6182,
      "johndroe": 6183,
      "assunpink": 6184,
      "asunción": 6185,
      "carolyn": 6186,
      "guaycurú": 6187,
      "guthrum": 6188,
      "mohamed": 6189,
      "schwarzenegger": 6190,
      "danelaw": 6191,
      "danube": 6192,
      "amsterdam": 6193,
      "goethe": 6194,
      "adekoya": 6195,
      "addenbrooke": 6196,
      "montana": 6197,
      "indonesia": 6198,
      "hertzberg": 6199,
      "bordentown": 6200,
      "cadwalder": 6201,
      "eysturoy": 6202,
      "ferguson": 6203,
      "haldarsvík": 6204,
      "klöcker": 6205,
      "yarmouth": 6206
    }
  }
}